{
  "version": "1.0",
  "truncation": null,
  "padding": null,
  "added_tokens": [
    {
      "id": 0,
      "content": "<pad>",
      "single_word": false,
      "lstrip": false,
      "rstrip": false,
      "normalized": false,
      "special": true
    },
    {
      "id": 1,
      "content": "<unk>",
      "single_word": false,
      "lstrip": false,
      "rstrip": false,
      "normalized": false,
      "special": true
    },
    {
      "id": 2,
      "content": "<s>",
      "single_word": false,
      "lstrip": false,
      "rstrip": false,
      "normalized": false,
      "special": true
    },
    {
      "id": 3,
      "content": "</s>",
      "single_word": false,
      "lstrip": false,
      "rstrip": false,
      "normalized": false,
      "special": true
    }
  ],
  "normalizer": {
    "type": "NFKC"
  },
  "pre_tokenizer": {
    "type": "Metaspace",
    "replacement": "▁",
    "prepend_scheme": "always",
    "split": true
  },
  "post_processor": null,
  "decoder": {
    "type": "Metaspace",
    "replacement": "▁",
    "prepend_scheme": "always",
    "split": true
  },
  "model": {
    "type": "BPE",
    "dropout": null,
    "unk_token": "<unk>",
    "continuing_subword_prefix": null,
    "end_of_word_suffix": null,
    "fuse_unk": false,
    "byte_fallback": false,
    "ignore_merges": false,
    "vocab": {
      "<pad>": 0,
      "<unk>": 1,
      "<s>": 2,
      "</s>": 3,
      "\n": 4,
      "!": 5,
      "\"": 6,
      "#": 7,
      "$": 8,
      "%": 9,
      "&": 10,
      "'": 11,
      "(": 12,
      ")": 13,
      "*": 14,
      "+": 15,
      ",": 16,
      "-": 17,
      ".": 18,
      "/": 19,
      "0": 20,
      "1": 21,
      "2": 22,
      "3": 23,
      "4": 24,
      "5": 25,
      "6": 26,
      "7": 27,
      "8": 28,
      "9": 29,
      ":": 30,
      ";": 31,
      "<": 32,
      "=": 33,
      ">": 34,
      "?": 35,
      "@": 36,
      "A": 37,
      "B": 38,
      "C": 39,
      "D": 40,
      "E": 41,
      "F": 42,
      "G": 43,
      "H": 44,
      "I": 45,
      "J": 46,
      "K": 47,
      "L": 48,
      "M": 49,
      "N": 50,
      "O": 51,
      "P": 52,
      "Q": 53,
      "R": 54,
      "S": 55,
      "T": 56,
      "U": 57,
      "V": 58,
      "W": 59,
      "X": 60,
      "Y": 61,
      "Z": 62,
      "[": 63,
      "\\": 64,
      "]": 65,
      "^": 66,
      "_": 67,
      "`": 68,
      "a": 69,
      "b": 70,
      "c": 71,
      "d": 72,
      "e": 73,
      "f": 74,
      "g": 75,
      "h": 76,
      "i": 77,
      "j": 78,
      "k": 79,
      "l": 80,
      "m": 81,
      "n": 82,
      "o": 83,
      "p": 84,
      "q": 85,
      "r": 86,
      "s": 87,
      "t": 88,
      "u": 89,
      "v": 90,
      "w": 91,
      "x": 92,
      "y": 93,
      "z": 94,
      "{": 95,
      "|": 96,
      "}": 97,
      "~": 98,
      "¡": 99,
      "¤": 100,
      "§": 101,
      "­": 102,
      "°": 103,
      "·": 104,
      "¿": 105,
      "×": 106,
      "÷": 107,
      "́": 108,
      "̄": 109,
      "̈": 110,
      "̊": 111,
      "π": 112,
      "ω": 113,
      "ᄀ": 114,
      "ᄁ": 115,
      "ᄂ": 116,
      "ᄃ": 117,
      "ᄄ": 118,
      "ᄅ": 119,
      "ᄆ": 120,
      "ᄇ": 121,
      "ᄈ": 122,
      "ᄉ": 123,
      "ᄊ": 124,
      "ᄋ": 125,
      "ᄌ": 126,
      "ᄍ": 127,
      "ᄎ": 128,
      "ᄏ": 129,
      "ᄐ": 130,
      "ᄑ": 131,
      "ᄒ": 132,
      "ᄚ": 133,
      "ᄡ": 134,
      "ᅇ": 135,
      "ᅠ": 136,
      "ᅡ": 137,
      "ᅢ": 138,
      "ᅣ": 139,
      "ᅥ": 140,
      "ᅦ": 141,
      "ᅧ": 142,
      "ᅩ": 143,
      "ᅪ": 144,
      "ᅭ": 145,
      "ᅮ": 146,
      "ᅯ": 147,
      "ᅱ": 148,
      "ᅲ": 149,
      "ᅳ": 150,
      "ᅴ": 151,
      "ᅵ": 152,
      "ᆞ": 153,
      "ᆪ": 154,
      "ᆬ": 155,
      "ᆭ": 156,
      "ᆰ": 157,
      "ᆱ": 158,
      "‘": 159,
      "’": 160,
      "“": 161,
      "”": 162,
      "※": 163,
      "←": 164,
      "↑": 165,
      "→": 166,
      "↓": 167,
      "↗": 168,
      "↘": 169,
      "∀": 170,
      "∇": 171,
      "∼": 172,
      "≤": 173,
      "≥": 174,
      "⊙": 175,
      "⌒": 176,
      "─": 177,
      "━": 178,
      "┏": 179,
      "▁": 180,
      "■": 181,
      "□": 182,
      "△": 183,
      "▶": 184,
      "▷": 185,
      "▼": 186,
      "▽": 187,
      "◀": 188,
      "◁": 189,
      "◆": 190,
      "○": 191,
      "◎": 192,
      "●": 193,
      "◐": 194,
      "◑": 195,
      "★": 196,
      "☆": 197,
      "☜": 198,
      "☞": 199,
      "☻": 200,
      "♡": 201,
      "♤": 202,
      "♥": 203,
      "♧": 204,
      "♩": 205,
      "♪": 206,
      "♫": 207,
      "♬": 208,
      "、": 209,
      "。": 210,
      "《": 211,
      "》": 212,
      "「": 213,
      "」": 214,
      "『": 215,
      "』": 216,
      "【": 217,
      "】": 218,
      "い": 219,
      "う": 220,
      "え": 221,
      "お": 222,
      "か": 223,
      "が": 224,
      "き": 225,
      "け": 226,
      "こ": 227,
      "し": 228,
      "す": 229,
      "せ": 230,
      "そ": 231,
      "た": 232,
      "だ": 233,
      "っ": 234,
      "つ": 235,
      "づ": 236,
      "で": 237,
      "と": 238,
      "な": 239,
      "に": 240,
      "ね": 241,
      "の": 242,
      "は": 243,
      "ひ": 244,
      "ほ": 245,
      "ぽ": 246,
      "ま": 247,
      "む": 248,
      "も": 249,
      "ゃ": 250,
      "よ": 251,
      "ら": 252,
      "り": 253,
      "る": 254,
      "れ": 255,
      "ろ": 256,
      "わ": 257,
      "を": 258,
      "ん": 259,
      "イ": 260,
      "ウ": 261,
      "エ": 262,
      "カ": 263,
      "ガ": 264,
      "グ": 265,
      "コ": 266,
      "シ": 267,
      "ス": 268,
      "タ": 269,
      "ダ": 270,
      "チ": 271,
      "ッ": 272,
      "テ": 273,
      "デ": 274,
      "ト": 275,
      "ニ": 276,
      "バ": 277,
      "パ": 278,
      "ヒ": 279,
      "ピ": 280,
      "ベ": 281,
      "マ": 282,
      "ム": 283,
      "メ": 284,
      "ョ": 285,
      "ヨ": 286,
      "リ": 287,
      "ル": 288,
      "ロ": 289,
      "ワ": 290,
      "ン": 291,
      "一": 292,
      "三": 293,
      "上": 294,
      "下": 295,
      "不": 296,
      "中": 297,
      "乃": 298,
      "也": 299,
      "亞": 300,
      "亡": 301,
      "人": 302,
      "低": 303,
      "佑": 304,
      "作": 305,
      "侖": 306,
      "信": 307,
      "候": 308,
      "倭": 309,
      "傑": 310,
      "僞": 311,
      "先": 312,
      "典": 313,
      "凸": 314,
      "出": 315,
      "刻": 316,
      "前": 317,
      "力": 318,
      "助": 319,
      "北": 320,
      "友": 321,
      "反": 322,
      "古": 323,
      "史": 324,
      "名": 325,
      "吐": 326,
      "味": 327,
      "品": 328,
      "善": 329,
      "喜": 330,
      "型": 331,
      "塵": 332,
      "外": 333,
      "大": 334,
      "天": 335,
      "失": 336,
      "女": 337,
      "好": 338,
      "孝": 339,
      "完": 340,
      "定": 341,
      "害": 342,
      "家": 343,
      "小": 344,
      "山": 345,
      "岡": 346,
      "峰": 347,
      "峽": 348,
      "希": 349,
      "師": 350,
      "年": 351,
      "幸": 352,
      "式": 353,
      "張": 354,
      "彩": 355,
      "彼": 356,
      "待": 357,
      "律": 358,
      "後": 359,
      "復": 360,
      "必": 361,
      "忍": 362,
      "念": 363,
      "急": 364,
      "性": 365,
      "情": 366,
      "惡": 367,
      "愛": 368,
      "感": 369,
      "慄": 370,
      "慶": 371,
      "憎": 372,
      "戰": 373,
      "手": 374,
      "故": 375,
      "敵": 376,
      "新": 377,
      "旋": 378,
      "日": 379,
      "映": 380,
      "曲": 381,
      "最": 382,
      "會": 383,
      "月": 384,
      "有": 385,
      "望": 386,
      "期": 387,
      "木": 388,
      "末": 389,
      "本": 390,
      "林": 391,
      "柱": 392,
      "様": 393,
      "檢": 394,
      "歌": 395,
      "死": 396,
      "氣": 397,
      "求": 398,
      "江": 399,
      "法": 400,
      "派": 401,
      "流": 402,
      "淇": 403,
      "湖": 404,
      "漁": 405,
      "演": 406,
      "濡": 407,
      "火": 408,
      "無": 409,
      "王": 410,
      "生": 411,
      "用": 412,
      "田": 413,
      "甲": 414,
      "申": 415,
      "男": 416,
      "画": 417,
      "異": 418,
      "白": 419,
      "的": 420,
      "皿": 421,
      "益": 422,
      "盧": 423,
      "直": 424,
      "看": 425,
      "眞": 426,
      "眠": 427,
      "祖": 428,
      "神": 429,
      "禪": 430,
      "禮": 431,
      "秀": 432,
      "立": 433,
      "笑": 434,
      "糞": 435,
      "紅": 436,
      "紐": 437,
      "紙": 438,
      "終": 439,
      "結": 440,
      "綠": 441,
      "緣": 442,
      "美": 443,
      "老": 444,
      "者": 445,
      "腸": 446,
      "自": 447,
      "臭": 448,
      "舒": 449,
      "色": 450,
      "苦": 451,
      "英": 452,
      "葉": 453,
      "蒼": 454,
      "藝": 455,
      "蜀": 456,
      "蟲": 457,
      "要": 458,
      "見": 459,
      "觸": 460,
      "言": 461,
      "記": 462,
      "論": 463,
      "謝": 464,
      "讐": 465,
      "車": 466,
      "道": 467,
      "部": 468,
      "都": 469,
      "里": 470,
      "野": 471,
      "鈴": 472,
      "鋒": 473,
      "錢": 474,
      "間": 475,
      "集": 476,
      "離": 477,
      "難": 478,
      "電": 479,
      "霆": 480,
      "非": 481,
      "面": 482,
      "韓": 483,
      "頑": 484,
      "香": 485,
      "驛": 486,
      "高": 487,
      "가": 488,
      "각": 489,
      "간": 490,
      "갅": 491,
      "갇": 492,
      "갈": 493,
      "갉": 494,
      "감": 495,
      "갑": 496,
      "값": 497,
      "갓": 498,
      "갔": 499,
      "강": 500,
      "갖": 501,
      "갗": 502,
      "갘": 503,
      "같": 504,
      "갚": 505,
      "갛": 506,
      "개": 507,
      "객": 508,
      "갠": 509,
      "갤": 510,
      "갬": 511,
      "갭": 512,
      "갯": 513,
      "갰": 514,
      "갱": 515,
      "갵": 516,
      "갸": 517,
      "걀": 518,
      "걈": 519,
      "걍": 520,
      "걑": 521,
      "걔": 522,
      "걘": 523,
      "거": 524,
      "걱": 525,
      "건": 526,
      "걷": 527,
      "걸": 528,
      "검": 529,
      "겁": 530,
      "겂": 531,
      "것": 532,
      "겄": 533,
      "겅": 534,
      "겈": 535,
      "겉": 536,
      "겋": 537,
      "게": 538,
      "겐": 539,
      "겓": 540,
      "겔": 541,
      "겜": 542,
      "겝": 543,
      "겟": 544,
      "겠": 545,
      "겡": 546,
      "겤": 547,
      "겧": 548,
      "겨": 549,
      "격": 550,
      "겪": 551,
      "견": 552,
      "결": 553,
      "겸": 554,
      "겹": 555,
      "겻": 556,
      "겼": 557,
      "경": 558,
      "곀": 559,
      "곁": 560,
      "곃": 561,
      "계": 562,
      "곅": 563,
      "곗": 564,
      "곘": 565,
      "고": 566,
      "곡": 567,
      "곤": 568,
      "곧": 569,
      "골": 570,
      "곪": 571,
      "곰": 572,
      "곱": 573,
      "곳": 574,
      "공": 575,
      "곶": 576,
      "곷": 577,
      "곸": 578,
      "곻": 579,
      "과": 580,
      "곽": 581,
      "관": 582,
      "괄": 583,
      "광": 584,
      "괘": 585,
      "괜": 586,
      "괞": 587,
      "괭": 588,
      "괴": 589,
      "괸": 590,
      "굉": 591,
      "교": 592,
      "구": 593,
      "국": 594,
      "굯": 595,
      "군": 596,
      "굳": 597,
      "굴": 598,
      "굵": 599,
      "굶": 600,
      "굷": 601,
      "굼": 602,
      "굽": 603,
      "굿": 604,
      "궁": 605,
      "궂": 606,
      "궅": 607,
      "궈": 608,
      "권": 609,
      "궐": 610,
      "궛": 611,
      "궜": 612,
      "궤": 613,
      "귀": 614,
      "귄": 615,
      "귈": 616,
      "귐": 617,
      "귓": 618,
      "귘": 619,
      "규": 620,
      "귝": 621,
      "균": 622,
      "귤": 623,
      "귬": 624,
      "귯": 625,
      "귱": 626,
      "그": 627,
      "극": 628,
      "귻": 629,
      "근": 630,
      "귿": 631,
      "글": 632,
      "긁": 633,
      "금": 634,
      "급": 635,
      "긋": 636,
      "긍": 637,
      "긑": 638,
      "긔": 639,
      "긛": 640,
      "긬": 641,
      "기": 642,
      "긱": 643,
      "긴": 644,
      "길": 645,
      "김": 646,
      "깁": 647,
      "깃": 648,
      "깄": 649,
      "깅": 650,
      "깇": 651,
      "깈": 652,
      "깉": 653,
      "깊": 654,
      "까": 655,
      "깍": 656,
      "깎": 657,
      "깐": 658,
      "깔": 659,
      "깜": 660,
      "깝": 661,
      "깞": 662,
      "깟": 663,
      "깠": 664,
      "깡": 665,
      "깤": 666,
      "깥": 667,
      "깨": 668,
      "깩": 669,
      "깬": 670,
      "깰": 671,
      "깸": 672,
      "깹": 673,
      "깻": 674,
      "깼": 675,
      "깽": 676,
      "꺄": 677,
      "꺅": 678,
      "꺆": 679,
      "꺇": 680,
      "꺍": 681,
      "꺙": 682,
      "꺜": 683,
      "꺠": 684,
      "꺤": 685,
      "꺼": 686,
      "꺽": 687,
      "꺾": 688,
      "껀": 689,
      "껃": 690,
      "껄": 691,
      "껌": 692,
      "껍": 693,
      "껏": 694,
      "껐": 695,
      "껑": 696,
      "껒": 697,
      "께": 698,
      "껜": 699,
      "껬": 700,
      "껭": 701,
      "껰": 702,
      "껴": 703,
      "꼅": 704,
      "꼇": 705,
      "꼈": 706,
      "꼐": 707,
      "꼬": 708,
      "꼭": 709,
      "꼮": 710,
      "꼰": 711,
      "꼳": 712,
      "꼴": 713,
      "꼼": 714,
      "꼽": 715,
      "꼿": 716,
      "꽁": 717,
      "꽂": 718,
      "꽃": 719,
      "꽄": 720,
      "꽈": 721,
      "꽉": 722,
      "꽝": 723,
      "꽤": 724,
      "꽥": 725,
      "꽦": 726,
      "꽹": 727,
      "꾀": 728,
      "꾜": 729,
      "꾱": 730,
      "꾸": 731,
      "꾹": 732,
      "꾼": 733,
      "꾿": 734,
      "꿀": 735,
      "꿇": 736,
      "꿈": 737,
      "꿉": 738,
      "꿋": 739,
      "꿍": 740,
      "꿎": 741,
      "꿐": 742,
      "꿑": 743,
      "꿓": 744,
      "꿔": 745,
      "꿘": 746,
      "꿧": 747,
      "꿨": 748,
      "꿩": 749,
      "꿬": 750,
      "꿰": 751,
      "뀌": 752,
      "뀐": 753,
      "뀔": 754,
      "뀜": 755,
      "뀨": 756,
      "뀩": 757,
      "뀰": 758,
      "뀼": 759,
      "끄": 760,
      "끅": 761,
      "끆": 762,
      "끈": 763,
      "끊": 764,
      "끋": 765,
      "끌": 766,
      "끓": 767,
      "끔": 768,
      "끕": 769,
      "끗": 770,
      "끙": 771,
      "끚": 772,
      "끝": 773,
      "끠": 774,
      "끼": 775,
      "끽": 776,
      "끾": 777,
      "낀": 778,
      "낄": 779,
      "낌": 780,
      "낍": 781,
      "낏": 782,
      "낑": 783,
      "낔": 784,
      "나": 785,
      "낙": 786,
      "낚": 787,
      "낛": 788,
      "난": 789,
      "낞": 790,
      "낟": 791,
      "날": 792,
      "낡": 793,
      "남": 794,
      "납": 795,
      "낫": 796,
      "났": 797,
      "낭": 798,
      "낮": 799,
      "낯": 800,
      "낰": 801,
      "낱": 802,
      "낲": 803,
      "낳": 804,
      "내": 805,
      "낸": 806,
      "낼": 807,
      "냄": 808,
      "냅": 809,
      "냇": 810,
      "냈": 811,
      "냉": 812,
      "냊": 813,
      "냌": 814,
      "냐": 815,
      "냑": 816,
      "냔": 817,
      "냠": 818,
      "냣": 819,
      "냥": 820,
      "냨": 821,
      "냬": 822,
      "넀": 823,
      "너": 824,
      "넉": 825,
      "넋": 826,
      "넌": 827,
      "널": 828,
      "넒": 829,
      "넓": 830,
      "넖": 831,
      "넗": 832,
      "넘": 833,
      "넙": 834,
      "넛": 835,
      "넜": 836,
      "넝": 837,
      "넢": 838,
      "넣": 839,
      "네": 840,
      "넥": 841,
      "넨": 842,
      "넫": 843,
      "넬": 844,
      "넴": 845,
      "넵": 846,
      "넷": 847,
      "넸": 848,
      "넹": 849,
      "넼": 850,
      "넿": 851,
      "녀": 852,
      "녁": 853,
      "년": 854,
      "녈": 855,
      "념": 856,
      "녓": 857,
      "녔": 858,
      "녕": 859,
      "녘": 860,
      "녜": 861,
      "노": 862,
      "녹": 863,
      "논": 864,
      "녿": 865,
      "놀": 866,
      "놃": 867,
      "놈": 868,
      "놉": 869,
      "놋": 870,
      "농": 871,
      "놑": 872,
      "높": 873,
      "놓": 874,
      "놔": 875,
      "놕": 876,
      "놘": 877,
      "놜": 878,
      "놧": 879,
      "놨": 880,
      "놬": 881,
      "뇌": 882,
      "뇔": 883,
      "뇨": 884,
      "뇬": 885,
      "뇰": 886,
      "뇽": 887,
      "누": 888,
      "눅": 889,
      "눈": 890,
      "눊": 891,
      "눌": 892,
      "눔": 893,
      "눕": 894,
      "눙": 895,
      "눠": 896,
      "눼": 897,
      "뉘": 898,
      "뉜": 899,
      "뉠": 900,
      "뉨": 901,
      "뉴": 902,
      "늄": 903,
      "늉": 904,
      "느": 905,
      "늑": 906,
      "는": 907,
      "늘": 908,
      "늙": 909,
      "늠": 910,
      "늡": 911,
      "늣": 912,
      "능": 913,
      "늦": 914,
      "늨": 915,
      "늪": 916,
      "늬": 917,
      "늰": 918,
      "늴": 919,
      "닁": 920,
      "니": 921,
      "닉": 922,
      "닊": 923,
      "닌": 924,
      "닏": 925,
      "닐": 926,
      "님": 927,
      "닙": 928,
      "닛": 929,
      "닝": 930,
      "닟": 931,
      "닠": 932,
      "다": 933,
      "닥": 934,
      "닦": 935,
      "단": 936,
      "닫": 937,
      "달": 938,
      "닭": 939,
      "닮": 940,
      "닯": 941,
      "닳": 942,
      "담": 943,
      "답": 944,
      "닶": 945,
      "닷": 946,
      "당": 947,
      "닺": 948,
      "닻": 949,
      "닼": 950,
      "닿": 951,
      "대": 952,
      "댁": 953,
      "댄": 954,
      "댇": 955,
      "댈": 956,
      "댐": 957,
      "댑": 958,
      "댓": 959,
      "댔": 960,
      "댕": 961,
      "댖": 962,
      "댘": 963,
      "댜": 964,
      "댠": 965,
      "댣": 966,
      "댬": 967,
      "댰": 968,
      "댸": 969,
      "더": 970,
      "덕": 971,
      "던": 972,
      "덛": 973,
      "덜": 974,
      "덟": 975,
      "덤": 976,
      "덥": 977,
      "덧": 978,
      "덨": 979,
      "덩": 980,
      "덫": 981,
      "덮": 982,
      "덯": 983,
      "데": 984,
      "덱": 985,
      "덴": 986,
      "덷": 987,
      "델": 988,
      "뎀": 989,
      "뎁": 990,
      "뎃": 991,
      "뎄": 992,
      "뎅": 993,
      "뎈": 994,
      "뎋": 995,
      "뎌": 996,
      "뎍": 997,
      "뎐": 998,
      "뎜": 999,
      "뎟": 1000,
      "뎠": 1001,
      "뎡": 1002,
      "도": 1003,
      "독": 1004,
      "돈": 1005,
      "돋": 1006,
      "돌": 1007,
      "돔": 1008,
      "돕": 1009,
      "돗": 1010,
      "동": 1011,
      "돜": 1012,
      "돟": 1013,
      "돠": 1014,
      "돤": 1015,
      "돱": 1016,
      "돼": 1017,
      "됀": 1018,
      "됄": 1019,
      "됌": 1020,
      "됏": 1021,
      "됐": 1022,
      "됑": 1023,
      "되": 1024,
      "된": 1025,
      "될": 1026,
      "됨": 1027,
      "됩": 1028,
      "됫": 1029,
      "됬": 1030,
      "됭": 1031,
      "됴": 1032,
      "됻": 1033,
      "두": 1034,
      "둑": 1035,
      "둔": 1036,
      "둘": 1037,
      "둠": 1038,
      "둡": 1039,
      "둣": 1040,
      "둥": 1041,
      "둬": 1042,
      "둿": 1043,
      "뒀": 1044,
      "뒈": 1045,
      "뒌": 1046,
      "뒤": 1047,
      "뒷": 1048,
      "뒹": 1049,
      "듀": 1050,
      "듁": 1051,
      "듕": 1052,
      "드": 1053,
      "득": 1054,
      "든": 1055,
      "듣": 1056,
      "들": 1057,
      "듦": 1058,
      "듧": 1059,
      "듨": 1060,
      "듬": 1061,
      "듭": 1062,
      "듯": 1063,
      "등": 1064,
      "듴": 1065,
      "듵": 1066,
      "듷": 1067,
      "듸": 1068,
      "딍": 1069,
      "디": 1070,
      "딕": 1071,
      "딘": 1072,
      "딛": 1073,
      "딜": 1074,
      "딤": 1075,
      "딥": 1076,
      "딧": 1077,
      "딨": 1078,
      "딩": 1079,
      "딪": 1080,
      "딫": 1081,
      "딬": 1082,
      "딮": 1083,
      "따": 1084,
      "딱": 1085,
      "딲": 1086,
      "딴": 1087,
      "딸": 1088,
      "땀": 1089,
      "땁": 1090,
      "땃": 1091,
      "땄": 1092,
      "땅": 1093,
      "땈": 1094,
      "땋": 1095,
      "때": 1096,
      "땍": 1097,
      "땐": 1098,
      "땓": 1099,
      "땔": 1100,
      "땜": 1101,
      "땝": 1102,
      "땟": 1103,
      "땠": 1104,
      "땡": 1105,
      "땨": 1106,
      "땸": 1107,
      "떄": 1108,
      "떈": 1109,
      "떌": 1110,
      "떔": 1111,
      "떘": 1112,
      "떙": 1113,
      "떠": 1114,
      "떡": 1115,
      "떤": 1116,
      "떨": 1117,
      "떫": 1118,
      "떰": 1119,
      "떱": 1120,
      "떳": 1121,
      "떴": 1122,
      "떵": 1123,
      "떻": 1124,
      "떼": 1125,
      "떽": 1126,
      "뗀": 1127,
      "뗄": 1128,
      "뗬": 1129,
      "뗴": 1130,
      "뗼": 1131,
      "또": 1132,
      "똑": 1133,
      "똔": 1134,
      "똗": 1135,
      "똘": 1136,
      "똠": 1137,
      "똥": 1138,
      "똭": 1139,
      "똴": 1140,
      "뙀": 1141,
      "뙁": 1142,
      "뙇": 1143,
      "뚜": 1144,
      "뚝": 1145,
      "뚠": 1146,
      "뚤": 1147,
      "뚫": 1148,
      "뚬": 1149,
      "뚯": 1150,
      "뚱": 1151,
      "뛰": 1152,
      "뛴": 1153,
      "뛸": 1154,
      "뜀": 1155,
      "뜁": 1156,
      "뜌": 1157,
      "뜨": 1158,
      "뜩": 1159,
      "뜬": 1160,
      "뜯": 1161,
      "뜰": 1162,
      "뜷": 1163,
      "뜸": 1164,
      "뜻": 1165,
      "뜽": 1166,
      "띀": 1167,
      "띁": 1168,
      "띄": 1169,
      "띈": 1170,
      "띌": 1171,
      "띔": 1172,
      "띠": 1173,
      "띡": 1174,
      "띤": 1175,
      "띨": 1176,
      "띰": 1177,
      "띱": 1178,
      "띵": 1179,
      "라": 1180,
      "락": 1181,
      "란": 1182,
      "랃": 1183,
      "랄": 1184,
      "람": 1185,
      "랍": 1186,
      "랏": 1187,
      "랐": 1188,
      "랑": 1189,
      "랒": 1190,
      "랔": 1191,
      "랖": 1192,
      "랗": 1193,
      "래": 1194,
      "랙": 1195,
      "랜": 1196,
      "랟": 1197,
      "랠": 1198,
      "램": 1199,
      "랩": 1200,
      "랫": 1201,
      "랬": 1202,
      "랭": 1203,
      "랰": 1204,
      "랴": 1205,
      "략": 1206,
      "랽": 1207,
      "럈": 1208,
      "량": 1209,
      "럔": 1210,
      "럤": 1211,
      "러": 1212,
      "럭": 1213,
      "런": 1214,
      "럴": 1215,
      "럼": 1216,
      "럽": 1217,
      "럾": 1218,
      "럿": 1219,
      "렀": 1220,
      "렁": 1221,
      "렇": 1222,
      "레": 1223,
      "렉": 1224,
      "렌": 1225,
      "렐": 1226,
      "렘": 1227,
      "렙": 1228,
      "렛": 1229,
      "렜": 1230,
      "렝": 1231,
      "렠": 1232,
      "려": 1233,
      "력": 1234,
      "련": 1235,
      "렬": 1236,
      "렴": 1237,
      "렵": 1238,
      "렷": 1239,
      "렸": 1240,
      "령": 1241,
      "렿": 1242,
      "례": 1243,
      "롁": 1244,
      "롄": 1245,
      "로": 1246,
      "록": 1247,
      "론": 1248,
      "롤": 1249,
      "롬": 1250,
      "롭": 1251,
      "롯": 1252,
      "롱": 1253,
      "롴": 1254,
      "롷": 1255,
      "롸": 1256,
      "롹": 1257,
      "뢀": 1258,
      "뢈": 1259,
      "뢉": 1260,
      "뢍": 1261,
      "뢔": 1262,
      "뢰": 1263,
      "료": 1264,
      "룔": 1265,
      "룕": 1266,
      "룡": 1267,
      "루": 1268,
      "룩": 1269,
      "룬": 1270,
      "룯": 1271,
      "룰": 1272,
      "룸": 1273,
      "룹": 1274,
      "룻": 1275,
      "룽": 1276,
      "뤄": 1277,
      "뤌": 1278,
      "뤘": 1279,
      "뤠": 1280,
      "뤡": 1281,
      "뤰": 1282,
      "뤼": 1283,
      "뤽": 1284,
      "륄": 1285,
      "륒": 1286,
      "류": 1287,
      "륙": 1288,
      "륜": 1289,
      "률": 1290,
      "륨": 1291,
      "륭": 1292,
      "르": 1293,
      "륵": 1294,
      "른": 1295,
      "륺": 1296,
      "를": 1297,
      "름": 1298,
      "릅": 1299,
      "릇": 1300,
      "릉": 1301,
      "릋": 1302,
      "릌": 1303,
      "릎": 1304,
      "릏": 1305,
      "릐": 1306,
      "릣": 1307,
      "리": 1308,
      "릭": 1309,
      "린": 1310,
      "릳": 1311,
      "릴": 1312,
      "림": 1313,
      "립": 1314,
      "릿": 1315,
      "링": 1316,
      "맂": 1317,
      "맄": 1318,
      "마": 1319,
      "막": 1320,
      "만": 1321,
      "맍": 1322,
      "많": 1323,
      "맏": 1324,
      "말": 1325,
      "맑": 1326,
      "맗": 1327,
      "맘": 1328,
      "맙": 1329,
      "맛": 1330,
      "맜": 1331,
      "망": 1332,
      "맞": 1333,
      "맟": 1334,
      "맠": 1335,
      "맡": 1336,
      "맣": 1337,
      "매": 1338,
      "맥": 1339,
      "맨": 1340,
      "맬": 1341,
      "맴": 1342,
      "맵": 1343,
      "맷": 1344,
      "맸": 1345,
      "맹": 1346,
      "맺": 1347,
      "맻": 1348,
      "먀": 1349,
      "먄": 1350,
      "먠": 1351,
      "머": 1352,
      "먹": 1353,
      "먼": 1354,
      "먾": 1355,
      "멀": 1356,
      "멈": 1357,
      "멉": 1358,
      "멋": 1359,
      "멌": 1360,
      "멍": 1361,
      "멎": 1362,
      "멐": 1363,
      "멓": 1364,
      "메": 1365,
      "멕": 1366,
      "멘": 1367,
      "멜": 1368,
      "멤": 1369,
      "멧": 1370,
      "멩": 1371,
      "며": 1372,
      "멱": 1373,
      "면": 1374,
      "멸": 1375,
      "몀": 1376,
      "몃": 1377,
      "몄": 1378,
      "명": 1379,
      "몆": 1380,
      "몇": 1381,
      "모": 1382,
      "목": 1383,
      "몫": 1384,
      "몬": 1385,
      "몰": 1386,
      "몸": 1387,
      "몹": 1388,
      "못": 1389,
      "몽": 1390,
      "뫁": 1391,
      "뫄": 1392,
      "뫘": 1393,
      "뫼": 1394,
      "묘": 1395,
      "묠": 1396,
      "묨": 1397,
      "묭": 1398,
      "무": 1399,
      "묵": 1400,
      "묶": 1401,
      "문": 1402,
      "묻": 1403,
      "물": 1404,
      "묽": 1405,
      "뭄": 1406,
      "뭇": 1407,
      "뭉": 1408,
      "뭍": 1409,
      "뭐": 1410,
      "뭔": 1411,
      "뭘": 1412,
      "뭡": 1413,
      "뭣": 1414,
      "뭥": 1415,
      "뭨": 1416,
      "뭬": 1417,
      "뮁": 1418,
      "뮈": 1419,
      "뮌": 1420,
      "뮐": 1421,
      "뮝": 1422,
      "뮤": 1423,
      "뮨": 1424,
      "뮬": 1425,
      "므": 1426,
      "믄": 1427,
      "믈": 1428,
      "믐": 1429,
      "믓": 1430,
      "믕": 1431,
      "믜": 1432,
      "미": 1433,
      "믹": 1434,
      "믺": 1435,
      "민": 1436,
      "믿": 1437,
      "밀": 1438,
      "밈": 1439,
      "밉": 1440,
      "밋": 1441,
      "밌": 1442,
      "밍": 1443,
      "밎": 1444,
      "및": 1445,
      "밐": 1446,
      "밑": 1447,
      "밓": 1448,
      "바": 1449,
      "박": 1450,
      "밖": 1451,
      "반": 1452,
      "받": 1453,
      "발": 1454,
      "밝": 1455,
      "밟": 1456,
      "밣": 1457,
      "밤": 1458,
      "밥": 1459,
      "밧": 1460,
      "밨": 1461,
      "방": 1462,
      "밫": 1463,
      "밬": 1464,
      "밭": 1465,
      "배": 1466,
      "백": 1467,
      "밴": 1468,
      "밷": 1469,
      "밸": 1470,
      "뱀": 1471,
      "뱁": 1472,
      "뱃": 1473,
      "뱅": 1474,
      "뱆": 1475,
      "뱉": 1476,
      "뱌": 1477,
      "뱍": 1478,
      "뱎": 1479,
      "뱔": 1480,
      "버": 1481,
      "벅": 1482,
      "번": 1483,
      "벋": 1484,
      "벌": 1485,
      "범": 1486,
      "법": 1487,
      "벗": 1488,
      "벙": 1489,
      "벚": 1490,
      "베": 1491,
      "벡": 1492,
      "벤": 1493,
      "벨": 1494,
      "벰": 1495,
      "벳": 1496,
      "벴": 1497,
      "벵": 1498,
      "벸": 1499,
      "벼": 1500,
      "벽": 1501,
      "변": 1502,
      "별": 1503,
      "볌": 1504,
      "볍": 1505,
      "볐": 1506,
      "병": 1507,
      "볓": 1508,
      "볔": 1509,
      "볕": 1510,
      "볠": 1511,
      "보": 1512,
      "복": 1513,
      "볶": 1514,
      "본": 1515,
      "볹": 1516,
      "볻": 1517,
      "볼": 1518,
      "봄": 1519,
      "봅": 1520,
      "봇": 1521,
      "봈": 1522,
      "봉": 1523,
      "봊": 1524,
      "봐": 1525,
      "봑": 1526,
      "봘": 1527,
      "봙": 1528,
      "봣": 1529,
      "봤": 1530,
      "봨": 1531,
      "봫": 1532,
      "봬": 1533,
      "봭": 1534,
      "봴": 1535,
      "봵": 1536,
      "뵈": 1537,
      "뵌": 1538,
      "뵐": 1539,
      "뵙": 1540,
      "뵛": 1541,
      "뵜": 1542,
      "뵤": 1543,
      "뵨": 1544,
      "뵹": 1545,
      "부": 1546,
      "북": 1547,
      "분": 1548,
      "붅": 1549,
      "붆": 1550,
      "붇": 1551,
      "불": 1552,
      "붉": 1553,
      "붐": 1554,
      "붑": 1555,
      "붓": 1556,
      "붕": 1557,
      "붙": 1558,
      "붜": 1559,
      "붤": 1560,
      "붸": 1561,
      "붹": 1562,
      "뷁": 1563,
      "뷃": 1564,
      "뷐": 1565,
      "뷔": 1566,
      "뷰": 1567,
      "뷴": 1568,
      "뷸": 1569,
      "븅": 1570,
      "브": 1571,
      "븍": 1572,
      "븐": 1573,
      "블": 1574,
      "븜": 1575,
      "븟": 1576,
      "븡": 1577,
      "븨": 1578,
      "븬": 1579,
      "빂": 1580,
      "비": 1581,
      "빅": 1582,
      "빈": 1583,
      "빋": 1584,
      "빌": 1585,
      "빔": 1586,
      "빕": 1587,
      "빗": 1588,
      "빙": 1589,
      "빚": 1590,
      "빛": 1591,
      "빝": 1592,
      "빠": 1593,
      "빡": 1594,
      "빢": 1595,
      "빤": 1596,
      "빨": 1597,
      "빰": 1598,
      "빳": 1599,
      "빴": 1600,
      "빵": 1601,
      "빼": 1602,
      "빽": 1603,
      "뺀": 1604,
      "뺄": 1605,
      "뺌": 1606,
      "뺍": 1607,
      "뺏": 1608,
      "뺐": 1609,
      "뺑": 1610,
      "뺒": 1611,
      "뺘": 1612,
      "뺠": 1613,
      "뺨": 1614,
      "뺴": 1615,
      "뺵": 1616,
      "뻉": 1617,
      "뻐": 1618,
      "뻑": 1619,
      "뻔": 1620,
      "뻗": 1621,
      "뻘": 1622,
      "뻡": 1623,
      "뻣": 1624,
      "뻤": 1625,
      "뻥": 1626,
      "뻬": 1627,
      "뻭": 1628,
      "뻴": 1629,
      "뼈": 1630,
      "뼉": 1631,
      "뼘": 1632,
      "뼛": 1633,
      "뼜": 1634,
      "뽀": 1635,
      "뽁": 1636,
      "뽄": 1637,
      "뽈": 1638,
      "뽐": 1639,
      "뽑": 1640,
      "뽕": 1641,
      "뽜": 1642,
      "뽠": 1643,
      "뽯": 1644,
      "뽱": 1645,
      "뾰": 1646,
      "뿅": 1647,
      "뿌": 1648,
      "뿍": 1649,
      "뿐": 1650,
      "뿔": 1651,
      "뿜": 1652,
      "뿡": 1653,
      "뿨": 1654,
      "뿩": 1655,
      "뿰": 1656,
      "쀍": 1657,
      "쀠": 1658,
      "쀨": 1659,
      "쀼": 1660,
      "쁘": 1661,
      "쁜": 1662,
      "쁠": 1663,
      "쁨": 1664,
      "쁩": 1665,
      "삐": 1666,
      "삑": 1667,
      "삔": 1668,
      "삘": 1669,
      "삤": 1670,
      "삥": 1671,
      "사": 1672,
      "삭": 1673,
      "산": 1674,
      "삳": 1675,
      "살": 1676,
      "삵": 1677,
      "삶": 1678,
      "삻": 1679,
      "삼": 1680,
      "삽": 1681,
      "삿": 1682,
      "샀": 1683,
      "상": 1684,
      "샅": 1685,
      "새": 1686,
      "색": 1687,
      "샊": 1688,
      "샌": 1689,
      "샐": 1690,
      "샘": 1691,
      "샙": 1692,
      "샛": 1693,
      "샜": 1694,
      "생": 1695,
      "샠": 1696,
      "샡": 1697,
      "샣": 1698,
      "샤": 1699,
      "샥": 1700,
      "샨": 1701,
      "샬": 1702,
      "샴": 1703,
      "샵": 1704,
      "샷": 1705,
      "샹": 1706,
      "섀": 1707,
      "서": 1708,
      "석": 1709,
      "섞": 1710,
      "선": 1711,
      "섣": 1712,
      "설": 1713,
      "섥": 1714,
      "섫": 1715,
      "섬": 1716,
      "섭": 1717,
      "섯": 1718,
      "섰": 1719,
      "성": 1720,
      "섲": 1721,
      "섳": 1722,
      "섴": 1723,
      "섵": 1724,
      "섶": 1725,
      "섷": 1726,
      "세": 1727,
      "섹": 1728,
      "섺": 1729,
      "섻": 1730,
      "센": 1731,
      "섿": 1732,
      "셀": 1733,
      "셈": 1734,
      "셉": 1735,
      "셋": 1736,
      "셌": 1737,
      "셍": 1738,
      "셐": 1739,
      "셑": 1740,
      "셔": 1741,
      "셕": 1742,
      "션": 1743,
      "셜": 1744,
      "셤": 1745,
      "셧": 1746,
      "셨": 1747,
      "셩": 1748,
      "셰": 1749,
      "셴": 1750,
      "셸": 1751,
      "솀": 1752,
      "소": 1753,
      "속": 1754,
      "솎": 1755,
      "손": 1756,
      "솓": 1757,
      "솔": 1758,
      "솜": 1759,
      "솝": 1760,
      "솟": 1761,
      "송": 1762,
      "솢": 1763,
      "솤": 1764,
      "솥": 1765,
      "솧": 1766,
      "솨": 1767,
      "솰": 1768,
      "쇄": 1769,
      "쇠": 1770,
      "쇳": 1771,
      "쇼": 1772,
      "숀": 1773,
      "숄": 1774,
      "숍": 1775,
      "숏": 1776,
      "숑": 1777,
      "수": 1778,
      "숙": 1779,
      "순": 1780,
      "숟": 1781,
      "술": 1782,
      "숨": 1783,
      "숩": 1784,
      "숫": 1785,
      "숭": 1786,
      "숯": 1787,
      "숰": 1788,
      "숱": 1789,
      "숲": 1790,
      "숴": 1791,
      "숼": 1792,
      "쉅": 1793,
      "쉈": 1794,
      "쉐": 1795,
      "쉑": 1796,
      "쉒": 1797,
      "쉔": 1798,
      "쉘": 1799,
      "쉡": 1800,
      "쉣": 1801,
      "쉥": 1802,
      "쉩": 1803,
      "쉬": 1804,
      "쉰": 1805,
      "쉴": 1806,
      "쉼": 1807,
      "쉽": 1808,
      "쉿": 1809,
      "슁": 1810,
      "슈": 1811,
      "슉": 1812,
      "슌": 1813,
      "슐": 1814,
      "슛": 1815,
      "슝": 1816,
      "슠": 1817,
      "스": 1818,
      "슥": 1819,
      "슨": 1820,
      "슬": 1821,
      "슭": 1822,
      "슲": 1823,
      "슴": 1824,
      "습": 1825,
      "슷": 1826,
      "승": 1827,
      "슺": 1828,
      "슼": 1829,
      "슽": 1830,
      "슾": 1831,
      "싀": 1832,
      "싄": 1833,
      "싐": 1834,
      "싑": 1835,
      "싖": 1836,
      "시": 1837,
      "식": 1838,
      "신": 1839,
      "싡": 1840,
      "싢": 1841,
      "싣": 1842,
      "실": 1843,
      "싫": 1844,
      "심": 1845,
      "십": 1846,
      "싯": 1847,
      "싰": 1848,
      "싱": 1849,
      "싴": 1850,
      "싶": 1851,
      "싷": 1852,
      "싸": 1853,
      "싹": 1854,
      "싼": 1855,
      "쌀": 1856,
      "쌈": 1857,
      "쌉": 1858,
      "쌌": 1859,
      "쌍": 1860,
      "쌓": 1861,
      "쌔": 1862,
      "쌕": 1863,
      "쌘": 1864,
      "쌜": 1865,
      "쌤": 1866,
      "쌩": 1867,
      "쌰": 1868,
      "썁": 1869,
      "썅": 1870,
      "썌": 1871,
      "썜": 1872,
      "썡": 1873,
      "써": 1874,
      "썩": 1875,
      "썪": 1876,
      "썬": 1877,
      "썰": 1878,
      "썱": 1879,
      "썸": 1880,
      "썹": 1881,
      "썻": 1882,
      "썼": 1883,
      "썽": 1884,
      "쎀": 1885,
      "쎄": 1886,
      "쎅": 1887,
      "쎈": 1888,
      "쎌": 1889,
      "쎔": 1890,
      "쎗": 1891,
      "쎘": 1892,
      "쎠": 1893,
      "쎤": 1894,
      "쎴": 1895,
      "쎼": 1896,
      "쎾": 1897,
      "쏔": 1898,
      "쏘": 1899,
      "쏙": 1900,
      "쏜": 1901,
      "쏟": 1902,
      "쏠": 1903,
      "쏨": 1904,
      "쏩": 1905,
      "쏫": 1906,
      "쏭": 1907,
      "쏱": 1908,
      "쏴": 1909,
      "쐈": 1910,
      "쐌": 1911,
      "쐬": 1912,
      "쑈": 1913,
      "쑝": 1914,
      "쑤": 1915,
      "쑥": 1916,
      "쑨": 1917,
      "쑬": 1918,
      "쑴": 1919,
      "쑹": 1920,
      "쒀": 1921,
      "쒕": 1922,
      "쒜": 1923,
      "쒯": 1924,
      "쒰": 1925,
      "쒸": 1926,
      "쓉": 1927,
      "쓔": 1928,
      "쓕": 1929,
      "쓰": 1930,
      "쓱": 1931,
      "쓴": 1932,
      "쓸": 1933,
      "씀": 1934,
      "씁": 1935,
      "씌": 1936,
      "씐": 1937,
      "씝": 1938,
      "씨": 1939,
      "씩": 1940,
      "씪": 1941,
      "씬": 1942,
      "씰": 1943,
      "씸": 1944,
      "씹": 1945,
      "씻": 1946,
      "씼": 1947,
      "씽": 1948,
      "앀": 1949,
      "아": 1950,
      "악": 1951,
      "안": 1952,
      "앉": 1953,
      "않": 1954,
      "앋": 1955,
      "알": 1956,
      "앍": 1957,
      "앎": 1958,
      "앓": 1959,
      "암": 1960,
      "압": 1961,
      "앖": 1962,
      "앗": 1963,
      "았": 1964,
      "앙": 1965,
      "앚": 1966,
      "앜": 1967,
      "앞": 1968,
      "앟": 1969,
      "애": 1970,
      "액": 1971,
      "앤": 1972,
      "앨": 1973,
      "앰": 1974,
      "앱": 1975,
      "앳": 1976,
      "앴": 1977,
      "앵": 1978,
      "앸": 1979,
      "야": 1980,
      "약": 1981,
      "얀": 1982,
      "얄": 1983,
      "얇": 1984,
      "얌": 1985,
      "얍": 1986,
      "얏": 1987,
      "얐": 1988,
      "양": 1989,
      "얔": 1990,
      "얕": 1991,
      "얗": 1992,
      "얘": 1993,
      "얙": 1994,
      "얜": 1995,
      "어": 1996,
      "억": 1997,
      "언": 1998,
      "얹": 1999,
      "얺": 2000,
      "얻": 2001,
      "얼": 2002,
      "얽": 2003,
      "엄": 2004,
      "업": 2005,
      "없": 2006,
      "엇": 2007,
      "었": 2008,
      "엉": 2009,
      "엊": 2010,
      "엌": 2011,
      "엎": 2012,
      "엏": 2013,
      "에": 2014,
      "엑": 2015,
      "엓": 2016,
      "엔": 2017,
      "엘": 2018,
      "엠": 2019,
      "엡": 2020,
      "엣": 2021,
      "엥": 2022,
      "엨": 2023,
      "엪": 2024,
      "여": 2025,
      "역": 2026,
      "엮": 2027,
      "연": 2028,
      "엲": 2029,
      "열": 2030,
      "엷": 2031,
      "염": 2032,
      "엽": 2033,
      "엾": 2034,
      "엿": 2035,
      "였": 2036,
      "영": 2037,
      "옂": 2038,
      "옄": 2039,
      "옅": 2040,
      "옆": 2041,
      "옇": 2042,
      "예": 2043,
      "옌": 2044,
      "옐": 2045,
      "옘": 2046,
      "옛": 2047,
      "옜": 2048,
      "오": 2049,
      "옥": 2050,
      "온": 2051,
      "올": 2052,
      "옭": 2053,
      "옮": 2054,
      "옯": 2055,
      "옰": 2056,
      "옳": 2057,
      "옴": 2058,
      "옵": 2059,
      "옶": 2060,
      "옷": 2061,
      "옹": 2062,
      "옼": 2063,
      "옾": 2064,
      "옿": 2065,
      "와": 2066,
      "왁": 2067,
      "왃": 2068,
      "완": 2069,
      "왅": 2070,
      "왈": 2071,
      "왑": 2072,
      "왓": 2073,
      "왔": 2074,
      "왕": 2075,
      "왘": 2076,
      "왜": 2077,
      "왝": 2078,
      "왠": 2079,
      "왤": 2080,
      "외": 2081,
      "왹": 2082,
      "왼": 2083,
      "욀": 2084,
      "욈": 2085,
      "욌": 2086,
      "요": 2087,
      "욕": 2088,
      "욘": 2089,
      "욜": 2090,
      "욤": 2091,
      "욥": 2092,
      "욧": 2093,
      "용": 2094,
      "욬": 2095,
      "욯": 2096,
      "우": 2097,
      "욱": 2098,
      "운": 2099,
      "욷": 2100,
      "울": 2101,
      "욹": 2102,
      "욺": 2103,
      "움": 2104,
      "웁": 2105,
      "웃": 2106,
      "웄": 2107,
      "웅": 2108,
      "워": 2109,
      "웍": 2110,
      "원": 2111,
      "월": 2112,
      "웜": 2113,
      "웟": 2114,
      "웠": 2115,
      "웡": 2116,
      "웤": 2117,
      "웨": 2118,
      "웩": 2119,
      "웬": 2120,
      "웰": 2121,
      "웹": 2122,
      "웽": 2123,
      "윀": 2124,
      "위": 2125,
      "윅": 2126,
      "윈": 2127,
      "윌": 2128,
      "윔": 2129,
      "윖": 2130,
      "윗": 2131,
      "윘": 2132,
      "윙": 2133,
      "유": 2134,
      "육": 2135,
      "윤": 2136,
      "율": 2137,
      "윰": 2138,
      "윱": 2139,
      "윳": 2140,
      "융": 2141,
      "으": 2142,
      "윽": 2143,
      "은": 2144,
      "읃": 2145,
      "을": 2146,
      "읅": 2147,
      "읆": 2148,
      "읊": 2149,
      "음": 2150,
      "읍": 2151,
      "읎": 2152,
      "읏": 2153,
      "응": 2154,
      "읔": 2155,
      "읖": 2156,
      "의": 2157,
      "읭": 2158,
      "읮": 2159,
      "이": 2160,
      "익": 2161,
      "인": 2162,
      "읹": 2163,
      "읺": 2164,
      "일": 2165,
      "읽": 2166,
      "읿": 2167,
      "잃": 2168,
      "임": 2169,
      "입": 2170,
      "잇": 2171,
      "있": 2172,
      "잉": 2173,
      "잊": 2174,
      "잌": 2175,
      "잎": 2176,
      "잏": 2177,
      "자": 2178,
      "작": 2179,
      "잔": 2180,
      "잖": 2181,
      "잗": 2182,
      "잘": 2183,
      "잛": 2184,
      "잠": 2185,
      "잡": 2186,
      "잣": 2187,
      "잤": 2188,
      "장": 2189,
      "잦": 2190,
      "잫": 2191,
      "재": 2192,
      "잭": 2193,
      "잰": 2194,
      "잴": 2195,
      "잼": 2196,
      "잽": 2197,
      "잿": 2198,
      "쟁": 2199,
      "쟄": 2200,
      "쟈": 2201,
      "쟉": 2202,
      "쟎": 2203,
      "쟘": 2204,
      "쟙": 2205,
      "쟝": 2206,
      "쟞": 2207,
      "쟤": 2208,
      "쟨": 2209,
      "쟾": 2210,
      "저": 2211,
      "적": 2212,
      "전": 2213,
      "젅": 2214,
      "젆": 2215,
      "젇": 2216,
      "절": 2217,
      "젊": 2218,
      "젋": 2219,
      "점": 2220,
      "접": 2221,
      "젓": 2222,
      "젔": 2223,
      "정": 2224,
      "젖": 2225,
      "젛": 2226,
      "제": 2227,
      "젝": 2228,
      "젠": 2229,
      "젤": 2230,
      "젬": 2231,
      "젭": 2232,
      "젯": 2233,
      "져": 2234,
      "젹": 2235,
      "젼": 2236,
      "졀": 2237,
      "졈": 2238,
      "졉": 2239,
      "졋": 2240,
      "졌": 2241,
      "졍": 2242,
      "졎": 2243,
      "졏": 2244,
      "졓": 2245,
      "졔": 2246,
      "조": 2247,
      "족": 2248,
      "존": 2249,
      "졷": 2250,
      "졸": 2251,
      "좀": 2252,
      "좁": 2253,
      "좃": 2254,
      "종": 2255,
      "좆": 2256,
      "좇": 2257,
      "좉": 2258,
      "좊": 2259,
      "좋": 2260,
      "좌": 2261,
      "좍": 2262,
      "좐": 2263,
      "좔": 2264,
      "좝": 2265,
      "좠": 2266,
      "좡": 2267,
      "좢": 2268,
      "죄": 2269,
      "죈": 2270,
      "죗": 2271,
      "죙": 2272,
      "죠": 2273,
      "죤": 2274,
      "죨": 2275,
      "죳": 2276,
      "죴": 2277,
      "죵": 2278,
      "죶": 2279,
      "죷": 2280,
      "죸": 2281,
      "죻": 2282,
      "주": 2283,
      "죽": 2284,
      "준": 2285,
      "줄": 2286,
      "줌": 2287,
      "줍": 2288,
      "줏": 2289,
      "중": 2290,
      "줗": 2291,
      "줘": 2292,
      "줠": 2293,
      "줫": 2294,
      "줬": 2295,
      "줭": 2296,
      "줮": 2297,
      "줸": 2298,
      "쥇": 2299,
      "쥐": 2300,
      "쥑": 2301,
      "쥔": 2302,
      "쥘": 2303,
      "쥣": 2304,
      "쥤": 2305,
      "쥬": 2306,
      "쥰": 2307,
      "쥴": 2308,
      "쥼": 2309,
      "즁": 2310,
      "즈": 2311,
      "즉": 2312,
      "즌": 2313,
      "즐": 2314,
      "즘": 2315,
      "즛": 2316,
      "증": 2317,
      "즞": 2318,
      "즤": 2319,
      "지": 2320,
      "직": 2321,
      "짂": 2322,
      "진": 2323,
      "짅": 2324,
      "짇": 2325,
      "질": 2326,
      "짊": 2327,
      "짏": 2328,
      "짐": 2329,
      "집": 2330,
      "짓": 2331,
      "징": 2332,
      "짖": 2333,
      "짘": 2334,
      "짙": 2335,
      "짚": 2336,
      "짛": 2337,
      "짜": 2338,
      "짝": 2339,
      "짠": 2340,
      "짢": 2341,
      "짤": 2342,
      "짦": 2343,
      "짧": 2344,
      "짫": 2345,
      "짬": 2346,
      "짭": 2347,
      "짯": 2348,
      "짰": 2349,
      "짱": 2350,
      "짴": 2351,
      "째": 2352,
      "짼": 2353,
      "쨈": 2354,
      "쨉": 2355,
      "쨋": 2356,
      "쨌": 2357,
      "쨍": 2358,
      "쨓": 2359,
      "쨔": 2360,
      "쨘": 2361,
      "쨩": 2362,
      "쨰": 2363,
      "쩁": 2364,
      "쩃": 2365,
      "쩄": 2366,
      "쩌": 2367,
      "쩍": 2368,
      "쩐": 2369,
      "쩔": 2370,
      "쩖": 2371,
      "쩜": 2372,
      "쩝": 2373,
      "쩡": 2374,
      "쩧": 2375,
      "쩨": 2376,
      "쪄": 2377,
      "쪈": 2378,
      "쪘": 2379,
      "쪙": 2380,
      "쪠": 2381,
      "쪼": 2382,
      "쪽": 2383,
      "쪾": 2384,
      "쫀": 2385,
      "쫄": 2386,
      "쫌": 2387,
      "쫏": 2388,
      "쫑": 2389,
      "쫒": 2390,
      "쫓": 2391,
      "쫗": 2392,
      "쫘": 2393,
      "쫙": 2394,
      "쫭": 2395,
      "쬐": 2396,
      "쬬": 2397,
      "쭁": 2398,
      "쭈": 2399,
      "쭉": 2400,
      "쭊": 2401,
      "쭌": 2402,
      "쭐": 2403,
      "쭘": 2404,
      "쭙": 2405,
      "쭝": 2406,
      "쮜": 2407,
      "쮸": 2408,
      "쯔": 2409,
      "쯗": 2410,
      "쯤": 2411,
      "쯥": 2412,
      "쯧": 2413,
      "쯩": 2414,
      "쯪": 2415,
      "찌": 2416,
      "찍": 2417,
      "찎": 2418,
      "찐": 2419,
      "찔": 2420,
      "찜": 2421,
      "찝": 2422,
      "찟": 2423,
      "찡": 2424,
      "찢": 2425,
      "차": 2426,
      "착": 2427,
      "찬": 2428,
      "찮": 2429,
      "찯": 2430,
      "찰": 2431,
      "찱": 2432,
      "참": 2433,
      "찹": 2434,
      "찻": 2435,
      "찼": 2436,
      "창": 2437,
      "찾": 2438,
      "찿": 2439,
      "챃": 2440,
      "채": 2441,
      "책": 2442,
      "챈": 2443,
      "챌": 2444,
      "챔": 2445,
      "챕": 2446,
      "챗": 2447,
      "챘": 2448,
      "챙": 2449,
      "챠": 2450,
      "챡": 2451,
      "챤": 2452,
      "챦": 2453,
      "챨": 2454,
      "처": 2455,
      "척": 2456,
      "천": 2457,
      "철": 2458,
      "첨": 2459,
      "첩": 2460,
      "첫": 2461,
      "첬": 2462,
      "청": 2463,
      "첮": 2464,
      "체": 2465,
      "첵": 2466,
      "첸": 2467,
      "첼": 2468,
      "쳅": 2469,
      "쳇": 2470,
      "쳐": 2471,
      "쳔": 2472,
      "쳣": 2473,
      "쳤": 2474,
      "쳥": 2475,
      "쳫": 2476,
      "쳬": 2477,
      "초": 2478,
      "촉": 2479,
      "촌": 2480,
      "촏": 2481,
      "촐": 2482,
      "촘": 2483,
      "촛": 2484,
      "총": 2485,
      "촟": 2486,
      "촣": 2487,
      "촤": 2488,
      "촥": 2489,
      "촬": 2490,
      "촹": 2491,
      "쵁": 2492,
      "최": 2493,
      "쵝": 2494,
      "쵸": 2495,
      "쵼": 2496,
      "춋": 2497,
      "춌": 2498,
      "추": 2499,
      "축": 2500,
      "춘": 2501,
      "출": 2502,
      "춤": 2503,
      "춥": 2504,
      "춧": 2505,
      "충": 2506,
      "춰": 2507,
      "춴": 2508,
      "춸": 2509,
      "췃": 2510,
      "췄": 2511,
      "췌": 2512,
      "췟": 2513,
      "취": 2514,
      "췬": 2515,
      "츄": 2516,
      "츈": 2517,
      "츔": 2518,
      "츙": 2519,
      "츠": 2520,
      "측": 2521,
      "츤": 2522,
      "츨": 2523,
      "츰": 2524,
      "층": 2525,
      "츼": 2526,
      "츽": 2527,
      "칀": 2528,
      "치": 2529,
      "칙": 2530,
      "친": 2531,
      "칝": 2532,
      "칠": 2533,
      "침": 2534,
      "칩": 2535,
      "칫": 2536,
      "칭": 2537,
      "칰": 2538,
      "카": 2539,
      "칵": 2540,
      "칸": 2541,
      "칻": 2542,
      "칼": 2543,
      "캄": 2544,
      "캅": 2545,
      "캇": 2546,
      "캉": 2547,
      "캍": 2548,
      "캐": 2549,
      "캔": 2550,
      "캘": 2551,
      "캠": 2552,
      "캡": 2553,
      "캢": 2554,
      "캣": 2555,
      "캥": 2556,
      "캬": 2557,
      "캭": 2558,
      "컄": 2559,
      "커": 2560,
      "컥": 2561,
      "컨": 2562,
      "컬": 2563,
      "컴": 2564,
      "컵": 2565,
      "컷": 2566,
      "컸": 2567,
      "컹": 2568,
      "컼": 2569,
      "컾": 2570,
      "케": 2571,
      "켁": 2572,
      "켄": 2573,
      "켈": 2574,
      "켐": 2575,
      "켓": 2576,
      "켔": 2577,
      "켜": 2578,
      "켠": 2579,
      "켤": 2580,
      "켬": 2581,
      "켯": 2582,
      "켰": 2583,
      "코": 2584,
      "콕": 2585,
      "콘": 2586,
      "콜": 2587,
      "콤": 2588,
      "콥": 2589,
      "콧": 2590,
      "콩": 2591,
      "콬": 2592,
      "콮": 2593,
      "콯": 2594,
      "콰": 2595,
      "콱": 2596,
      "콴": 2597,
      "콸": 2598,
      "쾅": 2599,
      "쾌": 2600,
      "쾡": 2601,
      "쾨": 2602,
      "쿄": 2603,
      "쿈": 2604,
      "쿠": 2605,
      "쿡": 2606,
      "쿤": 2607,
      "쿨": 2608,
      "쿰": 2609,
      "쿳": 2610,
      "쿵": 2611,
      "쿸": 2612,
      "쿼": 2613,
      "퀀": 2614,
      "퀄": 2615,
      "퀘": 2616,
      "퀜": 2617,
      "퀭": 2618,
      "퀴": 2619,
      "퀵": 2620,
      "퀸": 2621,
      "퀼": 2622,
      "큐": 2623,
      "큘": 2624,
      "크": 2625,
      "큭": 2626,
      "큰": 2627,
      "클": 2628,
      "큼": 2629,
      "큽": 2630,
      "킁": 2631,
      "킄": 2632,
      "킈": 2633,
      "킌": 2634,
      "키": 2635,
      "킥": 2636,
      "킨": 2637,
      "킬": 2638,
      "킴": 2639,
      "킵": 2640,
      "킷": 2641,
      "킹": 2642,
      "킼": 2643,
      "타": 2644,
      "탁": 2645,
      "탄": 2646,
      "탆": 2647,
      "탈": 2648,
      "탉": 2649,
      "탐": 2650,
      "탑": 2651,
      "탓": 2652,
      "탔": 2653,
      "탕": 2654,
      "탗": 2655,
      "태": 2656,
      "택": 2657,
      "탠": 2658,
      "탤": 2659,
      "탬": 2660,
      "탭": 2661,
      "탯": 2662,
      "탱": 2663,
      "탸": 2664,
      "턀": 2665,
      "터": 2666,
      "턱": 2667,
      "턴": 2668,
      "털": 2669,
      "텀": 2670,
      "텁": 2671,
      "텃": 2672,
      "텅": 2673,
      "텈": 2674,
      "테": 2675,
      "텍": 2676,
      "텐": 2677,
      "텔": 2678,
      "템": 2679,
      "텝": 2680,
      "텟": 2681,
      "텡": 2682,
      "텨": 2683,
      "텼": 2684,
      "토": 2685,
      "톡": 2686,
      "톤": 2687,
      "톨": 2688,
      "톰": 2689,
      "톱": 2690,
      "통": 2691,
      "톼": 2692,
      "퇄": 2693,
      "퇘": 2694,
      "퇴": 2695,
      "툥": 2696,
      "투": 2697,
      "툭": 2698,
      "툰": 2699,
      "툴": 2700,
      "툼": 2701,
      "툿": 2702,
      "퉁": 2703,
      "퉜": 2704,
      "퉤": 2705,
      "퉷": 2706,
      "퉽": 2707,
      "튀": 2708,
      "튄": 2709,
      "튈": 2710,
      "튕": 2711,
      "튜": 2712,
      "튠": 2713,
      "튬": 2714,
      "튭": 2715,
      "트": 2716,
      "특": 2717,
      "튼": 2718,
      "튿": 2719,
      "틀": 2720,
      "틈": 2721,
      "틋": 2722,
      "틍": 2723,
      "틐": 2724,
      "틔": 2725,
      "티": 2726,
      "틱": 2727,
      "틴": 2728,
      "틸": 2729,
      "팀": 2730,
      "팁": 2731,
      "팅": 2732,
      "파": 2733,
      "팍": 2734,
      "팎": 2735,
      "판": 2736,
      "팔": 2737,
      "팜": 2738,
      "팝": 2739,
      "팟": 2740,
      "팠": 2741,
      "팡": 2742,
      "팥": 2743,
      "패": 2744,
      "팩": 2745,
      "팬": 2746,
      "팰": 2747,
      "팸": 2748,
      "팻": 2749,
      "팼": 2750,
      "팽": 2751,
      "퍼": 2752,
      "퍽": 2753,
      "펀": 2754,
      "펄": 2755,
      "펌": 2756,
      "펏": 2757,
      "펐": 2758,
      "펑": 2759,
      "페": 2760,
      "펙": 2761,
      "펜": 2762,
      "펠": 2763,
      "펩": 2764,
      "펫": 2765,
      "펭": 2766,
      "펴": 2767,
      "편": 2768,
      "펼": 2769,
      "폄": 2770,
      "폇": 2771,
      "폈": 2772,
      "평": 2773,
      "폐": 2774,
      "포": 2775,
      "폭": 2776,
      "폰": 2777,
      "폴": 2778,
      "폼": 2779,
      "폽": 2780,
      "폿": 2781,
      "퐁": 2782,
      "퐈": 2783,
      "퐉": 2784,
      "퐌": 2785,
      "퐛": 2786,
      "퐝": 2787,
      "퐠": 2788,
      "푀": 2789,
      "표": 2790,
      "푱": 2791,
      "푸": 2792,
      "푹": 2793,
      "푼": 2794,
      "풀": 2795,
      "품": 2796,
      "풉": 2797,
      "풋": 2798,
      "풍": 2799,
      "풓": 2800,
      "풔": 2801,
      "풕": 2802,
      "풰": 2803,
      "퓌": 2804,
      "퓨": 2805,
      "퓬": 2806,
      "퓰": 2807,
      "퓽": 2808,
      "프": 2809,
      "픈": 2810,
      "플": 2811,
      "픔": 2812,
      "픕": 2813,
      "피": 2814,
      "픽": 2815,
      "핀": 2816,
      "필": 2817,
      "핍": 2818,
      "핏": 2819,
      "핑": 2820,
      "핓": 2821,
      "핕": 2822,
      "하": 2823,
      "학": 2824,
      "핛": 2825,
      "한": 2826,
      "핟": 2827,
      "할": 2828,
      "핡": 2829,
      "핣": 2830,
      "핥": 2831,
      "핦": 2832,
      "핧": 2833,
      "함": 2834,
      "합": 2835,
      "핫": 2836,
      "핬": 2837,
      "항": 2838,
      "핮": 2839,
      "핯": 2840,
      "핰": 2841,
      "핱": 2842,
      "핳": 2843,
      "해": 2844,
      "핵": 2845,
      "핶": 2846,
      "핸": 2847,
      "핻": 2848,
      "핼": 2849,
      "햄": 2850,
      "햅": 2851,
      "햇": 2852,
      "했": 2853,
      "행": 2854,
      "햌": 2855,
      "햏": 2856,
      "햐": 2857,
      "햤": 2858,
      "향": 2859,
      "햫": 2860,
      "헀": 2861,
      "허": 2862,
      "헉": 2863,
      "헌": 2864,
      "헏": 2865,
      "헐": 2866,
      "헑": 2867,
      "험": 2868,
      "헙": 2869,
      "헛": 2870,
      "헝": 2871,
      "헠": 2872,
      "헣": 2873,
      "헤": 2874,
      "헥": 2875,
      "헨": 2876,
      "헬": 2877,
      "헴": 2878,
      "헵": 2879,
      "헷": 2880,
      "헸": 2881,
      "헹": 2882,
      "헿": 2883,
      "혀": 2884,
      "혁": 2885,
      "현": 2886,
      "혈": 2887,
      "혐": 2888,
      "협": 2889,
      "혓": 2890,
      "혔": 2891,
      "형": 2892,
      "혖": 2893,
      "혜": 2894,
      "호": 2895,
      "혹": 2896,
      "혼": 2897,
      "홀": 2898,
      "홈": 2899,
      "홉": 2900,
      "홋": 2901,
      "홍": 2902,
      "홐": 2903,
      "홓": 2904,
      "화": 2905,
      "확": 2906,
      "환": 2907,
      "활": 2908,
      "홥": 2909,
      "홧": 2910,
      "황": 2911,
      "홪": 2912,
      "홬": 2913,
      "홯": 2914,
      "홱": 2915,
      "회": 2916,
      "획": 2917,
      "횐": 2918,
      "횔": 2919,
      "횟": 2920,
      "횡": 2921,
      "횤": 2922,
      "효": 2923,
      "횬": 2924,
      "횽": 2925,
      "훃": 2926,
      "후": 2927,
      "훅": 2928,
      "훈": 2929,
      "훋": 2930,
      "훌": 2931,
      "훑": 2932,
      "훓": 2933,
      "훔": 2934,
      "훕": 2935,
      "훗": 2936,
      "훙": 2937,
      "훜": 2938,
      "훟": 2939,
      "훠": 2940,
      "훡": 2941,
      "훤": 2942,
      "훨": 2943,
      "훸": 2944,
      "훼": 2945,
      "휏": 2946,
      "휘": 2947,
      "휙": 2948,
      "휠": 2949,
      "휨": 2950,
      "휩": 2951,
      "휴": 2952,
      "휸": 2953,
      "휼": 2954,
      "흉": 2955,
      "흏": 2956,
      "흐": 2957,
      "흑": 2958,
      "흔": 2959,
      "흘": 2960,
      "흙": 2961,
      "흝": 2962,
      "흠": 2963,
      "흡": 2964,
      "흣": 2965,
      "흥": 2966,
      "흨": 2967,
      "흩": 2968,
      "흫": 2969,
      "희": 2970,
      "흰": 2971,
      "흳": 2972,
      "히": 2973,
      "힉": 2974,
      "힌": 2975,
      "힐": 2976,
      "힘": 2977,
      "힙": 2978,
      "힛": 2979,
      "힝": 2980,
      "힞": 2981,
      "힣": 2982,
      "..": 2983,
      "영화": 2984,
      "▁영화": 2985,
      "▁이": 2986,
      ".\n": 2987,
      "▁아": 2988,
      "ᄏᄏ": 2989,
      "▁그": 2990,
      "▁보": 2991,
      "▁재": 2992,
      "다.": 2993,
      "...": 2994,
      "!!": 2995,
      "다\n": 2996,
      "다.\n": 2997,
      "▁정": 2998,
      "▁나": 2999,
      "는데": 3000,
      "너무": 3001,
      "▁다": 3002,
      "▁하": 3003,
      "▁좋": 3004,
      "..\n": 3005,
      "▁없": 3006,
      "▁어": 3007,
      "▁너무": 3008,
      "▁사": 3009,
      "▁내": 3010,
      "▁감": 3011,
      "▁진": 3012,
      "▁재미": 3013,
      "▁연": 3014,
      "▁있": 3015,
      "▁지": 3016,
      "으로": 3017,
      "지만": 3018,
      "하고": 3019,
      "▁최": 3020,
      "▁시": 3021,
      "▁한": 3022,
      "네요": 3023,
      "▁안": 3024,
      "▁1": 3025,
      "▁정말": 3026,
      "▁스": 3027,
      "▁만": 3028,
      "....": 3029,
      "▁가": 3030,
      "...\n": 3031,
      "에서": 3032,
      "▁재밌": 3033,
      "▁기": 3034,
      "▁봤": 3035,
      "▁평": 3036,
      "▁대": 3037,
      "▁전": 3038,
      "▁진짜": 3039,
      "▁연기": 3040,
      "▁마": 3041,
      "하는": 3042,
      "▁무": 3043,
      "▁모": 3044,
      "▁수": 3045,
      "▁여": 3046,
      "!\n": 3047,
      "▁생": 3048,
      "▁잘": 3049,
      "어요": 3050,
      "▁주": 3051,
      "▁최고": 3052,
      "▁않": 3053,
      "▁더": 3054,
      "습니": 3055,
      "▁평점": 3056,
      "드라": 3057,
      "ᄏᄏᄏᄏ": 3058,
      "토리": 3059,
      "▁오": 3060,
      "▁제": 3061,
      "▁개": 3062,
      "▁이런": 3063,
      "▁인": 3064,
      "▁말": 3065,
      "▁배": 3066,
      "드라마": 3067,
      "~~": 3068,
      "▁생각": 3069,
      "?\n": 3070,
      "▁왜": 3071,
      "들이": 3072,
      "▁자": 3073,
      "▁같": 3074,
      "▁못": 3075,
      "▁스토리": 3076,
      "▁영화\n": 3077,
      "▁소": 3078,
      "▁남": 3079,
      "▁알": 3080,
      "▁본": 3081,
      "까지": 3082,
      "▁느": 3083,
      "▁유": 3084,
      "▁아니": 3085,
      "ᅲᅲ": 3086,
      "▁미": 3087,
      "▁보고": 3088,
      "▁볼": 3089,
      "▁감동": 3090,
      "하게": 3091,
      "▁일": 3092,
      "▁별": 3093,
      "이라": 3094,
      "▁쓰": 3095,
      "▁것": 3096,
      "▁비": 3097,
      "▁장": 3098,
      "▁지루": 3099,
      "다는": 3100,
      "▁우": 3101,
      "▁드라마": 3102,
      ";;": 3103,
      "▁많": 3104,
      "▁작": 3105,
      "▁ᄏᄏ": 3106,
      "▁중": 3107,
      "▁재미있": 3108,
      "레기": 3109,
      "▁그냥": 3110,
      "▁부": 3111,
      "▁배우": 3112,
      "▁뭐": 3113,
      "보다": 3114,
      "▁공": 3115,
      "▁사람": 3116,
      "▁2": 3117,
      "해서": 3118,
      "면서": 3119,
      "▁조": 3120,
      "▁내용": 3121,
      "▁역": 3122,
      "▁10": 3123,
      "▁완": 3124,
      "▁만들": 3125,
      "▁감독": 3126,
      "▁끝": 3127,
      "▁저": 3128,
      "▁애": 3129,
      "다..": 3130,
      "▁좀": 3131,
      "적인": 3132,
      "▁재미없": 3133,
      "렇게": 3134,
      "리고": 3135,
      "▁고": 3136,
      "▁쓰레기": 3137,
      "▁해": 3138,
      "▁명": 3139,
      "▁사랑": 3140,
      "▁참": 3141,
      "▁되": 3142,
      "▁반": 3143,
      "▁보는": 3144,
      "ᄏ\n": 3145,
      "??": 3146,
      "▁영화를": 3147,
      "!!\n": 3148,
      "▁웃": 3149,
      ",,": 3150,
      "▁영": 3151,
      "^^": 3152,
      "▁예": 3153,
      "보고": 3154,
      "▁결": 3155,
      "▁봐": 3156,
      "ᄒᄒ": 3157,
      "▁다시": 3158,
      "지막": 3159,
      "액션": 3160,
      "▁좋은": 3161,
      "▁좋아": 3162,
      "입니": 3163,
      "▁시간": 3164,
      "라고": 3165,
      "▁거": 3166,
      "▁매": 3167,
      "▁싶": 3168,
      "▁상": 3169,
      "~\n": 3170,
      "▁신": 3171,
      "다고": 3172,
      "으면": 3173,
      "▁눈": 3174,
      "▁처": 3175,
      "▁실": 3176,
      "▁바": 3177,
      "▁이거": 3178,
      "음\n": 3179,
      "다가": 3180,
      "들의": 3181,
      "▁노": 3182,
      "▁영화가": 3183,
      "▁불": 3184,
      "▁작품": 3185,
      "▁영화는": 3186,
      "적이": 3187,
      "지는": 3188,
      "OO": 3189,
      "▁원": 3190,
      "▁봤는데": 3191,
      "▁없는": 3192,
      "▁살": 3193,
      "▁영화.": 3194,
      "하지": 3195,
      "▁이건": 3196,
      "인공": 3197,
      "▁최고의": 3198,
      "▁마지막": 3199,
      "▁난": 3200,
      "▁내가": 3201,
      "▁3": 3202,
      "▁기대": 3203,
      "▁완전": 3204,
      "▁액션": 3205,
      "▁좋았": 3206,
      "▁있는": 3207,
      "▁하나": 3208,
      "▁넘": 3209,
      "▁할": 3210,
      "▁의": 3211,
      "▁코": 3212,
      "▁성": 3213,
      "야기": 3214,
      "▁도": 3215,
      "어서": 3216,
      "▁처음": 3217,
      "▁때": 3218,
      "▁죽": 3219,
      "▁몰": 3220,
      "▁한국": 3221,
      "없는": 3222,
      "세요": 3223,
      "▁추": 3224,
      "▁지금": 3225,
      "같은": 3226,
      "▁후": 3227,
      "인데": 3228,
      "▁했": 3229,
      "▁나오": 3230,
      "▁현": 3231,
      "들은": 3232,
      "▁괜": 3233,
      "▁하는": 3234,
      "▁최악": 3235,
      "▁김": 3236,
      "합니": 3237,
      "▁이렇게": 3238,
      "▁이게": 3239,
      "에게": 3240,
      "▁모르": 3241,
      "▁또": 3242,
      "▁10점": 3243,
      "▁아깝": 3244,
      "▁극": 3245,
      "ᅳᅳ": 3246,
      "대로": 3247,
      "라는": 3248,
      "▁별로": 3249,
      "적으로": 3250,
      "▁세": 3251,
      "이나": 3252,
      "▁허": 3253,
      "▁1점": 3254,
      "▁멋": 3255,
      "▁이해": 3256,
      "부터": 3257,
      "▁강": 3258,
      "▁관": 3259,
      "▁위": 3260,
      "▁초": 3261,
      "연기": 3262,
      "▁연출": 3263,
      "▁분": 3264,
      "있는": 3265,
      "▁돈": 3266,
      "하다": 3267,
      "▁느낌": 3268,
      "▁짜": 3269,
      "▁명작": 3270,
      "▁두": 3271,
      "▁동": 3272,
      "▁역시": 3273,
      "▁화": 3274,
      "네\n": 3275,
      "▁심": 3276,
      "▁로": 3277,
      "▁따": 3278,
      "▁잼": 3279,
      "▁구": 3280,
      "▁이야기": 3281,
      "▁평점이": 3282,
      "!!!!": 3283,
      "....\n": 3284,
      "▁기억": 3285,
      "▁뭔": 3286,
      "네요\n": 3287,
      "▁재밌게": 3288,
      "되는": 3289,
      "▁우리": 3290,
      "^^\n": 3291,
      "영화\n": 3292,
      "▁음": 3293,
      "이다": 3294,
      "▁캐": 3295,
      "습니다": 3296,
      "▁많이": 3297,
      "▁괜찮": 3298,
      "▁당": 3299,
      "정도": 3300,
      "▁아이": 3301,
      "배우": 3302,
      "▁들": 3303,
      "▁장면": 3304,
      "▁그래": 3305,
      "주는": 3306,
      "▁이영화": 3307,
      "지도": 3308,
      "고,": 3309,
      "습니다.": 3310,
      "▁여자": 3311,
      "▁그리고": 3312,
      "▁잔": 3313,
      "▁에": 3314,
      "다면": 3315,
      "▁아름": 3316,
      "문에": 3317,
      "▁만든": 3318,
      "▁엄": 3319,
      "▁요": 3320,
      "▁발": 3321,
      "네요.": 3322,
      "▁그런": 3323,
      "\"\"": 3324,
      "▁아까": 3325,
      "▁막": 3326,
      "▁와": 3327,
      "리는": 3328,
      "▁꼭": 3329,
      "재미": 3330,
      "▁주인공": 3331,
      "▁포": 3332,
      "요\n": 3333,
      "사람": 3334,
      "▁보여": 3335,
      "▁차": 3336,
      "▁영화.\n": 3337,
      "▁귀": 3338,
      "▁마음": 3339,
      "▁특": 3340,
      "▁단": 3341,
      "▁같은": 3342,
      "다..\n": 3343,
      "▁슬": 3344,
      "만에": 3345,
      "▁아닌": 3346,
      "드는": 3347,
      "필요": 3348,
      "▁설": 3349,
      "것도": 3350,
      "▁공포": 3351,
      "▁유치": 3352,
      "▁울": 3353,
      "▁졸": 3354,
      "▁존": 3355,
      "진짜": 3356,
      "다...": 3357,
      "▁일본": 3358,
      "▁줄": 3359,
      "▁표": 3360,
      "을까": 3361,
      "ᄏᄏᄏᄏᄏᄏᄏᄏ": 3362,
      "▁박": 3363,
      "아서": 3364,
      "▁무슨": 3365,
      "하나": 3366,
      "........": 3367,
      "▁망": 3368,
      "가는": 3369,
      "없이": 3370,
      "00": 3371,
      "▁아무": 3372,
      "었는데": 3373,
      "▁점": 3374,
      "▁볼만": 3375,
      "▁현실": 3376,
      "▁결말": 3377,
      "▁서": 3378,
      "▁힘": 3379,
      "▁소재": 3380,
      "▁가장": 3381,
      "하기": 3382,
      "▁ᅲᅲ": 3383,
      "다니": 3384,
      "▁몰입": 3385,
      "▁다른": 3386,
      "▁누": 3387,
      "인가": 3388,
      "시간": 3389,
      "▁이상": 3390,
      "▁흥": 3391,
      "▁보면": 3392,
      "▁짱": 3393,
      "▁보기": 3394,
      "▁과": 3395,
      "!!!\n": 3396,
      "나는": 3397,
      "▁OO": 3398,
      "▁반전": 3399,
      "▁매력": 3400,
      "▁속": 3401,
      "하면": 3402,
      "▁말이": 3403,
      "음.": 3404,
      "▁빠": 3405,
      "보는": 3406,
      "▁남자": 3407,
      "▁뻔": 3408,
      "▁절": 3409,
      "구나": 3410,
      "▁애니": 3411,
      "▁걸": 3412,
      "▁얼": 3413,
      "ᅮᅮ": 3414,
      "▁스릴": 3415,
      "▁가슴": 3416,
      "▁짜증": 3417,
      "인지": 3418,
      "▁리": 3419,
      "▁없고": 3420,
      "▁낮": 3421,
      "▁원작": 3422,
      "▁선": 3423,
      "미디": 3424,
      "▁솔": 3425,
      "하지만": 3426,
      "▁눈물": 3427,
      "스럽": 3428,
      "▁맞": 3429,
      "▁ᄒᄒ": 3430,
      "▁억": 3431,
      "봐도": 3432,
      "▁정도": 3433,
      "▁높": 3434,
      "▁대한": 3435,
      "▁방": 3436,
      "는지": 3437,
      "0년": 3438,
      "▁드": 3439,
      "▁긴": 3440,
      "▁충": 3441,
      "이었": 3442,
      "▁계": 3443,
      "▁인생": 3444,
      "릭터": 3445,
      "재밌": 3446,
      "▁만들어": 3447,
      "려고": 3448,
      "▁전개": 3449,
      "▁영상": 3450,
      "요.": 3451,
      "▁인간": 3452,
      "습니다.\n": 3453,
      "▁않는": 3454,
      "▁ᄏᄏ\n": 3455,
      "▁음악": 3456,
      "스러": 3457,
      "지않": 3458,
      "▁있었": 3459,
      "▁몇": 3460,
      "더라": 3461,
      "▁솔직": 3462,
      "이다.": 3463,
      "지마": 3464,
      "▁많은": 3465,
      "▁모르겠": 3466,
      "이고": 3467,
      "▁집": 3468,
      "에는": 3469,
      "▁머": 3470,
      "니까": 3471,
      "리즈": 3472,
      "어요\n": 3473,
      "▁'": 3474,
      "ᄏᄏ\n": 3475,
      "▁극장": 3476,
      "▁순": 3477,
      "▁필요": 3478,
      "▁9": 3479,
      "▁건": 3480,
      "▁굿": 3481,
      "▁모든": 3482,
      "▁아름다": 3483,
      "나서": 3484,
      "▁한번": 3485,
      "▁돌": 3486,
      "처럼": 3487,
      "▁적": 3488,
      "▁간": 3489,
      "▁듯": 3490,
      "▁게": 3491,
      "▁4": 3492,
      "▁아직": 3493,
      "정말": 3494,
      "▁억지": 3495,
      "지고": 3496,
      "▁피": 3497,
      "메이": 3498,
      "▁끝까지": 3499,
      "▁새": 3500,
      "▁ᅳᅳ": 3501,
      "밖에": 3502,
      "▁문": 3503,
      "이다.\n": 3504,
      "근데": 3505,
      "▁수준": 3506,
      "▁욕": 3507,
      "▁찾": 3508,
      "나오": 3509,
      "▁하지만": 3510,
      "▁8": 3511,
      "▁올": 3512,
      "▁편": 3513,
      "떨어": 3514,
      "▁봐도": 3515,
      "들을": 3516,
      "▁솔직히": 3517,
      "▁전혀": 3518,
      "▁받": 3519,
      "▁파": 3520,
      "▁하고": 3521,
      "중에": 3522,
      "▁재밋": 3523,
      "▁언": 3524,
      "스터": 3525,
      "하다\n": 3526,
      ";;\n": 3527,
      "다...\n": 3528,
      "▁행": 3529,
      "▁..": 3530,
      "▁이제": 3531,
      "▁프": 3532,
      "▁모두": 3533,
      "▁뭔가": 3534,
      "▁열": 3535,
      "▁외": 3536,
      "▁7": 3537,
      "떻게": 3538,
      "했던": 3539,
      "▁아주": 3540,
      "▁찍": 3541,
      "▁.": 3542,
      "▁추천": 3543,
      "이는": 3544,
      "▁영화였": 3545,
      "▁여운": 3546,
      "▁딱": 3547,
      "▁경": 3548,
      "나라": 3549,
      ";\n": 3550,
      "▁5": 3551,
      "▁캐릭터": 3552,
      "지\n": 3553,
      "▁연기력": 3554,
      "!!!": 3555,
      "아니": 3556,
      "▁엄청": 3557,
      "▁코미디": 3558,
      "하다.": 3559,
      "리가": 3560,
      "타임": 3561,
      "▁실망": 3562,
      "함\n": 3563,
      "▁공감": 3564,
      "▁대박": 3565,
      "0점": 3566,
      "기도": 3567,
      "장면": 3568,
      "▁치": 3569,
      "이다\n": 3570,
      "▁긴장": 3571,
      "는거": 3572,
      "▁호": 3573,
      "▁ᄏᄏᄏᄏ": 3574,
      "▁된": 3575,
      "▁갈": 3576,
      "듯\n": 3577,
      "▁독": 3578,
      "스트": 3579,
      "▁달": 3580,
      "감독": 3581,
      "을때": 3582,
      "주고": 3583,
      "▁약": 3584,
      "▁버": 3585,
      "▁출": 3586,
      "▁최악의": 3587,
      "이랑": 3588,
      "▁놀": 3589,
      "▁나온": 3590,
      "▁먹": 3591,
      "▁크": 3592,
      "주인공": 3593,
      "▁개봉": 3594,
      "▁배우들": 3595,
      "었던": 3596,
      "▁대단": 3597,
      "생각": 3598,
      "에도": 3599,
      "▁가족": 3600,
      "▁답": 3601,
      "▁믿": 3602,
      "친구": 3603,
      "▁손": 3604,
      "▁준": 3605,
      "▁영화의": 3606,
      "▁재미있게": 3607,
      "라도": 3608,
      "▁이걸": 3609,
      "▁어떻게": 3610,
      "▁교": 3611,
      "만들": 3612,
      "▁엉": 3613,
      "때문에": 3614,
      "▁내내": 3615,
      "ᅲ\n": 3616,
      "수록": 3617,
      "▁계속": 3618,
      "했는데": 3619,
      "▁흥미": 3620,
      "영화는": 3621,
      "이가": 3622,
      "▁레": 3623,
      "▁표현": 3624,
      "던데": 3625,
      "▁잔잔": 3626,
      "▁영화에": 3627,
      "수가": 3628,
      "이라는": 3629,
      "▁등": 3630,
      "스토리": 3631,
      "▁어디": 3632,
      "습니다\n": 3633,
      "▁알았": 3634,
      "엔딩": 3635,
      "▁악": 3636,
      "건지": 3637,
      "▁질": 3638,
      "▁야": 3639,
      "▁즐": 3640,
      "▁남는": 3641,
      "▁아니라": 3642,
      "기는": 3643,
      "▁대사": 3644,
      "최고": 3645,
      "~~\n": 3646,
      "이지": 3647,
      "▁함": 3648,
      "어야": 3649,
      "▁모습": 3650,
      "▁제목": 3651,
      "▁재밌었": 3652,
      "냐?": 3653,
      "▁아쉽": 3654,
      "이상": 3655,
      "▁잼있": 3656,
      "봤는데": 3657,
      "내내": 3658,
      "▁물": 3659,
      "없고": 3660,
      "▁그래도": 3661,
      "▁싸": 3662,
      "▁떨어": 3663,
      "▁삶": 3664,
      "▁않은": 3665,
      "어요.": 3666,
      "▁나오는": 3667,
      "내용": 3668,
      "ᄒ\n": 3669,
      "▁-": 3670,
      "▁담": 3671,
      "보면": 3672,
      "▁카": 3673,
      "▁아쉬": 3674,
      "기에": 3675,
      "전에": 3676,
      "▁연기가": 3677,
      "▁만들었": 3678,
      "하다.\n": 3679,
      "한테": 3680,
      "라리": 3681,
      "▁ᄏᄏᄏ": 3682,
      "▁내용이": 3683,
      "▁잊": 3684,
      "▁조금": 3685,
      "▁그렇": 3686,
      "아요": 3687,
      "▁기분": 3688,
      "▁스릴러": 3689,
      "영화가": 3690,
      "▁잠": 3691,
      "성이": 3692,
      "▁않고": 3693,
      "▁베": 3694,
      "▁진심": 3695,
      "▁느껴": 3696,
      "▁봐야": 3697,
      "▁막장": 3698,
      "리오": 3699,
      "어도": 3700,
      "▁긴장감": 3701,
      "▁자체": 3702,
      "만큼": 3703,
      "입니다": 3704,
      "라\n": 3705,
      "리스": 3706,
      "▁제대로": 3707,
      "평점": 3708,
      "하면서": 3709,
      "▁시리즈": 3710,
      "들도": 3711,
      "▁아름다운": 3712,
      "▁개인": 3713,
      "이라고": 3714,
      "▁메": 3715,
      "▁요즘": 3716,
      "▁제일": 3717,
      "▁떠": 3718,
      "▁오랜": 3719,
      "대체": 3720,
      "입니다.": 3721,
      "▁앞": 3722,
      "▁근데": 3723,
      "▁연기도": 3724,
      "으나": 3725,
      "네요.\n": 3726,
      "▁네": 3727,
      "▁없었": 3728,
      "▁만드는": 3729,
      "▁알바": 3730,
      "ᄃᄃ": 3731,
      "▁부족": 3732,
      "이란": 3733,
      "▁나는": 3734,
      "ᅲᅲ\n": 3735,
      "ᄏᄏᄏ": 3736,
      "▁감동적이": 3737,
      "▁중간": 3738,
      "▁천": 3739,
      "▁홍": 3740,
      "훌륭": 3741,
      "▁웃기": 3742,
      "▁재미도": 3743,
      "▁보다": 3744,
      "▁내용도": 3745,
      "음.\n": 3746,
      "▁아까운": 3747,
      "▁정신": 3748,
      "▁제작": 3749,
      "▁스토리가": 3750,
      "▁보다가": 3751,
      "것같": 3752,
      "기가": 3753,
      "▁노래": 3754,
      "치는": 3755,
      "▁나름": 3756,
      "▁미국": 3757,
      "▁이유": 3758,
      "만한": 3759,
      "▁않았": 3760,
      "▁어설": 3761,
      "▁날": 3762,
      "▁데": 3763,
      "▁나왔": 3764,
      "▁목": 3765,
      "▁시작": 3766,
      "▁형": 3767,
      "▁1편": 3768,
      "▁국": 3769,
      "지만,": 3770,
      "0년대": 3771,
      "▁삼": 3772,
      "임\n": 3773,
      "▁영화..": 3774,
      "▁디": 3775,
      "▁...": 3776,
      "ᄍᄍ": 3777,
      "▁타": 3778,
      "▁보고싶": 3779,
      "거리": 3780,
      "▁때문에": 3781,
      "▁왜이": 3782,
      "▁감독이": 3783,
      "▁못한": 3784,
      "▁각": 3785,
      "할수": 3786,
      "▁킬": 3787,
      "해도": 3788,
      "▁영화라고": 3789,
      "▁나와": 3790,
      "라이": 3791,
      "▁그러": 3792,
      "▁로맨": 3793,
      "▁절대": 3794,
      "▁훌륭": 3795,
      "▁보게": 3796,
      "마다": 3797,
      "▁너무나": 3798,
      "▁복": 3799,
      "이없": 3800,
      "▁될": 3801,
      "▁뒤": 3802,
      "▁통": 3803,
      "영화를": 3804,
      "스팅": 3805,
      "▁따뜻": 3806,
      "니다": 3807,
      "▁싶은": 3808,
      "▁감정": 3809,
      "▁살아": 3810,
      "▁의미": 3811,
      "▁영화로": 3812,
      "▁케": 3813,
      "감동": 3814,
      "▁수작": 3815,
      "▁아직도": 3816,
      "▁출연": 3817,
      "ᄏᄏᄏ\n": 3818,
      "▁느끼": 3819,
      "▁글": 3820,
      "▁시간이": 3821,
      "▁뻔한": 3822,
      "▁티": 3823,
      "▁세상": 3824,
      "▁아니고": 3825,
      "▁작가": 3826,
      "▁20": 3827,
      "▁여운이": 3828,
      "기를": 3829,
      "나리오": 3830,
      "~~~~": 3831,
      "로운": 3832,
      "▁괜찮은": 3833,
      "더니": 3834,
      "▁차라리": 3835,
      "으로도": 3836,
      "나고": 3837,
      "이야": 3838,
      "하는데": 3839,
      "▁스토리도": 3840,
      "스러운": 3841,
      "▁ᄏ\n": 3842,
      "▁그저": 3843,
      "▁나도": 3844,
      "▁신선": 3845,
      "\"\n": 3846,
      "네.": 3847,
      "▁희": 3848,
      "▁뭘": 3849,
      "학교": 3850,
      "▁안되": 3851,
      "▁주는": 3852,
      "▁무엇": 3853,
      "▁특히": 3854,
      "▁얼마": 3855,
      "▁보면서": 3856,
      "▁6": 3857,
      "소리": 3858,
      "▁장난": 3859,
      "▁걍": 3860,
      "이런": 3861,
      "▁좋겠": 3862,
      "▁C": 3863,
      "요?": 3864,
      "▁도대체": 3865,
      "해야": 3866,
      "▁만화": 3867,
      "▁변": 3868,
      "▁산": 3869,
      "▁점수": 3870,
      "▁싫": 3871,
      "▁감독의": 3872,
      "▁친구": 3873,
      "고싶": 3874,
      "▁무섭": 3875,
      "▁행복": 3876,
      "▁어린": 3877,
      "▁사실": 3878,
      "▁B": 3879,
      "▁무서": 3880,
      "▁니": 3881,
      "▁판": 3882,
      "▁황": 3883,
      "♥♥": 3884,
      "▁확": 3885,
      "▁ᄏᄏᄏ\n": 3886,
      "▁\"\"": 3887,
      "▁되는": 3888,
      "▁t": 3889,
      "▁갑": 3890,
      "메이션": 3891,
      "▁언제": 3892,
      "▁오랜만에": 3893,
      "▁훨": 3894,
      "▁답답": 3895,
      "▁시청": 3896,
      "▁ᅲᅲ\n": 3897,
      "▁용": 3898,
      "▁멋진": 3899,
      "사랑": 3900,
      "지가": 3901,
      "▁이해가": 3902,
      "▁옛": 3903,
      "▁첨": 3904,
      "것이": 3905,
      "▁부분": 3906,
      "▁허접": 3907,
      "_-": 3908,
      "▁마지막에": 3909,
      "거같": 3910,
      "▁재미가": 3911,
      "▁길": 3912,
      "▁토": 3913,
      "▁좋아하는": 3914,
      "▁빨": 3915,
      "▁빼": 3916,
      "나게": 3917,
      "입니다.\n": 3918,
      "합니다": 3919,
      "니다.": 3920,
      "▁자신": 3921,
      "▁초반": 3922,
      "▁관객": 3923,
      "▁추억": 3924,
      "▁우리나라": 3925,
      "▁깨": 3926,
      "▁귀여": 3927,
      "▁전쟁": 3928,
      "부분": 3929,
      "하네": 3930,
      "▁봤던": 3931,
      "▁인상": 3932,
      "▁양": 3933,
      "▁소름": 3934,
      "▁완벽": 3935,
      "▁깊": 3936,
      "성도": 3937,
      "좋아": 3938,
      "지?": 3939,
      "놓고": 3940,
      "▁엔딩": 3941,
      "어\n": 3942,
      "인듯": 3943,
      "한데": 3944,
      "▁생각이": 3945,
      "▁없이": 3946,
      "▁어색": 3947,
      "▁시나리오": 3948,
      "▁배경": 3949,
      "아깝": 3950,
      "▁지루하고": 3951,
      "▁OOO": 3952,
      "▁어떤": 3953,
      "▁궁": 3954,
      "▁킬링": 3955,
      "▁청": 3956,
      "▁1점도": 3957,
      "▁낚": 3958,
      "▁유쾌": 3959,
      "▁힘들": 3960,
      "디오": 3961,
      "인이": 3962,
      "영화.": 3963,
      "▁영화관": 3964,
      "네요..": 3965,
      "▁분위": 3966,
      "▁ᄏ": 3967,
      "동안": 3968,
      "▁헐": 3969,
      "▁다큐": 3970,
      "▁흐": 3971,
      "▁총": 3972,
      "▁안타": 3973,
      "▁식": 3974,
      "▁팬": 3975,
      "▁둘": 3976,
      "▁오늘": 3977,
      "▁없다.": 3978,
      "▁스타": 3979,
      "▁지루한": 3980,
      "▁배우들의": 3981,
      "▁이딴": 3982,
      "▁시대": 3983,
      "▁문제": 3984,
      "▁잡": 3985,
      "▁슬프": 3986,
      "▁함께": 3987,
      "▁입": 3988,
      "▁환": 3989,
      "구만": 3990,
      ",,,": 3991,
      "▁들어": 3992,
      "아까": 3993,
      "▁찾아": 3994,
      "▁졸작": 3995,
      "oo": 3996,
      "▁결국": 3997,
      "치고": 3998,
      "텐데": 3999,
      "▁ᄒᄒ\n": 4000,
      "▁종": 4001,
      "해요": 4002,
      "▁큰": 4003,
      "▁보았": 4004,
      "▁좋고": 4005,
      "▁개인적으로": 4006,
      "▁뛰": 4007,
      "▁범": 4008,
      "▁왠": 4009,
      "들에게": 4010,
      "럽게": 4011,
      "었다.": 4012,
      "▁진정": 4013,
      "▁뿐": 4014,
      "▁보는내내": 4015,
      "▁태": 4016,
      "시길": 4017,
      "▁어릴": 4018,
      "▁당시": 4019,
      "▁역사": 4020,
      "▁애니메이션": 4021,
      "▁러": 4022,
      "그냥": 4023,
      "리지": 4024,
      "쓰레기": 4025,
      "이지만": 4026,
      "▁재밌는": 4027,
      "??\n": 4028,
      "▁임": 4029,
      "수있": 4030,
      "▁보세요": 4031,
      "▁진부": 4032,
      "낭비": 4033,
      "보니": 4034,
      "▁예술": 4035,
      "▁얼마나": 4036,
      "건가": 4037,
      "▁코믹": 4038,
      "▁책": 4039,
      "그래": 4040,
      "보단": 4041,
      "▁꿈": 4042,
      "▁포스터": 4043,
      "▁클": 4044,
      "▁아름답": 4045,
      "▁몰입도": 4046,
      ")\n": 4047,
      "나마": 4048,
      "니다.\n": 4049,
      "▁아무리": 4050,
      "▁암": 4051,
      "다!\n": 4052,
      "▁캐스팅": 4053,
      "▁설정": 4054,
      "▁혼": 4055,
      "▁강추": 4056,
      "▁\"": 4057,
      "▁0점": 4058,
      "▁백": 4059,
      "레이": 4060,
      "지루": 4061,
      "▁킬링타임": 4062,
      "▁없다.\n": 4063,
      "▁연기는": 4064,
      "▁기억에": 4065,
      "▁맘": 4066,
      "점대": 4067,
      "▁안되는": 4068,
      "▁주연": 4069,
      "▁후회": 4070,
      "네..": 4071,
      "지..": 4072,
      "▁개연": 4073,
      "▁영화도": 4074,
      "▁영화라": 4075,
      "▁오래": 4076,
      "▁민": 4077,
      "▁영화...": 4078,
      "▁사람이": 4079,
      "▁돌아": 4080,
      "하며": 4081,
      "함을": 4082,
      "었다": 4083,
      "▁패": 4084,
      "려는": 4085,
      "작품": 4086,
      "▁웃음": 4087,
      "▁멋있": 4088,
      "st": 4089,
      "▁얘": 4090,
      "주의": 4091,
      "▁꽤": 4092,
      "▁브": 4093,
      "▁제발": 4094,
      "▁매우": 4095,
      "▁몸": 4096,
      "자기": 4097,
      "▁지나": 4098,
      "▁더빙": 4099,
      "ᅮᅮ\n": 4100,
      "▁충격": 4101,
      "▁보지": 4102,
      "▁주제": 4103,
      "▁그렇게": 4104,
      "들과": 4105,
      "당히": 4106,
      "나?": 4107,
      "이버": 4108,
      "한거": 4109,
      "▁여러": 4110,
      "▁집중": 4111,
      "▁폭": 4112,
      "했다.": 4113,
      "▁어느": 4114,
      "▁잔인": 4115,
      "▁낫": 4116,
      "▁보지마": 4117,
      "▁엄마": 4118,
      "인줄": 4119,
      "같이": 4120,
      "▁재밌어요": 4121,
      "▁충분": 4122,
      "♥\n": 4123,
      "▁같이": 4124,
      "▁궁금": 4125,
      "!!!!!!!!": 4126,
      "▁군": 4127,
      "▁별점": 4128,
      "재미있": 4129,
      "르는": 4130,
      "▁하나도": 4131,
      "▁옛날": 4132,
      "▁병": 4133,
      "적이고": 4134,
      "▁아깝다": 4135,
      "영화의": 4136,
      "▁채": 4137,
      "▁미친": 4138,
      "학생": 4139,
      "▁빠져": 4140,
      "▁따라": 4141,
      "▁순수": 4142,
      "재미없": 4143,
      "▁T": 4144,
      "마디": 4145,
      "▁먼": 4146,
      "▁것이": 4147,
      "ᄒᄒ\n": 4148,
      "▁터": 4149,
      "함.": 4150,
      "▁은": 4151,
      "이거": 4152,
      "▁불쌍": 4153,
      "▁극장에서": 4154,
      "▁블": 4155,
      "한다": 4156,
      "▁풀": 4157,
      "0분": 4158,
      "▁뛰어": 4159,
      "▁커": 4160,
      "꿀잼": 4161,
      "만든": 4162,
      "▁위해": 4163,
      "▁광": 4164,
      "▁탄": 4165,
      "길래": 4166,
      "▁나올": 4167,
      "▁숨": 4168,
      "에요": 4169,
      "지.": 4170,
      "▁위한": 4171,
      "▁괴": 4172,
      "음..": 4173,
      "▁말도": 4174,
      "▁색": 4175,
      "▁너": 4176,
      "▁투": 4177,
      "▁흘": 4178,
      "▁o": 4179,
      "함이": 4180,
      "▁중국": 4181,
      "▁마음이": 4182,
      "자가": 4183,
      "하겠": 4184,
      "▁b": 4185,
      "해지는": 4186,
      "!!!!\n": 4187,
      "▁그만": 4188,
      "▁없다\n": 4189,
      "▁굳": 4190,
      "고..": 4191,
      "▁상상": 4192,
      "▁,": 4193,
      "버린": 4194,
      "합니다.": 4195,
      "▁느낌이": 4196,
      "고\n": 4197,
      "▁영화중": 4198,
      "▁있을": 4199,
      "▁알고": 4200,
      "이라도": 4201,
      "▁약간": 4202,
      "▁엉성": 4203,
      "▁끌": 4204,
      "기만": 4205,
      "성을": 4206,
      "시는": 4207,
      "▁돋": 4208,
      "듯한": 4209,
      "말이": 4210,
      ".....": 4211,
      "▁왕": 4212,
      "워서": 4213,
      "좋은": 4214,
      "▁이름": 4215,
      "▁감사": 4216,
      "력이": 4217,
      "전개": 4218,
      "▁프로": 4219,
      "가지": 4220,
      "이야기": 4221,
      "▁여기": 4222,
      "▁내용은": 4223,
      "합니다.\n": 4224,
      "▁이쁘": 4225,
      "▁대체": 4226,
      "▁누가": 4227,
      "▁걸작": 4228,
      "니다\n": 4229,
      "▁읽": 4230,
      "하네요": 4231,
      "▁비슷": 4232,
      "▁얼굴": 4233,
      "▁후반": 4234,
      "▁공포영화": 4235,
      "▁로맨스": 4236,
      "그리고": 4237,
      "▁ᅳᅳ\n": 4238,
      "▁똥": 4239,
      "냐?\n": 4240,
      "▁이정도": 4241,
      "입니다\n": 4242,
      "▁영상미": 4243,
      "▁훨씬": 4244,
      "느낌": 4245,
      "▁재미있었": 4246,
      "▁ᅲ": 4247,
      "▁철": 4248,
      "▁가슴이": 4249,
      "대한": 4250,
      "으니": 4251,
      "했다": 4252,
      "▁하지": 4253,
      "▁감동도": 4254,
      "▁갈수록": 4255,
      "▁여주인공": 4256,
      "▁존나": 4257,
      "▁눈물이": 4258,
      "▁CG": 4259,
      "▁첫": 4260,
      "굉장": 4261,
      "▁그나마": 4262,
      "▁실화": 4263,
      "▁B급": 4264,
      "▁사람들": 4265,
      "것을": 4266,
      "노잼": 4267,
      "리를": 4268,
      "자체": 4269,
      "가서": 4270,
      "군요": 4271,
      "~~~": 4272,
      "▁히": 4273,
      "재밋": 4274,
      "▁비교": 4275,
      "▁괜찮았": 4276,
      "이네": 4277,
      "▁똑": 4278,
      "▁번": 4279,
      "이건": 4280,
      "한다.": 4281,
      "▁없다": 4282,
      "▁죄": 4283,
      "▁흔": 4284,
      "냐\n": 4285,
      "인생": 4286,
      "▁재밌다": 4287,
      "▁연기를": 4288,
      "▁g": 4289,
      "▁키": 4290,
      "라서": 4291,
      "▁전체": 4292,
      "▁발연기": 4293,
      "점이": 4294,
      "▁잘봤": 4295,
      "▁노잼": 4296,
      "▁맛": 4297,
      "▁^^\n": 4298,
      "지...": 4299,
      "라면": 4300,
      "멜로": 4301,
      "▁어렸": 4302,
      "▁기억이": 4303,
      "▁그래서": 4304,
      "▁장르": 4305,
      "▁2편": 4306,
      "▁S": 4307,
      "▁갖": 4308,
      "는게": 4309,
      "▁벌": 4310,
      "▁밖에": 4311,
      "합니다\n": 4312,
      "▁단순": 4313,
      "▁어설픈": 4314,
      "▁늘": 4315,
      "시절": 4316,
      "▁것도": 4317,
      "▁s": 4318,
      "▁굉장": 4319,
      "수준": 4320,
      "▁비디오": 4321,
      "▁사람들이": 4322,
      "▁티비": 4323,
      "ood": 4324,
      "▁있고": 4325,
      "▁느낄": 4326,
      "▁200": 4327,
      "▁초딩": 4328,
      "▁네이버": 4329,
      "나온": 4330,
      "시키": 4331,
      "이라면": 4332,
      "▁취": 4333,
      "까?": 4334,
      "▁알게": 4335,
      "▁보여주는": 4336,
      "ᄋᄋ": 4337,
      "보게": 4338,
      "지를": 4339,
      "보기": 4340,
      "????": 4341,
      "▁딸": 4342,
      "개도": 4343,
      "했지만": 4344,
      "▁다들": 4345,
      "▁귀엽": 4346,
      "▁19": 4347,
      "정이": 4348,
      "▁오글": 4349,
      "ᅲᅲᅲᅲ": 4350,
      "▁이미": 4351,
      "▁다음": 4352,
      "아이": 4353,
      "지지": 4354,
      "▁영화..\n": 4355,
      "마지막": 4356,
      "으면서": 4357,
      "▁시즌": 4358,
      "▁인물": 4359,
      "▁것을": 4360,
      "▁결말이": 4361,
      "라.": 4362,
      "스가": 4363,
      "한번": 4364,
      "▁영화,": 4365,
      "er": 4366,
      "▁상황": 4367,
      "나요": 4368,
      "려서": 4369,
      "▁한국영화": 4370,
      "▁간만에": 4371,
      "▁ᄏᄏᄏᄏᄏᄏᄏᄏ": 4372,
      "▁영화관에서": 4373,
      "었다\n": 4374,
      "이였": 4375,
      "잖아": 4376,
      "▁이것": 4377,
      "▁성룡": 4378,
      "▁송": 4379,
      "그런": 4380,
      "머니": 4381,
      "▁섹": 4382,
      "▁테": 4383,
      "아야": 4384,
      "▁한마디": 4385,
      "▁꼬": 4386,
      "인의": 4387,
      "짜리": 4388,
      "는데..": 4389,
      "▁주고": 4390,
      "▁좋은데": 4391,
      "▁등장": 4392,
      "▁3류": 4393,
      "▁교훈": 4394,
      "었다.\n": 4395,
      "하하": 4396,
      "▁화려": 4397,
      "▁존재": 4398,
      "▁c": 4399,
      "다른": 4400,
      "땜에": 4401,
      "완전": 4402,
      "▁이후": 4403,
      "보고싶": 4404,
      "▁킬링타임용": 4405,
      "▁트": 4406,
      "▁풍": 4407,
      "▁온": 4408,
      "거야": 4409,
      "있고": 4410,
      "자\n": 4411,
      "▁독특": 4412,
      "▁으": 4413,
      "론가": 4414,
      "▁아님": 4415,
      "▁재밌고": 4416,
      "▁생각을": 4417,
      "▁감동적인": 4418,
      "▁판타": 4419,
      "▁멍": 4420,
      "▁훈": 4421,
      "움\n": 4422,
      "다는게": 4423,
      "▁잔잔한": 4424,
      "▁맘에": 4425,
      "▁평가": 4426,
      "▁여배우": 4427,
      "▁스토리는": 4428,
      "▁애들": 4429,
      "▁바로": 4430,
      "▁쓸": 4431,
      "▁전부": 4432,
      "세요\n": 4433,
      "건데": 4434,
      "▁잘못": 4435,
      "▁배우들이": 4436,
      "연히": 4437,
      "▁사회": 4438,
      "▁있을까": 4439,
      "감이": 4440,
      "▁라": 4441,
      "나\n": 4442,
      "다시": 4443,
      ".....\n": 4444,
      "점은": 4445,
      "▁보니": 4446,
      "▁마이": 4447,
      "▁삼류": 4448,
      "이팅": 4449,
      "▁없어": 4450,
      "▁대해": 4451,
      "▁진정한": 4452,
      "▁틀": 4453,
      "▁혹": 4454,
      "할때": 4455,
      "▁다운": 4456,
      "ᅮ\n": 4457,
      "아닌": 4458,
      "고는": 4459,
      "구요": 4460,
      "▁그리": 4461,
      "▁어울": 4462,
      "▁상당히": 4463,
      "▁직": 4464,
      "수를": 4465,
      "했다.\n": 4466,
      "▁그대로": 4467,
      "▁감동을": 4468,
      "모르": 4469,
      "정도로": 4470,
      "▁정도로": 4471,
      "▁.\n": 4472,
      "▁재미는": 4473,
      "▁거의": 4474,
      "▁영화인데": 4475,
      "▁소설": 4476,
      "▁감동이": 4477,
      "겠다": 4478,
      "들어": 4479,
      "▁생각보다": 4480,
      "▁같은데": 4481,
      "나오는": 4482,
      "스타": 4483,
      "▁다르": 4484,
      "▁높은": 4485,
      "▁ᅳ": 4486,
      "▁항": 4487,
      "중간": 4488,
      "▁허무": 4489,
      "▁세계": 4490,
      "보다는": 4491,
      "▁재미있는": 4492,
      "................": 4493,
      "▁빵": 4494,
      "▁ᄍᄍ": 4495,
      "▁예상": 4496,
      "▁했는데": 4497,
      "▁두번": 4498,
      "▁중간에": 4499,
      "을듯": 4500,
      "을텐데": 4501,
      "▁나와서": 4502,
      "10": 4503,
      "없다": 4504,
      "▁자연": 4505,
      "▁뭐야": 4506,
      "▁해서": 4507,
      "여자": 4508,
      "에서도": 4509,
      "리의": 4510,
      "봐야": 4511,
      "▁영화!\n": 4512,
      "▁좋아요": 4513,
      "년도": 4514,
      "년이": 4515,
      "▁휴": 4516,
      "▁드라마\n": 4517,
      "▁볼만한": 4518,
      "댓글": 4519,
      "이게": 4520,
      "▁어이": 4521,
      "▁당신": 4522,
      "▁몇번": 4523,
      "가?": 4524,
      "다....\n": 4525,
      "▁구성": 4526,
      "▁윤": 4527,
      "거나": 4528,
      "분들": 4529,
      "임.": 4530,
      "▁영화...\n": 4531,
      "▁봐서": 4532,
      "지?\n": 4533,
      "▁어른": 4534,
      "▁최고\n": 4535,
      "ᅳᅳ\n": 4536,
      "▁겁": 4537,
      "▁봣": 4538,
      "▁....": 4539,
      "버렸": 4540,
      "▁영화다.": 4541,
      "▁나의": 4542,
      "▁기다": 4543,
      "▁이영화를": 4544,
      "어나": 4545,
      "▁자기": 4546,
      "▁실제": 4547,
      "▁혼자": 4548,
      "겠지만": 4549,
      "1점": 4550,
      "되고": 4551,
      "시대": 4552,
      "여서": 4553,
      "▁봤어요": 4554,
      "▁잃": 4555,
      "기대": 4556,
      "라니": 4557,
      "▁평점을": 4558,
      "▁에로": 4559,
      "▁착": 4560,
      "어가": 4561,
      "저히": 4562,
      "했다\n": 4563,
      "▁이번": 4564,
      "▁밑": 4565,
      "▁멜로": 4566,
      "???": 4567,
      "▁압": 4568,
      "▁아버": 4569,
      "에서는": 4570,
      "▁각본": 4571,
      "▁맨": 4572,
      "때마다": 4573,
      "▁안된": 4574,
      "▁제가": 4575,
      "▁마음에": 4576,
      "▁(": 4577,
      "▁흑": 4578,
      "다!": 4579,
      ",,,,": 4580,
      "▁슬픈": 4581,
      "▁굉장히": 4582,
      "음악": 4583,
      "▁굿\n": 4584,
      "에선": 4585,
      "▁좀비": 4586,
      "▁장면이": 4587,
      "▁낮은": 4588,
      "▁O": 4589,
      "▁묘": 4590,
      "▁더욱": 4591,
      "▁갑자기": 4592,
      "-_-": 4593,
      "▁어쩌": 4594,
      "▁있어서": 4595,
      "▁평범": 4596,
      "▁어디서": 4597,
      "▁질질": 4598,
      "사가": 4599,
      "을수": 4600,
      "하고,": 4601,
      ";;;;": 4602,
      "랑스": 4603,
      "이트": 4604,
      "▁지루함": 4605,
      "▁원작을": 4606,
      "▁머리": 4607,
      "네...": 4608,
      "▁저런": 4609,
      "▁보여준": 4610,
      "▁방송": 4611,
      "▁즐거": 4612,
      "▁권": 4613,
      "▁까": 4614,
      "보면서": 4615,
      "는데,": 4616,
      "▁여주": 4617,
      "▁누구": 4618,
      "▁극장판": 4619,
      "▁새로운": 4620,
      "▁확실": 4621,
      "▁빨리": 4622,
      "던가": 4623,
      "네요...": 4624,
      "▁봤지만": 4625,
      "▁예쁘": 4626,
      "▁작품\n": 4627,
      "▁2점": 4628,
      "▁감독님": 4629,
      "▁보여주": 4630,
      "▁...\n": 4631,
      "▁그녀": 4632,
      "▁어이없": 4633,
      "▁못하는": 4634,
      "▁볼수": 4635,
      "▁재미없는": 4636,
      "▁상영": 4637,
      "말고": 4638,
      "▁의도": 4639,
      "▁크리스": 4640,
      "▁영화다": 4641,
      "▁개그": 4642,
      "▁끝나": 4643,
      "▁해야": 4644,
      "▁불편": 4645,
      "▁훌륭한": 4646,
      "▁밀": 4647,
      "▁벗": 4648,
      "▁생각해": 4649,
      "▁같다.": 4650,
      "▁화면": 4651,
      "▁슈": 4652,
      "일이": 4653,
      "▁가치": 4654,
      "▁믿고": 4655,
      "▁듣": 4656,
      "▁빛": 4657,
      "▁회": 4658,
      "▁흠": 4659,
      "우드": 4660,
      "코미디": 4661,
      "하자": 4662,
      "▁생각하게": 4663,
      "에겐": 4664,
      "▁같아": 4665,
      "▁자체가": 4666,
      "▁근": 4667,
      "▁놓": 4668,
      "었음": 4669,
      "유의": 4670,
      "하니": 4671,
      "▁너무너무": 4672,
      "▁전형": 4673,
      "~~~\n": 4674,
      "▁뭐가": 4675,
      "▁저는": 4676,
      "▁시청률": 4677,
      "▁쳐": 4678,
      "와서": 4679,
      "해주": 4680,
      "어요.\n": 4681,
      "▁일단": 4682,
      "▁항상": 4683,
      "지게": 4684,
      "해\n": 4685,
      "▁꺼": 4686,
      "▁빈": 4687,
      "도록": 4688,
      "리티": 4689,
      "▁있지만": 4690,
      "▁역대": 4691,
      "▁성우": 4692,
      "▁흥행": 4693,
      "▁대단한": 4694,
      "▁M": 4695,
      "▁탄탄": 4696,
      "▁봄": 4697,
      "▁왔": 4698,
      "▁운": 4699,
      "▁필": 4700,
      "▁꿀잼": 4701,
      "현실": 4702,
      "▁있어": 4703,
      "▁만드": 4704,
      "▁예고": 4705,
      ",.": 4706,
      "▁ᄉ": 4707,
      "진진": 4708,
      "▁그러나": 4709,
      "~!\n": 4710,
      "그러": 4711,
      "봐서": 4712,
      "여\n": 4713,
      "조건": 4714,
      "▁감성": 4715,
      "▁만점": 4716,
      "▁살인": 4717,
      "▁201": 4718,
      "▁빌": 4719,
      "▁..\n": 4720,
      "속에": 4721,
      "▁아닐": 4722,
      "▁가지고": 4723,
      "▁중요": 4724,
      "보다가": 4725,
      "▁향": 4726,
      "군\n": 4727,
      "어진": 4728,
      "▁없어서": 4729,
      "▁비해": 4730,
      "▁사람은": 4731,
      "▁써": 4732,
      "남자": 4733,
      "들아": 4734,
      "메디": 4735,
      "▁평론가": 4736,
      "▁관람": 4737,
      "▁주인공이": 4738,
      "하는거": 4739,
      "이라니": 4740,
      "하지않": 4741,
      "▁처음부터": 4742,
      "in": 4743,
      "▁ᄒ\n": 4744,
      "▁충분히": 4745,
      "▁TV": 4746,
      "▁한심": 4747,
      "▁아깝다\n": 4748,
      "▁순간": 4749,
      "한영화": 4750,
      "한다.\n": 4751,
      "▁한편": 4752,
      "▁이런영화": 4753,
      "하지도": 4754,
      "▁돋보": 4755,
      "내가": 4756,
      "무리": 4757,
      "▁것은": 4758,
      "하시": 4759,
      "▁좋다": 4760,
      "▁진행": 4761,
      "▁있다.": 4762,
      "▁헐리": 4763,
      "나?\n": 4764,
      "좋았": 4765,
      "▁해도": 4766,
      "▁ᄏᄏᄏᄏ\n": 4767,
      "▁개연성": 4768,
      "▁됐": 4769,
      "▁알겠": 4770,
      "▁점점": 4771,
      "▁쉽": 4772,
      "별로": 4773,
      "사회": 4774,
      "하다고": 4775,
      ";;;": 4776,
      "▁그런지": 4777,
      "▁리얼": 4778,
      "▁프랑스": 4779,
      "▁안타깝": 4780,
      "▁댓글": 4781,
      "▁영화인": 4782,
      "으며": 4783,
      "조차": 4784,
      "▁영화!": 4785,
      "▁만족": 4786,
      "▁잘만들": 4787,
      "▁금": 4788,
      "이코": 4789,
      "▁어려": 4790,
      "▁소리": 4791,
      ";;;\n": 4792,
      "10점": 4793,
      "▁짝": 4794,
      "▁시절": 4795,
      "스럽고": 4796,
      "▁tv": 4797,
      "▁식상": 4798,
      "▁젊": 4799,
      "영화중": 4800,
      "▁나이": 4801,
      "▁몰랐": 4802,
      "▁훈훈": 4803,
      "▁헤": 4804,
      "만이": 4805,
      "만으로도": 4806,
      "는데...": 4807,
      "▁자극": 4808,
      "▁good": 4809,
      "▁능": 4810,
      "히려": 4811,
      "▁수가": 4812,
      "▁분위기": 4813,
      "▁m": 4814,
      "▁~": 4815,
      "되어": 4816,
      "신이": 4817,
      "짜증": 4818,
      "▁소중": 4819,
      "▁참고": 4820,
      "▁참신": 4821,
      "▁먹먹": 4822,
      "▁홍콩": 4823,
      "▁루": 4824,
      "▁승": 4825,
      "만의": 4826,
      "스의": 4827,
      "▁봤다.": 4828,
      "▁죽는": 4829,
      "▁황당": 4830,
      "▁맥": 4831,
      "▁섬": 4832,
      "시리즈": 4833,
      "저씨": 4834,
      "▁그닥": 4835,
      "▁이영화는": 4836,
      "▁창": 4837,
      "기고": 4838,
      "한게": 4839,
      "▁하게": 4840,
      "▁어쩔": 4841,
      "▁짧": 4842,
      "러운": 4843,
      "었어요": 4844,
      "▁그때": 4845,
      "▁쓰레기\n": 4846,
      "▁선택": 4847,
      "▁전개가": 4848,
      "▁엉망": 4849,
      "▁흥미진진": 4850,
      "▁급": 4851,
      "▁씨": 4852,
      "어지는": 4853,
      "촬영": 4854,
      "▁유명": 4855,
      "▁케이": 4856,
      "▁한마디로": 4857,
      "//": 4858,
      "리게": 4859,
      "아도": 4860,
      "줘야": 4861,
      "효과": 4862,
      "▁평점은": 4863,
      "▁불륜": 4864,
      "▁도저히": 4865,
      "▁안타까": 4866,
      "▁묻": 4867,
      "하긴": 4868,
      "▁무조건": 4869,
      "▁여전": 4870,
      "ᄏᄏᄏᄏ\n": 4871,
      "▁망작": 4872,
      "▁엄청난": 4873,
      "▁검": 4874,
      "▁깔": 4875,
      "▁놈": 4876,
      "▁찌": 4877,
      "이면": 4878,
      "최악": 4879,
      "해진": 4880,
      "▁가는": 4881,
      "▁더럽게": 4882,
      "▁카메": 4883,
      "▁어릴때": 4884,
      "다....": 4885,
      "많은": 4886,
      "민국": 4887,
      "웃음": 4888,
      "영화..": 4889,
      "▁감독은": 4890,
      "▁다시봐도": 4891,
      "▁편집": 4892,
      "▁끝내": 4893,
      "▁과거": 4894,
      "▁아쉬운": 4895,
      "▁쓴": 4896,
      "추천": 4897,
      "파이": 4898,
      "▁최고였": 4899,
      "▁지금까지": 4900,
      "▁얘기": 4901,
      "인물": 4902,
      "지금": 4903,
      "▁있다.\n": 4904,
      "▁사랑을": 4905,
      "▁-_-": 4906,
      "▁뮤": 4907,
      "지..\n": 4908,
      "한다\n": 4909,
      "▁이것도": 4910,
      "▁그게": 4911,
      "▁안나": 4912,
      ",\n": 4913,
      "들\n": 4914,
      "▁진지": 4915,
      "▁9점": 4916,
      "▁범죄": 4917,
      "▁멍청": 4918,
      "▁겨": 4919,
      "처음": 4920,
      "▁사람들은": 4921,
      "▁원래": 4922,
      "▁모르고": 4923,
      "▁돈주고": 4924,
      "▁든": 4925,
      "겠다\n": 4926,
      "요..": 4927,
      "지의": 4928,
      "▁이리": 4929,
      "▁미안": 4930,
      "영상": 4931,
      "영화.\n": 4932,
      "▁페": 4933,
      "연출": 4934,
      "영화로": 4935,
      "▁영화다.\n": 4936,
      "▁줄거리": 4937,
      "▁물론": 4938,
      "▁희망": 4939,
      "그램": 4940,
      "막장": 4941,
      "애니": 4942,
      "없음": 4943,
      "대박": 4944,
      "알았": 4945,
      "▁되었": 4946,
      "▁초등": 4947,
      "지않는": 4948,
      "▁견": 4949,
      "편이": 4950,
      "▁재밌는데": 4951,
      "▁자꾸": 4952,
      "▁설명": 4953,
      "▁힘든": 4954,
      "당시": 4955,
      "어로": 4956,
      "▁최근": 4957,
      "▁평점에": 4958,
      "▁결혼": 4959,
      "▁후반부": 4960,
      "▁뜬": 4961,
      "가고": 4962,
      "까?\n": 4963,
      "방송": 4964,
      "▁안보": 4965,
      "▁가능": 4966,
      "▁전설": 4967,
      "▁로맨틱": 4968,
      "▁따뜻한": 4969,
      "▁a": 4970,
      "▁넣": 4971,
      "▁북": 4972,
      "▁아빠": 4973,
      "▁있다는": 4974,
      "▁미화": 4975,
      "▁그래픽": 4976,
      "▁유치한": 4977,
      "▁갔": 4978,
      "스런": 4979,
      "이하": 4980,
      "▁감상": 4981,
      "▁알려": 4982,
      "▁저질": 4983,
      "▁액션도": 4984,
      "▁분명": 4985,
      "▁전형적인": 4986,
      "▁사라": 4987,
      "▁재밌음": 4988,
      "▁느꼈": 4989,
      "???\n": 4990,
      "▁법": 4991,
      "내는": 4992,
      "님의": 4993,
      "이네요": 4994,
      "▁내인생": 4995,
      "▁가볍": 4996,
      "▁괜히": 4997,
      "▁d": 4998,
      "▁^^": 4999,
      "하여": 5000,
      "▁아..": 5001,
      "▁그럴": 5002,
      "▁그림": 5003,
      "▁배우가": 5004,
      "따위": 5005,
      "함.\n": 5006,
      "▁오히려": 5007,
      "▁웃긴": 5008,
      "▁억지로": 5009,
      "▁느끼게": 5010,
      "▁병맛": 5011,
      "▁판타지": 5012,
      "▁예전에": 5013,
      "▁골": 5014,
      "작가": 5015,
      "▁있는데": 5016,
      "▁영웅": 5017,
      "▁바보": 5018,
      "▁이야기를": 5019,
      "메이크": 5020,
      "▁독립": 5021,
      "▁무서운": 5022,
      "▁완벽한": 5023,
      "▁오글거": 5024,
      "▁끼": 5025,
      "공포": 5026,
      "대의": 5027,
      "명작": 5028,
      "▁나쁘": 5029,
      ",,\n": 5030,
      "▁인간의": 5031,
      "▁깜": 5032,
      "▁학교": 5033,
      "프로": 5034,
      "하는게": 5035,
      "▁3점": 5036,
      "▁듯한": 5037,
      "▁덕": 5038,
      "나면": 5039,
      "자의": 5040,
      "▁연출력": 5041,
      "그래도": 5042,
      "▁SF": 5043,
      "▁ᅮᅮ": 5044,
      "것은": 5045,
      "네..\n": 5046,
      "은데": 5047,
      "해라": 5048,
      "▁하면": 5049,
      "▁별루": 5050,
      "▁우연히": 5051,
      "▁완성도": 5052,
      "▁동화": 5053,
      "인가?": 5054,
      "ST": 5055,
      "▁친": 5056,
      "네.\n": 5057,
      "오는": 5058,
      "▁보는데": 5059,
      "▁해준": 5060,
      "▁바라": 5061,
      "▁기대하고": 5062,
      "▁멋지": 5063,
      "▁흘러": 5064,
      "님이": 5065,
      "워요": 5066,
      "▁영화임": 5067,
      "▁봤다": 5068,
      "▁대작": 5069,
      "▁인정": 5070,
      "▁뭐냐": 5071,
      "▁현재": 5072,
      "▁모르는": 5073,
      "▁대한민국": 5074,
      ".5": 5075,
      "▁팔": 5076,
      "평가": 5077,
      "함과": 5078,
      "▁영화보다": 5079,
      "▁나쁜": 5080,
      "▁되어": 5081,
      "▁돈이": 5082,
      "▁요소": 5083,
      "▁스타일": 5084,
      "▁?": 5085,
      "스를": 5086,
      "실망": 5087,
      "움이": 5088,
      "지...\n": 5089,
      "영화에": 5090,
      "▁없을": 5091,
      "▁진실": 5092,
      "네요..\n": 5093,
      "......": 5094,
      "▁전편": 5095,
      "▁신기": 5096,
      "▁아이들이": 5097,
      "▁아무것도": 5098,
      "▁적당": 5099,
      "▁복수": 5100,
      "예산": 5101,
      "인간": 5102,
      "▁전기": 5103,
      "▁이런거": 5104,
      "▁지금도": 5105,
      "웠던": 5106,
      "▁허술": 5107,
      "▁관계": 5108,
      "우는": 5109,
      "▁다행": 5110,
      "▁영원": 5111,
      "▁좋은영화": 5112,
      "▁노력": 5113,
      "▁처음으로": 5114,
      "▁죽음": 5115,
      "▁서로": 5116,
      "▁잊혀": 5117,
      "▁메세": 5118,
      "▁어설프": 5119,
      "▁풀어": 5120,
      "--": 5121,
      "내고": 5122,
      "심을": 5123,
      "심이": 5124,
      "▁중반": 5125,
      "▁ᄒ": 5126,
      "리아": 5127,
      "안되는": 5128,
      "▁이러": 5129,
      "▁이런걸": 5130,
      "같은데": 5131,
      "▁화이팅": 5132,
      "▁특유의": 5133,
      "▁부족한": 5134,
      "▁ost": 5135,
      "▁전문": 5136,
      "▁같다.\n": 5137,
      "▁못보": 5138,
      "▁유머": 5139,
      "▁핵": 5140,
      "기엔": 5141,
      "시고": 5142,
      "▁2시간": 5143,
      "▁바람": 5144,
      "▁코메디": 5145,
      "▁성장": 5146,
      "▁즐겁": 5147,
      "▁앞으로": 5148,
      "▁천재": 5149,
      "▁다운받": 5150,
      "▁!\n": 5151,
      "▁ᄃᄃ": 5152,
      "최고의": 5153,
      "▁촌": 5154,
      "드가": 5155,
      "음...": 5156,
      "했고": 5157,
      "▁같아요": 5158,
      "▁웃겨": 5159,
      "▁멀": 5160,
      "▁라는": 5161,
      "있게": 5162,
      "▁전작": 5163,
      "▁저도": 5164,
      "▁연출이": 5165,
      "▁놀라": 5166,
      "▁청춘": 5167,
      "▁탈": 5168,
      "강추": 5169,
      "세가": 5170,
      "안하고": 5171,
      "어울": 5172,
      "▁영화다\n": 5173,
      "▁영화에서": 5174,
      "▁부모": 5175,
      "he": 5176,
      "~!": 5177,
      "▁워": 5178,
      "▁촬영": 5179,
      "보이": 5180,
      "상을": 5181,
      "아먹": 5182,
      "한건": 5183,
      "한다는": 5184,
      "▁여성": 5185,
      "▁장면은": 5186,
      "▁아닌가": 5187,
      "▁리메이크": 5188,
      "▁목소리": 5189,
      "♡\n": 5190,
      "스로": 5191,
      "▁왜이리": 5192,
      "▁어렸을때": 5193,
      "년에": 5194,
      "이에": 5195,
      "▁아프": 5196,
      "▁최고다": 5197,
      "▁우울": 5198,
      "ᄏᄏᄏᄏᄏᄏᄏᄏᄏᄏᄏᄏᄏᄏᄏᄏ": 5199,
      "▁0": 5200,
      "년전": 5201,
      "▁지난": 5202,
      "▁재미있어요": 5203,
      "▁비슷한": 5204,
      "기\n": 5205,
      "화가": 5206,
      "▁말하고": 5207,
      "▁아니다.": 5208,
      "▁노출": 5209,
      "▁또한": 5210,
      "▁류": 5211,
      "그라": 5212,
      "▁그려": 5213,
      "▁나라": 5214,
      "▁않을": 5215,
      "▁남아": 5216,
      "▁해주": 5217,
      "다,": 5218,
      "다운": 5219,
      "리에": 5220,
      "소한": 5221,
      "식이": 5222,
      "▁영화입니다.": 5223,
      "▁만큼": 5224,
      "▁100": 5225,
      "▁쓰레기영화": 5226,
      "▁유치하고": 5227,
      "▁졸라": 5228,
      "▁모습이": 5229,
      "▁뜬금": 5230,
      "▁면": 5231,
      "▁ᅲ\n": 5232,
      "▁ᅮᅮ\n": 5233,
      "거지": 5234,
      "았던": 5235,
      "역시": 5236,
      "점을": 5237,
      "...이": 5238,
      "▁사건": 5239,
      "▁말고": 5240,
      "▁중에": 5241,
      "도,": 5242,
      "많이": 5243,
      "정을": 5244,
      "치게": 5245,
      "▁이래": 5246,
      "▁이연": 5247,
      "▁아오": 5248,
      "▁스토리에": 5249,
      "▁비추": 5250,
      "▁D": 5251,
      "됨\n": 5252,
      "려면": 5253,
      "무슨": 5254,
      "했음": 5255,
      "▁정치": 5256,
      "▁가득": 5257,
      "▁시간낭비": 5258,
      "▁재밌게봤": 5259,
      "▁귀여운": 5260,
      "▁철학": 5261,
      "▁짐": 5262,
      "▁찬": 5263,
      "▁플": 5264,
      "개봉": 5265,
      "나..": 5266,
      "자는": 5267,
      "▁그의": 5268,
      "배우들": 5269,
      "▁이상한": 5270,
      "▁게임": 5271,
      "▁!": 5272,
      "없다\n": 5273,
      "장이": 5274,
      "▁드라마를": 5275,
      "▁누군": 5276,
      "인거": 5277,
      "▁12": 5278,
      "▁봤습니다.": 5279,
      "▁돌려": 5280,
      "▁진부한": 5281,
      "▁접": 5282,
      "▁학": 5283,
      "놓은": 5284,
      "라.\n": 5285,
      "자들": 5286,
      "지못": 5287,
      "▁어찌": 5288,
      "▁안맞": 5289,
      "▁재미있고": 5290,
      "▁해피": 5291,
      "▁귀신": 5292,
      "가\n": 5293,
      "세계": 5294,
      "인은": 5295,
      "져서": 5296,
      "해준": 5297,
      "▁스케": 5298,
      "▁아깝다.": 5299,
      "▁마음을": 5300,
      "▁행동": 5301,
      "▁경찰": 5302,
      "▁전체적으로": 5303,
      "▁화려한": 5304,
      "▁예고편": 5305,
      "기억": 5306,
      "하던": 5307,
      "하다는": 5308,
      "▁좋다\n": 5309,
      "네요~": 5310,
      "▁15": 5311,
      "▁그런데": 5312,
      "▁울었": 5313,
      "▁짱짱": 5314,
      "하면서도": 5315,
      "▁얻": 5316,
      "대사": 5317,
      "이의": 5318,
      "▁안나오": 5319,
      "▁감동적": 5320,
      "▁지루해": 5321,
      "▁별로였": 5322,
      "▁너무나도": 5323,
      "▁응": 5324,
      "감을": 5325,
      "보는데": 5326,
      "▁아는": 5327,
      "▁아마": 5328,
      "▁없음": 5329,
      "▁전달": 5330,
      "▁마치": 5331,
      "▁미래": 5332,
      "▁보고나서": 5333,
      "▁드라마가": 5334,
      "▁예전": 5335,
      "▁삶을": 5336,
      "▁먼저": 5337,
      "수도": 5338,
      "심히": 5339,
      "알바": 5340,
      "았다.": 5341,
      "야\n": 5342,
      "자를": 5343,
      "지.\n": 5344,
      "하냐": 5345,
      "▁보이": 5346,
      "▁소재는": 5347,
      "재밌게": 5348,
      "▁손발": 5349,
      "▁무엇보다": 5350,
      "^\n": 5351,
      "▁샤": 5352,
      "난다": 5353,
      "수있는": 5354,
      "없다.": 5355,
      "해주는": 5356,
      "▁어렵": 5357,
      "▁한계": 5358,
      "▁대충": 5359,
      "▁잘생": 5360,
      "▁성공": 5361,
      "▁명작\n": 5362,
      "▁이야기가": 5363,
      "▁반전이": 5364,
      "▁왠지": 5365,
      "▁합": 5366,
      "만하면": 5367,
      "반전": 5368,
      "▁나만": 5369,
      "▁이런게": 5370,
      "▁재미없다": 5371,
      "▁눈이": 5372,
      "▁여자가": 5373,
      "or": 5374,
      "▁:": 5375,
      "▁월": 5376,
      "▁퍼": 5377,
      "네...\n": 5378,
      "르고": 5379,
      "분에": 5380,
      "▁드라마.": 5381,
      "면서도": 5382,
      "▁아깝다.\n": 5383,
      "▁이영화가": 5384,
      "▁싫어": 5385,
      "▁OOO기": 5386,
      "▁논": 5387,
      "마저": 5388,
      "모습": 5389,
      "▁그랬": 5390,
      "▁나머": 5391,
      "▁나에게": 5392,
      "▁다소": 5393,
      "▁재밌어": 5394,
      "▁애들이": 5395,
      "▁작품이": 5396,
      "▁지금봐도": 5397,
      "▁메시": 5398,
      "▁인상깊": 5399,
      "▁환상": 5400,
      "▁늙": 5401,
      "▁뒷": 5402,
      "▁웬": 5403,
      "▁짓": 5404,
      "▁춤": 5405,
      "예요": 5406,
      "터리": 5407,
      "▁영화중에": 5408,
      "▁이젠": 5409,
      "▁재미없고": 5410,
      "▁피해": 5411,
      "▁8점": 5412,
      "▁자신의": 5413,
      "▁깊은": 5414,
      "▁였": 5415,
      "극장": 5416,
      "인을": 5417,
      "▁눈을": 5418,
      "▁심리": 5419,
      "구나\n": 5420,
      "▁7점": 5421,
      "▁허접한": 5422,
      "▁확실히": 5423,
      "순간": 5424,
      "스는": 5425,
      "스릴": 5426,
      "▁시도": 5427,
      "▁조연": 5428,
      "▁와닿": 5429,
      "사람이": 5430,
      "▁러브": 5431,
      "▁어이없는": 5432,
      "닝타임": 5433,
      "랄까": 5434,
      "새끼": 5435,
      "아\n": 5436,
      "▁자유": 5437,
      "▁보고있": 5438,
      "▁매력적인": 5439,
      "▁모습을": 5440,
      "▁밑에": 5441,
      "▁케이블": 5442,
      "▁뜨": 5443,
      "▁힐": 5444,
      "▁낭비": 5445,
      "물이": 5446,
      "번째": 5447,
      "했으면": 5448,
      "▁잘만든": 5449,
      "▁미소": 5450,
      "▁심심": 5451,
      "▁글쎄": 5452,
      "▁군대": 5453,
      "▁A": 5454,
      "들만": 5455,
      "말로": 5456,
      "절한": 5457,
      "▁이어": 5458,
      "▁보이는": 5459,
      "▁스토리,": 5460,
      "▁내용을": 5461,
      "세요.": 5462,
      "지도않": 5463,
      "▁맞는": 5464,
      "▁90년대": 5465,
      "고...": 5466,
      "만으로": 5467,
      "을거": 5468,
      "지컬": 5469,
      "퀄리티": 5470,
      "특히": 5471,
      "하다..": 5472,
      "하고싶": 5473,
      "▁아까움": 5474,
      "▁속편": 5475,
      "스럽게": 5476,
      "▁4점": 5477,
      "▁왜이렇게": 5478,
      "▁프로그램": 5479,
      "**": 5480,
      "▁증": 5481,
      "가족": 5482,
      "과는": 5483,
      "었지만": 5484,
      "▁아...": 5485,
      "▁나를": 5486,
      "▁연애": 5487,
      "▁취향": 5488,
      "▁붙": 5489,
      "로서": 5490,
      "일뿐": 5491,
      "줘서": 5492,
      "하네\n": 5493,
      "▁좋다.": 5494,
      "▁고민": 5495,
      "▁했던": 5496,
      "하기만": 5497,
      "▁딴": 5498,
      "려다": 5499,
      "성애": 5500,
      "이해": 5501,
      "▁하루": 5502,
      "▁스토리와": 5503,
      "▁재미없음": 5504,
      "▁제작비": 5505,
      "▁겁나": 5506,
      "▁끊": 5507,
      "더만": 5508,
      "도없고": 5509,
      "로는": 5510,
      "마음": 5511,
      "▁영화보고": 5512,
      "▁아놔": 5513,
      "▁다가": 5514,
      "▁못하고": 5515,
      "▁남주": 5516,
      "▁해주는": 5517,
      "▁의외": 5518,
      "▁10점\n": 5519,
      "▁있었던": 5520,
      "▁느껴지는": 5521,
      "▁감정이": 5522,
      "▁부분이": 5523,
      "▁낚였": 5524,
      "▁ᄉᄇ": 5525,
      "무서": 5526,
      "시켜": 5527,
      "었으면": 5528,
      "일까": 5529,
      "▁그럼": 5530,
      "▁재밌네요": 5531,
      "▁봤습니다": 5532,
      "▁연기에": 5533,
      "▁사람을": 5534,
      "▁저예산": 5535,
      "▁실패": 5536,
      "▁넘어": 5537,
      "▁외국": 5538,
      "▁찍은": 5539,
      "▁세상에": 5540,
      "▁어색한": 5541,
      "▁순수한": 5542,
      "▁젊은": 5543,
      "▁+": 5544,
      "▁G": 5545,
      "▁드는": 5546,
      "구려": 5547,
      "듯.": 5548,
      "소년": 5549,
      "소재": 5550,
      "▁재미없어": 5551,
      "▁화가": 5552,
      "사람들": 5553,
      "▁떨어지는": 5554,
      "▁OST": 5555,
      "▁젤": 5556,
      "리도": 5557,
      "아버": 5558,
      "저럭": 5559,
      "▁영화입니다.\n": 5560,
      "▁아저씨": 5561,
      "▁감탄": 5562,
      "▁재밌다\n": 5563,
      "▁느낀": 5564,
      "▁싶다.\n": 5565,
      "▁중간중간": 5566,
      "▁cg": 5567,
      "▁카메라": 5568,
      "▁<": 5569,
      "▁꾸": 5570,
      "나요?": 5571,
      "만드는": 5572,
      "하네요\n": 5573,
      "▁오락": 5574,
      "▁사랑이": 5575,
      "▁좋았다.": 5576,
      "▁아닌데": 5577,
      "▁유쾌한": 5578,
      "▁여전히": 5579,
      "▁씬": 5580,
      "으론": 5581,
      "이를": 5582,
      "티비": 5583,
      "하려는": 5584,
      "해보": 5585,
      "▁가끔": 5586,
      "▁아니면": 5587,
      "▁역할": 5588,
      "▁보는게": 5589,
      "▁역시나": 5590,
      "▁소재를": 5591,
      "아니고": 5592,
      "▁알았는데": 5593,
      "▁엑": 5594,
      "사는": 5595,
      "아주": 5596,
      "와르": 5597,
      "움을": 5598,
      "지말": 5599,
      "▁있다면": 5600,
      "▁기본": 5601,
      "▁드라마는": 5602,
      "▁액션은": 5603,
      "▁액션이": 5604,
      "▁아까워": 5605,
      "▁특별": 5606,
      "▁80년대": 5607,
      "▁w": 5608,
      "▁곳": 5609,
      "▁씁": 5610,
      "네여": 5611,
      "림\n": 5612,
      "안되": 5613,
      "한다면": 5614,
      "▁이하": 5615,
      "▁나서": 5616,
      "▁봤었는데": 5617,
      "어요~": 5618,
      "▁조폭": 5619,
      "▁제작진": 5620,
      "▁섹시": 5621,
      "▁꼴": 5622,
      "▁밤": 5623,
      "가?\n": 5624,
      "나올": 5625,
      "▁어이가": 5626,
      "▁사극": 5627,
      "▁시선": 5628,
      "▁스토리를": 5629,
      "▁유일": 5630,
      "▁아니다": 5631,
      "▁슬픔": 5632,
      "▁블랙": 5633,
      "▁독특한": 5634,
      "▁까지": 5635,
      "럭저럭": 5636,
      "이제": 5637,
      "▁내생": 5638,
      "▁전에": 5639,
      "▁볼때마다": 5640,
      "▁저렇게": 5641,
      "▁결론": 5642,
      "▁할말": 5643,
      "▁매력이": 5644,
      "▁리뷰": 5645,
      "▁연기력이": 5646,
      "▁호러": 5647,
      "▁이유가": 5648,
      "▁평범한": 5649,
      "(?": 5650,
      "ou": 5651,
      "▁폐": 5652,
      "결말": 5653,
      "아아": 5654,
      "▁그들의": 5655,
      "▁다만": 5656,
      "▁가진": 5657,
      "▁평생": 5658,
      "▁3편": 5659,
      "▁굿굿": 5660,
      "▁던": 5661,
      "▁쩔": 5662,
      "겠지": 5663,
      "니아": 5664,
      "이렇게": 5665,
      "트가": 5666,
      "영화도": 5667,
      "▁이기": 5668,
      "▁안봤": 5669,
      "▁모자": 5670,
      "▁미스": 5671,
      "▁예쁜": 5672,
      "▁기대를": 5673,
      "▁흥미롭": 5674,
      "▁소름끼": 5675,
      "레스": 5676,
      "위해": 5677,
      "▁좋을": 5678,
      "▁아니지만": 5679,
      "▁끝나고": 5680,
      "▁뭔지": 5681,
      "▁짜증나": 5682,
      "▁돼": 5683,
      "▁라이": 5684,
      "식으로": 5685,
      "씨가": 5686,
      "펑펑": 5687,
      "했을": 5688,
      "▁연예": 5689,
      "▁안하고": 5690,
      "▁재밌었는데": 5691,
      "▁연기와": 5692,
      "▁알아": 5693,
      "이라서": 5694,
      "▁거지": 5695,
      "▁살짝": 5696,
      "하지마": 5697,
      "▁악역": 5698,
      "▁다큐멘": 5699,
      "▁밝": 5700,
      "▁헛": 5701,
      "끼리": 5702,
      "라가": 5703,
      "원이": 5704,
      "화를": 5705,
      "하는지": 5706,
      "▁몰입이": 5707,
      "▁보기엔": 5708,
      "▁그렇고": 5709,
      "▁통해": 5710,
      "▁희생": 5711,
      "▁깔끔": 5712,
      "먹고": 5713,
      "명이": 5714,
      "시아": 5715,
      "았다": 5716,
      "요.\n": 5717,
      "즈니": 5718,
      "한것": 5719,
      "▁시원": 5720,
      "▁봤다가": 5721,
      "▁일어": 5722,
      "▁고전": 5723,
      "▁작품.": 5724,
      "▁했지만": 5725,
      "▁어린이": 5726,
      "▁풋": 5727,
      "나가": 5728,
      "남는": 5729,
      "▁영화지만": 5730,
      "▁하는데": 5731,
      "▁안본": 5732,
      "▁일상": 5733,
      "▁지루하다": 5734,
      "▁사랑하는": 5735,
      "▁분노": 5736,
      "▁이야기\n": 5737,
      "▁과연": 5738,
      "▁용서": 5739,
      "▁굳이": 5740,
      "▁녹": 5741,
      "디어": 5742,
      "유치": 5743,
      "좋고": 5744,
      "▁끝난": 5745,
      "▁난해": 5746,
      "▁주인공의": 5747,
      "▁종교": 5748,
      "▁어릴적": 5749,
      "▁어렸을": 5750,
      "▁압권": 5751,
      "▁슈퍼": 5752,
      "99": 5753,
      "▁겉": 5754,
      "▁십": 5755,
      "대는": 5756,
      "듯이": 5757,
      "주얼": 5758,
      "▁그다": 5759,
      "▁그럭저럭": 5760,
      "▁나타": 5761,
      "▁정말로": 5762,
      "▁스트": 5763,
      "......\n": 5764,
      "에서의": 5765,
      "▁만들지": 5766,
      "▁거기": 5767,
      "▁이건뭐": 5768,
      "▁하나하나": 5769,
      "▁현실을": 5770,
      "▁짜증나는": 5771,
      "bb": 5772,
      "~!!\n": 5773,
      "▁짠": 5774,
      "▁톰": 5775,
      "걸로": 5776,
      "까진": 5777,
      "되지": 5778,
      "드립": 5779,
      "었고": 5780,
      "▁사랑에": 5781,
      "▁불쾌": 5782,
      "▁만들어진": 5783,
      "▁음악이": 5784,
      "▁잼있게": 5785,
      "▁나왔으면": 5786,
      "▁신선한": 5787,
      "▁전기세가": 5788,
      "서야": 5789,
      "작\n": 5790,
      "▁영화네요": 5791,
      "▁재난": 5792,
      "▁재미를": 5793,
      "▁부터": 5794,
      "▁작품성": 5795,
      "▁처음엔": 5796,
      "▁표절": 5797,
      "을까?": 5798,
      "▁열심히": 5799,
      "▁이연걸": 5800,
      "▁I": 5801,
      "▁칼": 5802,
      "군요.": 5803,
      "대가": 5804,
      "래기": 5805,
      "무비": 5806,
      "무섭": 5807,
      "요?\n": 5808,
      "제목": 5809,
      "한국": 5810,
      "▁보시길": 5811,
      "으로서": 5812,
      "▁더이상": 5813,
      "▁같다\n": 5814,
      "▁후속": 5815,
      "▁막판": 5816,
      "▁포장": 5817,
      "더라도": 5818,
      "지마라": 5819,
      "an": 5820,
      "▁챙": 5821,
      "봐라": 5822,
      "이터": 5823,
      "▁사기": 5824,
      "▁사는": 5825,
      "▁개판": 5826,
      "▁재미없다\n": 5827,
      "▁봐라": 5828,
      "▁나오고": 5829,
      "▁아름답고": 5830,
      "▁티비에서": 5831,
      "▁귀엽고": 5832,
      "▁뮤지컬": 5833,
      "▁덜": 5834,
      "▁밥": 5835,
      "▁썩": 5836,
      "▁축": 5837,
      "▁침": 5838,
      "기의": 5839,
      "끄럽": 5840,
      "물을": 5841,
      "분이": 5842,
      "줌마": 5843,
      "▁있다\n": 5844,
      "어요..": 5845,
      "▁오그라": 5846,
      "지않은": 5847,
      "▁재밋게": 5848,
      "▁공감이": 5849,
      "▁싸이코": 5850,
      "▁진심으로": 5851,
      ",,,\n": 5852,
      "▁상상력": 5853,
      "▁아닐까": 5854,
      "▁늦": 5855,
      "▁뭉": 5856,
      "없어": 5857,
      "▁무지": 5858,
      "▁무협": 5859,
      "▁소녀": 5860,
      "▁배우의": 5861,
      "▁20년": 5862,
      "▁10년": 5863,
      "▁영환": 5864,
      "▁필요한": 5865,
      "▁감동적이고": 5866,
      "겠다.\n": 5867,
      "다!!\n": 5868,
      "돌아": 5869,
      "들에": 5870,
      "사를": 5871,
      "와는": 5872,
      "▁없음\n": 5873,
      "▁감명": 5874,
      "▁자막": 5875,
      "▁사랑과": 5876,
      "▁상처": 5877,
      "다니..": 5878,
      "▁떠나": 5879,
      "▁이유는": 5880,
      "▁몸매": 5881,
      "▁채널": 5882,
      "(?)": 5883,
      "류의": 5884,
      "수는": 5885,
      "이크": 5886,
      "죠?": 5887,
      "진심": 5888,
      "하다가": 5889,
      "해지": 5890,
      "했다는": 5891,
      "▁고생": 5892,
      "▁되게": 5893,
      "▁현대": 5894,
      "시간이": 5895,
      "▁놀랍": 5896,
      "▁크게": 5897,
      "▁기분이": 5898,
      "▁형편": 5899,
      "re": 5900,
      "▁격": 5901,
      "▁쩌": 5902,
      "▁퀄리티": 5903,
      "구하고": 5904,
      "시킨": 5905,
      "히는": 5906,
      "▁아침": 5907,
      "▁보러": 5908,
      "▁말로": 5909,
      "▁감동과": 5910,
      "▁소재가": 5911,
      "▁말이필요": 5912,
      "▁레이": 5913,
      "▁추억의": 5914,
      "아깝다": 5915,
      "▁흐름": 5916,
      "▁이정도면": 5917,
      "▁혹시": 5918,
      "▁ᄍᄍ\n": 5919,
      "▁퇴": 5920,
      "쵝오": 5921,
      "▁봤음": 5922,
      "▁봤으면": 5923,
      "▁전투": 5924,
      "연기가": 5925,
      "▁표정": 5926,
      "▁폭력": 5927,
      "▁쓸데": 5928,
      "▁징": 5929,
      "가능": 5930,
      "그렇": 5931,
      "보여": 5932,
      "이니": 5933,
      "이유": 5934,
      "표현": 5935,
      "▁그지": 5936,
      "▁보시": 5937,
      "▁가서": 5938,
      "▁수도": 5939,
      "▁오버": 5940,
      "▁생각나는": 5941,
      "▁동생": 5942,
      "▁삶의": 5943,
      "▁등장인물": 5944,
      "▁쉽게": 5945,
      "▁쇼": 5946,
      "▁엘": 5947,
      "겠다.": 5948,
      "기로": 5949,
      "들고": 5950,
      "따라": 5951,
      "명의": 5952,
      "안에": 5953,
      "오빠": 5954,
      "줄알았": 5955,
      "▁좋다.\n": 5956,
      "▁어제": 5957,
      "▁마무리": 5958,
      "▁볼수록": 5959,
      "▁지루해서": 5960,
      "▁지루하지": 5961,
      "▁별로\n": 5962,
      "▁연출,": 5963,
      "▁포기": 5964,
      "보는게": 5965,
      "▁소름돋": 5966,
      "아까운": 5967,
      ".2": 5968,
      "▁꼽": 5969,
      "▁맡": 5970,
      "▁잤": 5971,
      "수의": 5972,
      "아님": 5973,
      "였던": 5974,
      "이며": 5975,
      "임.\n": 5976,
      "▁그립": 5977,
      "▁정서": 5978,
      "는데\n": 5979,
      "▁사이": 5980,
      "▁남녀": 5981,
      "▁남을": 5982,
      "▁신경": 5983,
      "▁좋았던": 5984,
      "▁강렬": 5985,
      "▁두고": 5986,
      "▁우리가": 5987,
      "▁드러": 5988,
      "▁필요없는": 5989,
      "▁봐야할": 5990,
      "▁몇번을": 5991,
      "▁북한": 5992,
      "▁해피엔딩": 5993,
      "-\n": 5994,
      "보세요": 5995,
      "속에서": 5996,
      "이자": 5997,
      "▁아련": 5998,
      "▁나중에": 5999,
      "▁무시": 6000,
      "▁말할": 6001,
      "까지는": 6002,
      "▁비주얼": 6003,
      "▁사람의": 6004,
      "▁설레": 6005,
      "▁받아": 6006,
      "▁보고싶은": 6007,
      "▁태어": 6008,
      "▁가볍게": 6009,
      "▁스케일": 6010,
      "▁힐링": 6011,
      "▁잇": 6012,
      "▁컨": 6013,
      "남\n": 6014,
      "도가": 6015,
      "▁미치": 6016,
      "▁비극": 6017,
      "▁끝나는": 6018,
      "▁반성": 6019,
      "▁봤는데..": 6020,
      "▁소재로": 6021,
      "▁반전도": 6022,
      "▁디즈니": 6023,
      "▁산만": 6024,
      "▁몽": 6025,
      "▁활": 6026,
      "▁ᄋᄋ": 6027,
      "독교": 6028,
      "르노": 6029,
      "언가": 6030,
      "엄마": 6031,
      "오글": 6032,
      "의미": 6033,
      "전쟁": 6034,
      "정신": 6035,
      "▁이루": 6036,
      "▁하면서": 6037,
      "▁있게": 6038,
      "▁조잡": 6039,
      "▁거짓": 6040,
      "▁눈빛": 6041,
      "▁의심": 6042,
      "▁몰라도": 6043,
      "▁느낌\n": 6044,
      "▁선생": 6045,
      "▁수준이": 6046,
      "▁제목이": 6047,
      ",2": 6048,
      ".ᅳ": 6049,
      "▁i": 6050,
      "▁끄": 6051,
      "▁움": 6052,
      "고있": 6053,
      "관계": 6054,
      "당\n": 6055,
      "중의": 6056,
      "▁나가": 6057,
      "▁없고,": 6058,
      "▁소장": 6059,
      "▁좋아서": 6060,
      "▁의문": 6061,
      "▁싸구려": 6062,
      "평점이": 6063,
      "▁국민": 6064,
      "▁뇌": 6065,
      "난다\n": 6066,
      "상이": 6067,
      "에만": 6068,
      "하시는": 6069,
      "해요\n": 6070,
      "했어요": 6071,
      "▁영화같": 6072,
      "▁말을": 6073,
      "▁본방": 6074,
      "▁일부": 6075,
      "▁뭐지": 6076,
      "▁김기": 6077,
      "▁심각": 6078,
      "하기도": 6079,
      "▁음악도": 6080,
      "▁올해": 6081,
      "▁통쾌": 6082,
      "▁똑같": 6083,
      "▁찡": 6084,
      "거운": 6085,
      "거리는": 6086,
      "리기": 6087,
      "밋밋": 6088,
      "버리고": 6089,
      "인듯\n": 6090,
      "일본": 6091,
      "자단": 6092,
      "짐\n": 6093,
      "찝찝": 6094,
      "캐릭터": 6095,
      "▁그린": 6096,
      "▁스크": 6097,
      "▁역겨": 6098,
      "▁시간을": 6099,
      "인가?\n": 6100,
      "▁깊이": 6101,
      "▁엉성한": 6102,
      "▁ᄌ": 6103,
      "▁윌": 6104,
      "▁라고": 6105,
      "그인": 6106,
      "했는지": 6107,
      "영화였": 6108,
      "영화라고": 6109,
      "▁영화....": 6110,
      "▁있다": 6111,
      "▁지루할": 6112,
      "▁다시한번": 6113,
      "▁좋아할": 6114,
      "▁좋았고": 6115,
      "▁연출도": 6116,
      "▁인생을": 6117,
      "지않고": 6118,
      "▁점수를": 6119,
      "▁능력": 6120,
      "on": 6121,
      "▁쉬": 6122,
      "▁흡": 6123,
      "다~": 6124,
      "듯..": 6125,
      "라스": 6126,
      "마스": 6127,
      "트콤": 6128,
      "▁지구": 6129,
      "▁가까": 6130,
      "▁않게": 6131,
      "연기도": 6132,
      "▁그런가": 6133,
      "사람은": 6134,
      "▁이제야": 6135,
      "▁악당": 6136,
      "▁언제나": 6137,
      "▁깨닫": 6138,
      "ad": 6139,
      "▁났": 6140,
      "▁농": 6141,
      "▁펑펑": 6142,
      "구니": 6143,
      "만점": 6144,
      "영화...": 6145,
      "▁이쁜": 6146,
      "▁아픔": 6147,
      "▁지겹": 6148,
      "▁스티": 6149,
      "▁최고!\n": 6150,
      "▁오랫": 6151,
      "▁인터": 6152,
      "▁죽여": 6153,
      "▁이해할": 6154,
      "▁동물": 6155,
      "▁존경": 6156,
      "▁받았": 6157,
      "▁광고": 6158,
      "▁헐리우드": 6159,
      "4년": 6160,
      "드의": 6161,
      "만화": 6162,
      "뻐서": 6163,
      "우리": 6164,
      "음..\n": 6165,
      "이후": 6166,
      "하신": 6167,
      "▁영화~": 6168,
      "▁이때": 6169,
      "▁그것": 6170,
      "지만..": 6171,
      "▁생애": 6172,
      "▁사랑스러운": 6173,
      "▁30": 6174,
      "▁방금": 6175,
      "▁듯\n": 6176,
      "▁홍보": 6177,
      "▁안되고": 6178,
      "▁뛰어난": 6179,
      "▁뉴": 6180,
      "▁쫌": 6181,
      "물\n": 6182,
      "▁영화라는": 6183,
      "▁그걸": 6184,
      "습니다..": 6185,
      "▁못할": 6186,
      "▁30분": 6187,
      "▁낮아서": 6188,
      "감독이": 6189,
      "▁어려운": 6190,
      "▁섬세": 6191,
      "▁풋풋": 6192,
      "▁납": 6193,
      "▁뜻": 6194,
      "잼있": 6195,
      "하셨": 6196,
      "학년": 6197,
      "▁시사회": 6198,
      "▁평이": 6199,
      "▁아니다.\n": 6200,
      "다는거": 6201,
      "▁눈물을": 6202,
      "▁드럽게": 6203,
      "▁딱히": 6204,
      "▁잊을": 6205,
      "▁산으로": 6206,
      "▁마이너": 6207,
      "▁씁쓸": 6208,
      "▁줬": 6209,
      "가락": 6210,
      "나왔": 6211,
      "난다.": 6212,
      "로우": 6213,
      "아가": 6214,
      "하구": 6215,
      "영화라": 6216,
      "▁연결": 6217,
      "▁쓰래기": 6218,
      "▁좋았는데": 6219,
      "▁최악\n": 6220,
      "▁명작이": 6221,
      "▁아이들": 6222,
      "▁발전": 6223,
      "▁결말도": 6224,
      "▁결말은": 6225,
      "▁새벽": 6226,
      "▁니콜": 6227,
      "▁둘다": 6228,
      "▁아버지": 6229,
      "▁끔": 6230,
      "▁쌍": 6231,
      "▁좌": 6232,
      "▁밋밋": 6233,
      "괜찮": 6234,
      "느라": 6235,
      "두고": 6236,
      "리\n": 6237,
      "버리": 6238,
      "식을": 6239,
      "여운": 6240,
      "음을": 6241,
      "이션": 6242,
      "▁이따위": 6243,
      "▁보인": 6244,
      "▁하이": 6245,
      "▁무언가": 6246,
      "▁생생": 6247,
      "▁느와르": 6248,
      "▁불구하고": 6249,
      "▁살다": 6250,
      "▁느낌을": 6251,
      "▁단연": 6252,
      "아니라": 6253,
      "▁베스트": 6254,
      "▁정신병": 6255,
      "▁괴물": 6256,
      "▁꽃": 6257,
      "▁닥": 6258,
      "▁익": 6259,
      "▁푹": 6260,
      "▁쵝오": 6261,
      "나보": 6262,
      "나와": 6263,
      "되었": 6264,
      "수없는": 6265,
      "작이": 6266,
      "하네요.": 6267,
      "한다고": 6268,
      "▁영화!!\n": 6269,
      "▁어머니": 6270,
      "▁스포": 6271,
      "▁대표": 6272,
      "▁일반": 6273,
      "▁좀더": 6274,
      "▁고통": 6275,
      "▁바뀌": 6276,
      "▁성인": 6277,
      "▁때문": 6278,
      "▁지금은": 6279,
      "007": 6280,
      "▁느끼는": 6281,
      "아까워": 6282,
      "▁닮": 6283,
      "봤다": 6284,
      "성에": 6285,
      "함..": 6286,
      "▁나옴": 6287,
      "▁나은": 6288,
      "▁남겨": 6289,
      "▁10분": 6290,
      "▁고등": 6291,
      "▁웃겼": 6292,
      "이다...": 6293,
      "▁몰입해서": 6294,
      "▁남자가": 6295,
      "장면이": 6296,
      "▁배우들도": 6297,
      "▁출연진": 6298,
      "▁죄다": 6299,
      "▁묘사": 6300,
      "▁ᅮ": 6301,
      "▁싱": 6302,
      "▁잭": 6303,
      "걸까": 6304,
      "나도": 6305,
      "준다\n": 6306,
      "피소": 6307,
      "▁보니까": 6308,
      "▁연기자": 6309,
      "▁봤는데...": 6310,
      "▁드립": 6311,
      "▁여기서": 6312,
      "ver": 6313,
      "▁폴": 6314,
      "감도": 6315,
      "답답": 6316,
      "더군요": 6317,
      "봣는데": 6318,
      "사의": 6319,
      "용\n": 6320,
      "자고": 6321,
      "하려고": 6322,
      "▁시걸": 6323,
      "▁시시": 6324,
      "▁안돼": 6325,
      "▁스스로": 6326,
      "▁우주": 6327,
      "▁아까웠": 6328,
      "▁현실적인": 6329,
      "▁과장": 6330,
      "▁올라": 6331,
      "▁외계": 6332,
      "▁0점은": 6333,
      "▁헐리웃": 6334,
      "at": 6335,
      "ie": 6336,
      "▁냉": 6337,
      "▁체": 6338,
      "고.": 6339,
      "소설": 6340,
      "캐스팅": 6341,
      "▁아류": 6342,
      "으로써": 6343,
      "▁한데": 6344,
      "▁재밌다.": 6345,
      "▁인도": 6346,
      "▁아니다\n": 6347,
      "▁재미없다.": 6348,
      "▁로그인": 6349,
      "▁에이": 6350,
      "▁슬퍼": 6351,
      "▁아직까지": 6352,
      "▁떨어진": 6353,
      "▁떠나서": 6354,
      "▁작가가": 6355,
      "▁시대를": 6356,
      "▁단순한": 6357,
      "▁견자단": 6358,
      "스릴러": 6359,
      "▁쪽": 6360,
      "도안": 6361,
      "셔서": 6362,
      "영이": 6363,
      "이냐": 6364,
      "죠.": 6365,
      "함에": 6366,
      "▁재밌음\n": 6367,
      "▁전반": 6368,
      "▁생각없이": 6369,
      "▁같아서": 6370,
      "▁영국": 6371,
      "▁상업": 6372,
      "▁이거보고": 6373,
      "▁분들": 6374,
      "▁발로": 6375,
      "▁모든게": 6376,
      "▁무엇을": 6377,
      "자체가": 6378,
      "ing": 6379,
      "▁뽑": 6380,
      "▁앤": 6381,
      "▁찝찝": 6382,
      "▁영화보는": 6383,
      "▁생각나": 6384,
      "보고있": 6385,
      "▁와우": 6386,
      "더라\n": 6387,
      "▁집에서": 6388,
      "▁레전": 6389,
      "▁뒤로": 6390,
      "▁러닝타임": 6391,
      "▁옛날에": 6392,
      "▁흔한": 6393,
      "▁벌써": 6394,
      "▁good\n": 6395,
      "▁푸": 6396,
      "과의": 6397,
      "노래": 6398,
      "만드": 6399,
      "봄\n": 6400,
      "어지": 6401,
      "인트": 6402,
      "임?": 6403,
      "▁아들": 6404,
      "▁다니": 6405,
      "▁없지만": 6406,
      "▁연속": 6407,
      "▁지켜": 6408,
      "▁시각": 6409,
      "▁연기,": 6410,
      "▁이런영화가": 6411,
      "▁명품": 6412,
      "▁작품을": 6413,
      "▁좋았다.\n": 6414,
      "▁하는거": 6415,
      "▁단지": 6416,
      "▁누구나": 6417,
      "▁뻔하고": 6418,
      "▁외모": 6419,
      "▁5점": 6420,
      "주고싶": 6421,
      "내용도": 6422,
      "▁슬프고": 6423,
      "▁은근": 6424,
      "▁전문가": 6425,
      "▁즐겁게": 6426,
      "BS": 6427,
      "▁줌": 6428,
      "▁흉": 6429,
      "계의": 6430,
      "나옴": 6431,
      "눈물": 6432,
      "듯..\n": 6433,
      "▁주변": 6434,
      "▁않아": 6435,
      "▁볼수있": 6436,
      "▁기대안하고": 6437,
      "▁1점\n": 6438,
      "▁위대한": 6439,
      "▁느낌.": 6440,
      "▁발견": 6441,
      "▁않는다.": 6442,
      "▁재밌었어요": 6443,
      "▁청소년": 6444,
      "▁빠져들": 6445,
      "▁ᄋ": 6446,
      "▁떡": 6447,
      "된다.": 6448,
      "러디": 6449,
      "로도": 6450,
      "받는": 6451,
      "부족": 6452,
      "씬은": 6453,
      "양이": 6454,
      "장난": 6455,
      "처구니": 6456,
      "▁보길": 6457,
      "▁안보고": 6458,
      "▁가져": 6459,
      "▁기독교": 6460,
      "▁에휴": 6461,
      "▁망쳐": 6462,
      "더라면": 6463,
      "▁놀랐": 6464,
      "▁느껴진": 6465,
      "리스마": 6466,
      "▁섞": 6467,
      "소리가": 6468,
      "수없": 6469,
      "어주": 6470,
      "젠장": 6471,
      "▁시트콤": 6472,
      "▁한다.": 6473,
      "▁18": 6474,
      "▁공부": 6475,
      "▁반복": 6476,
      "▁싶다\n": 6477,
      "배우들의": 6478,
      "▁들었": 6479,
      "▁일본영화": 6480,
      "을까?\n": 6481,
      "▁갈등": 6482,
      "▁믿을": 6483,
      "▁잔잔하고": 6484,
      "▁대사가": 6485,
      "▁웃기고": 6486,
      "~~~~~~~~": 6487,
      "▁초반에": 6488,
      "▁유쾌하고": 6489,
      "▁맨날": 6490,
      "▁탄탄한": 6491,
      "▁김기덕": 6492,
      "12": 6493,
      "▁E": 6494,
      "▁쩐": 6495,
      "당한": 6496,
      "따구": 6497,
      "보지마": 6498,
      "시에": 6499,
      "시작": 6500,
      "언니": 6501,
      "였는데": 6502,
      "호가": 6503,
      "▁없다는": 6504,
      "▁한참": 6505,
      "▁13": 6506,
      "▁무비": 6507,
      "▁말았": 6508,
      "▁만들고": 6509,
      "▁시간가는": 6510,
      "▁처럼": 6511,
      "▁아이돌": 6512,
      "▁특수": 6513,
      "▁특이": 6514,
      "▁속에": 6515,
      "▁인생의": 6516,
      "▁찍었": 6517,
      "시키는": 6518,
      "▁마이클": 6519,
      "*\n": 6520,
      "▁쥐": 6521,
      "▁쿠": 6522,
      "먹는": 6523,
      "미가": 6524,
      "불어": 6525,
      "석이": 6526,
      "였다.": 6527,
      "인들": 6528,
      "쳐서": 6529,
      "했음\n": 6530,
      "영화인데": 6531,
      "▁다양": 6532,
      "▁있어야": 6533,
      "▁봤다\n": 6534,
      "▁같았": 6535,
      "▁볼게": 6536,
      "▁결과": 6537,
      "하다..\n": 6538,
      "▁음악과": 6539,
      "▁문화": 6540,
      "▁편견": 6541,
      "▁치밀": 6542,
      "ᄃᄃ\n": 6543,
      "▁국내": 6544,
      "▁움직": 6545,
      "ᄃ\n": 6546,
      "▁빡": 6547,
      "▁타임": 6548,
      "간의": 6549,
      "나이": 6550,
      "되서": 6551,
      "비디오": 6552,
      "아프": 6553,
      "애들": 6554,
      "어.": 6555,
      "은거": 6556,
      "이에요": 6557,
      "정은": 6558,
      "제작": 6559,
      "죠\n": 6560,
      "지어": 6561,
      "키는": 6562,
      "하려": 6563,
      "▁영화입니다": 6564,
      "네요...\n": 6565,
      "▁여행": 6566,
      "▁제로": 6567,
      "▁생각하고": 6568,
      "▁미모": 6569,
      "▁보고나면": 6570,
      "▁봤는데,": 6571,
      "▁관심": 6572,
      "하다니": 6573,
      "▁모르겠다.": 6574,
      "▁아쉬웠": 6575,
      "▁그렇다고": 6576,
      "▁떠오": 6577,
      "▁\"\"\"": 6578,
      "▁꿈을": 6579,
      "▁유명한": 6580,
      "▁검색": 6581,
      "▁찌질": 6582,
      "▁멍청한": 6583,
      "ll": 6584,
      "▁f": 6585,
      "▁!!\n": 6586,
      "계속": 6587,
      "날때": 6588,
      "다만": 6589,
      "어라": 6590,
      "와의": 6591,
      "을것": 6592,
      "차라리": 6593,
      "하진": 6594,
      "..그": 6595,
      "▁아줌마": 6596,
      "▁없음.": 6597,
      "▁있으면": 6598,
      "▁대부분": 6599,
      "▁무척": 6600,
      "▁해리": 6601,
      "▁코난": 6602,
      "▁로봇": 6603,
      "스러웠": 6604,
      "▁인상적이": 6605,
      "▁잔인한": 6606,
      "▁즐거운": 6607,
      "▁독립영화": 6608,
      "ov": 6609,
      "▁[": 6610,
      "봤던": 6611,
      "야말로": 6612,
      "우고": 6613,
      "트맨": 6614,
      "▁아나": 6615,
      "▁내려": 6616,
      "▁주고싶": 6617,
      "▁우와": 6618,
      "▁고마": 6619,
      "▁사랑의": 6620,
      "▁노답": 6621,
      "▁불러": 6622,
      "▁3D": 6623,
      "▁에피소": 6624,
      "시간에": 6625,
      "▁달달": 6626,
      "▁따뜻해지는": 6627,
      "▁끌어": 6628,
      "▁덕분에": 6629,
      "▁의외로": 6630,
      "▁뭉클": 6631,
      "100": 6632,
      "▁낳": 6633,
      "▁센": 6634,
      "▁콜": 6635,
      "▁007": 6636,
      "씨의": 6637,
      "으니까": 6638,
      "이로": 6639,
      "편은": 6640,
      "하세요": 6641,
      "▁아역": 6642,
      "▁좋게": 6643,
      "▁기술": 6644,
      "▁말하는": 6645,
      "▁왜케": 6646,
      "▁같다": 6647,
      "▁싶다.": 6648,
      "▁아깝지": 6649,
      "하다...": 6650,
      "▁슬펐": 6651,
      "다니...": 6652,
      "▁매력적이": 6653,
      "▁새롭": 6654,
      "▁표현한": 6655,
      "▁히어로": 6656,
      "bs": 6657,
      "가지고": 6658,
      "기분": 6659,
      "몰입": 6660,
      "성은": 6661,
      "이\n": 6662,
      "테일": 6663,
      "▁안됨": 6664,
      "▁봤더니": 6665,
      "▁인내": 6666,
      "▁자살": 6667,
      "▁본거": 6668,
      "▁비현실": 6669,
      "▁되고": 6670,
      "▁눈에": 6671,
      "▁나오면": 6672,
      "▁동안": 6673,
      "이다..\n": 6674,
      "▁짱\n": 6675,
      "▁경험": 6676,
      "▁긴장감도": 6677,
      "▁복잡": 6678,
      "▁보세요\n": 6679,
      "▁섹스": 6680,
      "▁이후로": 6681,
      "▁봣는데": 6682,
      "-_-\n": 6683,
      "▁짝퉁": 6684,
      "▁초등학생": 6685,
      "om": 6686,
      "▁업": 6687,
      "관이": 6688,
      "불가": 6689,
      "사수": 6690,
      "용으로": 6691,
      "을듯\n": 6692,
      "이스": 6693,
      "장에서": 6694,
      "..이": 6695,
      "▁어처구니": 6696,
      "▁최강": 6697,
      "▁일이": 6698,
      "▁조합": 6699,
      "▁사랑은": 6700,
      "▁거슬": 6701,
      "▁신파": 6702,
      "▁세월": 6703,
      "▁필요없": 6704,
      "▁감정을": 6705,
      "▁the": 6706,
      "▁빼고는": 6707,
      "▁암튼": 6708,
      "▁다큐멘터리": 6709,
      "▁ᄀ": 6710,
      "▁썼": 6711,
      "▁척": 6712,
      "버트": 6713,
      "성치": 6714,
      "요~": 6715,
      "이네\n": 6716,
      "저도": 6717,
      "한지": 6718,
      "▁그거": 6719,
      "▁없었던": 6720,
      "▁어휴": 6721,
      "▁1시간": 6722,
      "▁만나": 6723,
      "▁않지만": 6724,
      "▁오바": 6725,
      "▁쓰레기같은": 6726,
      "▁되지": 6727,
      "▁극치": 6728,
      "▁장면에서": 6729,
      "▁박진": 6730,
      "▁박수를": 6731,
      "▁남자의": 6732,
      "▁원작의": 6733,
      "▁7점대": 6734,
      "▁흥미로운": 6735,
      "▁신선하고": 6736,
      "▁민망": 6737,
      ".4": 6738,
      "갈수록": 6739,
      "것만": 6740,
      "대를": 6741,
      "영환": 6742,
      "짱\n": 6743,
      "체가": 6744,
      "함은": 6745,
      "▁모른": 6746,
      "▁더러운": 6747,
      "▁많아": 6748,
      "▁조선": 6749,
      "▁좋았다\n": 6750,
      "▁허세": 6751,
      "\"\"\"\n": 6752,
      "▁힘이": 6753,
      "▁방법": 6754,
      "재밌어요": 6755,
      "▁인간이": 6756,
      "▁연기력도": 6757,
      "▁손발이": 6758,
      "▁레전드": 6759,
      "듯.\n": 6760,
      "만을": 6761,
      "버스터": 6762,
      "에대한": 6763,
      "원작": 6764,
      "준것": 6765,
      "▁가면": 6766,
      "▁더불어": 6767,
      "▁일품": 6768,
      "▁지루하게": 6769,
      "▁웃김": 6770,
      "▁싶어": 6771,
      "▁싶었": 6772,
      "▁바꿔": 6773,
      "▁좋았어요": 6774,
      "▁하나의": 6775,
      "사람들이": 6776,
      "▁카리스마": 6777,
      "▁개연성이": 6778,
      "▁웃음이": 6779,
      "▁직접": 6780,
      "▁겨울": 6781,
      "▁학교에서": 6782,
      "▁갠": 6783,
      "▁뱀": 6784,
      "▁픽": 6785,
      "상황": 6786,
      "설정": 6787,
      "였다.\n": 6788,
      "주세요": 6789,
      "▁어우": 6790,
      ".......": 6791,
      "▁최고다\n": 6792,
      "▁생각하는": 6793,
      "▁본다면": 6794,
      "▁우정": 6795,
      "▁작은": 6796,
      "▁끝났": 6797,
      "▁완전히": 6798,
      "▁좋았으나": 6799,
      "▁김민": 6800,
      "▁설마": 6801,
      "ᄍᄍ\n": 6802,
      "▁의미를": 6803,
      "▁무서웠": 6804,
      "▁빼고": 6805,
      "구만\n": 6806,
      "ᅲᅲᅲᅲᅲᅲᅲᅲ": 6807,
      "▁역대급": 6808,
      "▁그다지": 6809,
      "▁챙겨": 6810,
      "20": 6811,
      "VD": 6812,
      "▁멘": 6813,
      "▁컴": 6814,
      "▁탐": 6815,
      "그대로": 6816,
      "나...": 6817,
      "로만": 6818,
      "문제": 6819,
      "세상": 6820,
      "음이": 6821,
      "임을": 6822,
      "주기도": 6823,
      "▁영화들": 6824,
      "▁다룬": 6825,
      "▁가벼": 6826,
      "▁재밌다고": 6827,
      "▁제이": 6828,
      "~~~~\n": 6829,
      "▁기대했는데": 6830,
      "▁아이가": 6831,
      "▁높아": 6832,
      "▁한번쯤": 6833,
      "▁게다가": 6834,
      "▁교육": 6835,
      "▁삶에": 6836,
      "▁이유를": 6837,
      "▁빌려": 6838,
      "▁누군가": 6839,
      "▁스크린": 6840,
      "▁^": 6841,
      "▁?\n": 6842,
      "▁학생": 6843,
      "감은": 6844,
      "나.": 6845,
      "동생": 6846,
      "레딧": 6847,
      "살다": 6848,
      "성의": 6849,
      "요일": 6850,
      "요...": 6851,
      "주가": 6852,
      "▁정의": 6853,
      "지만...": 6854,
      "▁모를": 6855,
      "▁평점보고": 6856,
      "▁못생": 6857,
      "▁미드": 6858,
      "▁비판": 6859,
      "▁포르노": 6860,
      "▁게이": 6861,
      "▁졸작\n": 6862,
      "▁지나치게": 6863,
      "▁뛰어넘": 6864,
      "▁이쁘고": 6865,
      "zz": 6866,
      "▁꽝": 6867,
      "▁봅": 6868,
      "가슴": 6869,
      "거면": 6870,
      "긴한데": 6871,
      "끝까지": 6872,
      "머리": 6873,
      "아라": 6874,
      "아직": 6875,
      "있다": 6876,
      "적은": 6877,
      "좋아요": 6878,
      "하던데": 6879,
      "▁보긴": 6880,
      "▁보며": 6881,
      "▁재미잇": 6882,
      "▁기가": 6883,
      "▁봤을": 6884,
      "▁여태": 6885,
      "보다도": 6886,
      "▁끝이": 6887,
      "▁영혼": 6888,
      "▁좋아해서": 6889,
      "▁화끈": 6890,
      "배우가": 6891,
      "더라구요": 6892,
      "▁떨어지": 6893,
      "▁범인": 6894,
      "▁패러디": 6895,
      "!!!!!!!!!!!!!!!!": 6896,
      "▁깜짝": 6897,
      "▁잊혀지지": 6898,
      "11": 6899,
      "5년": 6900,
      "ᄍ\n": 6901,
      "▁엠": 6902,
      "▁옆": 6903,
      "▁웨": 6904,
      "▁탁": 6905,
      "리언": 6906,
      "받은": 6907,
      "시다": 6908,
      "운드": 6909,
      "지,": 6910,
      "▁이끌": 6911,
      "▁이용": 6912,
      "▁지겨": 6913,
      "▁진짜\n": 6914,
      "▁않다.\n": 6915,
      "▁더럽": 6916,
      "▁아니었": 6917,
      "▁조용": 6918,
      "▁도전": 6919,
      "▁죽은": 6920,
      "▁모르게": 6921,
      "▁당연": 6922,
      "▁빠진": 6923,
      "▁영화였다.": 6924,
      "내용이": 6925,
      "▁싶은데": 6926,
      "아깝다\n": 6927,
      "▁투자": 6928,
      "▁전설의": 6929,
      "ar": 6930,
      "▁l": 6931,
      "▁p": 6932,
      "▁런": 6933,
      "▁콩": 6934,
      "냐고": 6935,
      "듯...": 6936,
      "루스": 6937,
      "명을": 6938,
      "부작": 6939,
      "시즌": 6940,
      "아쉽": 6941,
      "왜이": 6942,
      "요즘": 6943,
      "우기": 6944,
      "음...\n": 6945,
      "제발": 6946,
      "함의": 6947,
      "▁봤을때": 6948,
      "▁주성치": 6949,
      "들이랑": 6950,
      "ᅲᅲᅲ\n": 6951,
      "▁감동의": 6952,
      "▁사람들의": 6953,
      "▁해결": 6954,
      "▁사랑이야기": 6955,
      "▁반개도": 6956,
      "▁죽을": 6957,
      "▁이해하기": 6958,
      "▁우리의": 6959,
      "▁아까울": 6960,
      "▁전개도": 6961,
      "▁몇몇": 6962,
      "▁모르겠다": 6963,
      "▁달라": 6964,
      "▁없었다.": 6965,
      "학교때": 6966,
      "▁커플": 6967,
      "▁시즌2": 6968,
      "▁착한": 6969,
      "▁e": 6970,
      "▁엽": 6971,
      "그리": 6972,
      "냄새": 6973,
      "들.": 6974,
      "로써": 6975,
      "배경": 6976,
      "버리는": 6977,
      "솔직": 6978,
      "슬프": 6979,
      "신은": 6980,
      "이다..": 6981,
      "▁영화!!": 6982,
      "▁이정": 6983,
      "▁아닙": 6984,
      "▁재미와": 6985,
      "▁재밌어요\n": 6986,
      "▁봤습니다.\n": 6987,
      "▁대해서": 6988,
      "▁못해": 6989,
      "▁좋아하는데": 6990,
      "▁한국영화는": 6991,
      "▁김수": 6992,
      "▁관한": 6993,
      "▁따로": 6994,
      "▁울고": 6995,
      "▁가슴에": 6996,
      "▁ᄒᄒᄒ": 6997,
      "▁모두가": 6998,
      "▁먹고": 6999,
      "▁레알": 7000,
      "▁잠깐": 7001,
      "▁타이": 7002,
      "이야\n": 7003,
      "♥♥\n": 7004,
      "▁팀": 7005,
      "▁젠장": 7006,
      "겨진": 7007,
      "냐..": 7008,
      "는건": 7009,
      "는다": 7010,
      "라인": 7011,
      "삭제": 7012,
      "아무": 7013,
      "야?": 7014,
      "야지": 7015,
      "억지": 7016,
      "이기": 7017,
      "임스": 7018,
      "출연": 7019,
      "토록": 7020,
      "회가": 7021,
      "▁영화~\n": 7022,
      "▁영화네요.": 7023,
      "▁아기": 7024,
      "▁봤네요": 7025,
      "▁개막장": 7026,
      "▁인기": 7027,
      "▁볼거리": 7028,
      "▁영어": 7029,
      "▁내가본": 7030,
      "▁기대했": 7031,
      "▁넘치는": 7032,
      "▁세련": 7033,
      "▁이야기.": 7034,
      "사람들은": 7035,
      "▁보여줬": 7036,
      "다니\n": 7037,
      "구나.": 7038,
      "감독의": 7039,
      "▁국가": 7040,
      "▁괜찮은데": 7041,
      "▁무섭지도": 7042,
      "▁진부하고": 7043,
      "▁그녀의": 7044,
      "▁빅": 7045,
      "▁쏟": 7046,
      "▁탑": 7047,
      "니깐": 7048,
      "러워": 7049,
      "받고": 7050,
      "받았": 7051,
      "비가": 7052,
      "뻔한": 7053,
      "속의": 7054,
      "식의": 7055,
      "자들이": 7056,
      "▁이럴": 7057,
      "▁보려고": 7058,
      "▁어지": 7059,
      "▁감흥": 7060,
      "▁1,2": 7061,
      "▁대중": 7062,
      "▁스토리\n": 7063,
      "▁미쳤": 7064,
      "다는걸": 7065,
      "▁많았": 7066,
      "▁공짜": 7067,
      "▁재미없음\n": 7068,
      "▁참으로": 7069,
      "ᄒᄒᄒ\n": 7070,
      "▁작품.\n": 7071,
      "▁짜임": 7072,
      "▁점수가": 7073,
      "▁8점대": 7074,
      "▁올려": 7075,
      "▁담아": 7076,
      "▁앞으로도": 7077,
      "▁웃기지도": 7078,
      "▁변태": 7079,
      "좋아하는": 7080,
      "▁왠만하면": 7081,
      "그래서": 7082,
      "▁똑같은": 7083,
      "▁필름": 7084,
      "▁응원": 7085,
      "▁h": 7086,
      "▁쏘": 7087,
      "▁옥": 7088,
      "어여": 7089,
      "인들이": 7090,
      "포터": 7091,
      "▁이도": 7092,
      "▁스파이": 7093,
      ".......\n": 7094,
      "▁재밌던데": 7095,
      "▁말아먹": 7096,
      "▁볼거": 7097,
      "▁뭐라": 7098,
      "▁작품은": 7099,
      "▁할리": 7100,
      "▁10점을": 7101,
      "▁우리는": 7102,
      "▁이제서야": 7103,
      "▁그렇다": 7104,
      "▁보지마세요": 7105,
      "스타일": 7106,
      "▁류승": 7107,
      "~!!": 7108,
      "▁봉": 7109,
      "▁찰": 7110,
      "감\n": 7111,
      "느니": 7112,
      "려다가": 7113,
      "버그": 7114,
      "시청": 7115,
      "씬이": 7116,
      "얼굴": 7117,
      "요소": 7118,
      "임..": 7119,
      "자연": 7120,
      "▁아동": 7121,
      "▁내면": 7122,
      "▁감히": 7123,
      "▁대화": 7124,
      "▁개뿔": 7125,
      "▁스토리의": 7126,
      "▁액션영화": 7127,
      "▁좋았을": 7128,
      "연기력": 7129,
      "▁악마": 7130,
      "▁야동": 7131,
      "▁잊지": 7132,
      "▁수작\n": 7133,
      "▁행복한": 7134,
      "▁199": 7135,
      "▁풍경": 7136,
      "▁겨우": 7137,
      "▁DVD": 7138,
      "▁k": 7139,
      "▁y": 7140,
      "▁됬": 7141,
      "▁술": 7142,
      "구요.": 7143,
      "까\n": 7144,
      "뭔가": 7145,
      "소녀": 7146,
      "없어서": 7147,
      "▁영화보면서": 7148,
      "▁이민": 7149,
      "하고..": 7150,
      "▁주말": 7151,
      "▁제시": 7152,
      "▁자주": 7153,
      "▁못하겠": 7154,
      "▁남편": 7155,
      "▁지루함\n": 7156,
      "▁역겹": 7157,
      "▁싶을": 7158,
      "▁신비": 7159,
      "▁할머니": 7160,
      "▁죽이고": 7161,
      "▁하는지": 7162,
      "▁심하게": 7163,
      "000": 7164,
      "▁ᄒᄒᄒ\n": 7165,
      "▁정도의": 7166,
      "▁듯.": 7167,
      "▁욕망": 7168,
      "▁캐릭터가": 7169,
      "▁알바들": 7170,
      "▁블록": 7171,
      "▁말도안되는": 7172,
      "▁장르가": 7173,
      "▁빈약": 7174,
      "▁맹": 7175,
      "▁쩝": 7176,
      "기다": 7177,
      "더빙": 7178,
      "드시": 7179,
      "만은": 7180,
      "역사": 7181,
      "우가": 7182,
      "인것": 7183,
      "주연": 7184,
      "초반": 7185,
      "후반": 7186,
      "▁어두": 7187,
      "▁한다.\n": 7188,
      "▁무리": 7189,
      "▁무술": 7190,
      "▁오로": 7191,
      "ᅲᅲᅲ": 7192,
      "▁강력": 7193,
      "습니다..\n": 7194,
      "▁원작이": 7195,
      "▁몇년": 7196,
      "▁찍어": 7197,
      "▁긴장감이": 7198,
      "▁왜이래": 7199,
      "▁6점": 7200,
      "▁어린시절": 7201,
      "▁깨달": 7202,
      "????????": 7203,
      "▁중요한": 7204,
      "▁한심한": 7205,
      "ᄋ\n": 7206,
      "▁멈": 7207,
      "▁육": 7208,
      "도는": 7209,
      "라기": 7210,
      "루즈": 7211,
      "본다": 7212,
      "오늘": 7213,
      "원의": 7214,
      "제가": 7215,
      "했다고": 7216,
      "▁그당시": 7217,
      "▁보통": 7218,
      "▁다루": 7219,
      "▁최초": 7220,
      "▁인해": 7221,
      "▁지루하다\n": 7222,
      "▁배우를": 7223,
      "▁재미없게": 7224,
      "▁쓰레기영화\n": 7225,
      "▁싶다": 7226,
      "▁좋았다": 7227,
      "▁하나\n": 7228,
      "▁죽이는": 7229,
      "을까\n": 7230,
      "이었다.": 7231,
      "▁않는다.\n": 7232,
      "▁모르겠지만": 7233,
      "▁받을": 7234,
      "장면은": 7235,
      "▁느껴졌": 7236,
      "▁세상을": 7237,
      "▁답답한": 7238,
      "▁기다려": 7239,
      "▁감명깊": 7240,
      "▁깨닫게": 7241,
      "▁끈": 7242,
      "▁줘": 7243,
      "▁!!": 7244,
      "▁~\n": 7245,
      "관람": 7246,
      "된다\n": 7247,
      "드로": 7248,
      "리카": 7249,
      "신분": 7250,
      "애가": 7251,
      "야할": 7252,
      "얘기": 7253,
      "어떻게": 7254,
      "있었": 7255,
      "해졌": 7256,
      "▁아픈": 7257,
      "▁그건": 7258,
      "...그": 7259,
      "▁안볼": 7260,
      "▁기발": 7261,
      "ᄏᄏᄏᄏᄏ\n": 7262,
      "▁감동\n": 7263,
      "▁살고": 7264,
      "▁살려": 7265,
      "▁멋져": 7266,
      "▁위해서": 7267,
      "▁아까움\n": 7268,
      "▁설득": 7269,
      "보는내내": 7270,
      "▁수준의": 7271,
      "▁떠올": 7272,
      "▁노래도": 7273,
      "▁관객을": 7274,
      "▁개연성도": 7275,
      "▁훈훈한": 7276,
      "▁죽는줄": 7277,
      "▁영원히": 7278,
      "▁막판에": 7279,
      "▁됩": 7280,
      "▁뿌": 7281,
      "▁옷": 7282,
      "개인": 7283,
      "기지": 7284,
      "는가": 7285,
      "님들": 7286,
      "력을": 7287,
      "사이": 7288,
      "없다.\n": 7289,
      "점\n": 7290,
      "▁이소": 7291,
      "▁좋지만": 7292,
      "▁좋네요": 7293,
      "▁사진": 7294,
      "▁전율": 7295,
      "▁수고": 7296,
      "▁생각하면": 7297,
      "▁지루했": 7298,
      "▁작위": 7299,
      "▁분들은": 7300,
      "▁만든거": 7301,
      "▁보여주고": 7302,
      "▁방영": 7303,
      "만들었": 7304,
      "▁자신을": 7305,
      "▁자신이": 7306,
      "▁낚시": 7307,
      "▁문제가": 7308,
      "마지막에": 7309,
      ",.,.": 7310,
      "▁깎": 7311,
      "▁엿": 7312,
      "▁칭": 7313,
      "▁;;": 7314,
      "▁효과": 7315,
      "굿\n": 7316,
      "는대": 7317,
      "다큐": 7318,
      "리다": 7319,
      "모든": 7320,
      "바이": 7321,
      "뿐\n": 7322,
      "인과": 7323,
      "있어": 7324,
      "줌\n": 7325,
      "티브": 7326,
      "▁보다는": 7327,
      "▁하다": 7328,
      "▁있었는데": 7329,
      "▁지났": 7330,
      "▁만한": 7331,
      "하는건": 7332,
      "▁생각나서": 7333,
      "▁미스터": 7334,
      "▁장애": 7335,
      "▁우려": 7336,
      "▁바꾸": 7337,
      "OOO": 7338,
      "▁위로": 7339,
      "▁동성애": 7340,
      "▁단편": 7341,
      "▁몰입감": 7342,
      "▁않는다\n": 7343,
      "▁분위기가": 7344,
      "▁둘이": 7345,
      "건가?": 7346,
      "▁가치가": 7347,
      "▁못보겠": 7348,
      "▁시간가는줄": 7349,
      "ᅳ\n": 7350,
      "▁앉": 7351,
      "건만": 7352,
      "다음": 7353,
      "된다.\n": 7354,
      "드를": 7355,
      "유.": 7356,
      "있다.": 7357,
      "취향": 7358,
      "통령": 7359,
      "하라": 7360,
      "영화..\n": 7361,
      "▁하늘": 7362,
      "▁없는데": 7363,
      "▁있던": 7364,
      "▁대놓고": 7365,
      "▁모험": 7366,
      "▁오빠": 7367,
      "▁이런영화를": 7368,
      "▁인디": 7369,
      "▁것이다.\n": 7370,
      "▁해석": 7371,
      "▁결정": 7372,
      "▁잔뜩": 7373,
      "인가\n": 7374,
      "이었다.\n": 7375,
      "▁만들어도": 7376,
      "▁올리": 7377,
      "▁추천\n": 7378,
      "▁등등": 7379,
      "▁디테일": 7380,
      "▁테러": 7381,
      "en": 7382,
      "▁n": 7383,
      "겨서": 7384,
      "군요\n": 7385,
      "기에는": 7386,
      "놈들": 7387,
      "바로": 7388,
      "부를": 7389,
      "세포": 7390,
      "어린": 7391,
      "이들": 7392,
      "피스": 7393,
      "해라\n": 7394,
      "▁아예": 7395,
      "하고자": 7396,
      "▁대본": 7397,
      "▁연기잘": 7398,
      "▁여름": 7399,
      "▁제외": 7400,
      "▁유지": 7401,
      "▁비하면": 7402,
      "▁드라마.\n": 7403,
      "▁21": 7404,
      "▁조니": 7405,
      "▁만들면": 7406,
      "▁도망": 7407,
      "배우들이": 7408,
      "▁와..": 7409,
      "▁현실성": 7410,
      "더라.": 7411,
      "▁듯.\n": 7412,
      "▁억지스러운": 7413,
      "▁영화였다.\n": 7414,
      "▁달리": 7415,
      "▁야구": 7416,
      "▁아쉬움": 7417,
      "만큼은": 7418,
      "▁의미가": 7419,
      "▁추억이": 7420,
      "▁비디오로": 7421,
      "▁M창": 7422,
      "▁안타까운": 7423,
      "▁겪": 7424,
      "▁;;\n": 7425,
      "겠다는": 7426,
      "내요": 7427,
      "냐??": 7428,
      "대단": 7429,
      "미네": 7430,
      "번은": 7431,
      "복을": 7432,
      "볼만": 7433,
      "신을": 7434,
      "씨는": 7435,
      "아..": 7436,
      "장을": 7437,
      "절대": 7438,
      "형래": 7439,
      "▁영화인듯": 7440,
      "▁배역": 7441,
      "▁비밀": 7442,
      "▁다시는": 7443,
      "▁상관": 7444,
      "▁연출과": 7445,
      "▁돈을": 7446,
      "▁심오": 7447,
      "▁잼없": 7448,
      "▁높게": 7449,
      "▁노래가": 7450,
      "▁여러가지": 7451,
      "▁색다른": 7452,
      "▁늘어": 7453,
      "▁소중한": 7454,
      "▁짜임새": 7455,
      "▁L": 7456,
      "▁P": 7457,
      "▁낙": 7458,
      "▁묵": 7459,
      "▁왤": 7460,
      "긴장": 7461,
      "냐.": 7462,
      "다!!!\n": 7463,
      "된다": 7464,
      "때문": 7465,
      "레멘": 7466,
      "모두": 7467,
      "무지": 7468,
      "빨리": 7469,
      "세기": 7470,
      "연이": 7471,
      "있는데": 7472,
      "있어서": 7473,
      "자.\n": 7474,
      "장한": 7475,
      "종일": 7476,
      "▁다이": 7477,
      "▁정말이지": 7478,
      "하는것": 7479,
      "▁남은": 7480,
      "▁뭐하나": 7481,
      "▁조작": 7482,
      "▁애들은": 7483,
      "▁거기에": 7484,
      "▁기대이상": 7485,
      "▁좋았지만": 7486,
      "▁하나같이": 7487,
      "▁할말이": 7488,
      "▁결말을": 7489,
      "▁반전은": 7490,
      "▁매력을": 7491,
      "▁속에서": 7492,
      "▁가슴을": 7493,
      "스러움": 7494,
      "▁극장가서": 7495,
      "▁아름다움": 7496,
      "▁새끼": 7497,
      "▁여운을": 7498,
      "생각없이": 7499,
      "▁그저그런": 7500,
      "▁귀여워": 7501,
      "▁양심": 7502,
      "▁지나도": 7503,
      "▁sf": 7504,
      "▁킬링타임용으로": 7505,
      "▁이래서": 7506,
      "▁/": 7507,
      "▁씹": 7508,
      "간다": 7509,
      "나니": 7510,
      "나봐": 7511,
      "년의": 7512,
      "능력": 7513,
      "데이": 7514,
      "로웠": 7515,
      "린다": 7516,
      "사건": 7517,
      "생활": 7518,
      "아는": 7519,
      "아쉬": 7520,
      "알고": 7521,
      "어디": 7522,
      "정한": 7523,
      "허접": 7524,
      "영화다": 7525,
      "▁영화화": 7526,
      "▁정확": 7527,
      "▁최민": 7528,
      "▁한명": 7529,
      "▁안쓰": 7530,
      "▁스페": 7531,
      "▁기준": 7532,
      "▁소소한": 7533,
      "▁부실": 7534,
      "▁성격": 7535,
      "▁또다른": 7536,
      "▁이야기는": 7537,
      "▁잔혹": 7538,
      "▁와...": 7539,
      "▁주인공은": 7540,
      "▁남자주인공": 7541,
      "▁선동": 7542,
      "▁집에": 7543,
      "▁버렸": 7544,
      "스토리도": 7545,
      "건지..": 7546,
      "▁데이": 7547,
      "▁둘째": 7548,
      "레이션": 7549,
      "▁굳\n": 7550,
      "▁최근에": 7551,
      "▁감정이입": 7552,
      "▁연예인": 7553,
      "솔직히": 7554,
      "▁블록버스터": 7555,
      "▁택": 7556,
      "▁펼": 7557,
      "과서": 7558,
      "그만": 7559,
      "던지": 7560,
      "듬\n": 7561,
      "림.": 7562,
      "뭥미": 7563,
      "보니까": 7564,
      "았다\n": 7565,
      "었음\n": 7566,
      "▁어쩜": 7567,
      "▁사고": 7568,
      "▁연극": 7569,
      "네요^^\n": 7570,
      "▁마세요": 7571,
      "▁잘어울": 7572,
      "▁최고로": 7573,
      "ᄏᄏᄏᄏᄏ": 7574,
      "▁제임스": 7575,
      "▁생각한다.": 7576,
      "▁일깨": 7577,
      "▁부끄": 7578,
      "▁결코": 7579,
      "연기는": 7580,
      "하다...\n": 7581,
      "▁울컥": 7582,
      "▁충실": 7583,
      "▁많은데": 7584,
      "▁5분": 7585,
      "▁ᄏᄏᄏᄏᄏ": 7586,
      "▁아쉽다\n": 7587,
      "▁막장드라마": 7588,
      "▁무엇인지": 7589,
      "▁길게": 7590,
      "▁소름이": 7591,
      "▁오래된": 7592,
      "▁먼가": 7593,
      "▁나쁘지": 7594,
      "▁스트레스": 7595,
      "it": 7596,
      "▁됨": 7597,
      "님은": 7598,
      "들..": 7599,
      "스크": 7600,
      "았는데": 7601,
      "오래": 7602,
      "이영화": 7603,
      "제로": 7604,
      "▁아래": 7605,
      "▁정체": 7606,
      "▁감각": 7607,
      "▁무한": 7608,
      "▁스토리.": 7609,
      "▁재미있다": 7610,
      "▁10대": 7611,
      "▁사랑스럽": 7612,
      "▁10점이": 7613,
      "▁이해안": 7614,
      "▁잼나게": 7615,
      "▁적당히": 7616,
      "▁열정": 7617,
      "▁데리고": 7618,
      "▁느낄수": 7619,
      "▁참신한": 7620,
      "파이어": 7621,
      "▁본방사수": 7622,
      "레멘타": 7623,
      "vd": 7624,
      "▁=": 7625,
      "▁낭": 7626,
      "▁떨": 7627,
      "구성": 7628,
      "나와서": 7629,
      "니\n": 7630,
      "니퍼": 7631,
      "되면": 7632,
      "르게": 7633,
      "리로": 7634,
      "매력": 7635,
      "이쁘": 7636,
      "인도": 7637,
      "조금": 7638,
      "후의": 7639,
      "▁그만큼": 7640,
      "...정말": 7641,
      "▁재밌네": 7642,
      "▁봤다.\n": 7643,
      "▁생활": 7644,
      "▁주기도": 7645,
      "▁못봐": 7646,
      "▁지루하다.": 7647,
      "▁한국의": 7648,
      "▁느낌의": 7649,
      "▁명작을": 7650,
      "▁잼잇": 7651,
      "▁구성이": 7652,
      "▁준다.\n": 7653,
      "▁야한": 7654,
      "▁집중해서": 7655,
      "▁탄생": 7656,
      "▁시즌1": 7657,
      "▁틀어": 7658,
      "▁크리스마스": 7659,
      "▁식상한": 7660,
      "▁다운받아": 7661,
      "아버지": 7662,
      "▁넌": 7663,
      "▁샘": 7664,
      "▁헬": 7665,
      "▁홀": 7666,
      "▁놓고": 7667,
      "강호": 7668,
      "개그": 7669,
      "거라": 7670,
      "겟다": 7671,
      "리면": 7672,
      "묘한": 7673,
      "빼고": 7674,
      "서는": 7675,
      "아름": 7676,
      "였다": 7677,
      "준다": 7678,
      "짱짱": 7679,
      "추기": 7680,
      "치가": 7681,
      "커플": 7682,
      "팩트": 7683,
      "▁아내": 7684,
      "▁그자체": 7685,
      "▁시키": 7686,
      "▁안습": 7687,
      "▁재밌을": 7688,
      "▁수많은": 7689,
      "▁생각했는데": 7690,
      "들이나": 7691,
      "▁본게": 7692,
      "▁봐줄": 7693,
      "▁좋아요\n": 7694,
      "▁바랍": 7695,
      "▁넘게": 7696,
      "▁한국인": 7697,
      "▁했으면": 7698,
      "▁하는게": 7699,
      "▁망한": 7700,
      "▁아무런": 7701,
      "▁낮게": 7702,
      "▁언니": 7703,
      "▁70년대": 7704,
      "▁손에": 7705,
      "▁아쉽다.\n": 7706,
      "▁살아가는": 7707,
      "▁무서워": 7708,
      "▁빼면": 7709,
      "부분이": 7710,
      "▁책을": 7711,
      "▁몰입도가": 7712,
      "▁돌아가": 7713,
      "전개가": 7714,
      "미네이터": 7715,
      "▁N": 7716,
      "▁껐": 7717,
      "▁를": 7718,
      "▁몬": 7719,
      "▁웰": 7720,
      "▁줍": 7721,
      "▁첩": 7722,
      "기전에": 7723,
      "동차": 7724,
      "린다.": 7725,
      "부가": 7726,
      "빠진": 7727,
      "신의": 7728,
      "였음": 7729,
      "점도": 7730,
      "티즌": 7731,
      "퓨터": 7732,
      "▁영화입니다\n": 7733,
      "▁이것이": 7734,
      "▁좋음": 7735,
      "▁1위": 7736,
      "▁재밌다.\n": 7737,
      "▁마라": 7738,
      "▁잘하고": 7739,
      "▁주기": 7740,
      "▁않다.": 7741,
      "▁못했": 7742,
      "▁볼때": 7743,
      "▁조절": 7744,
      "▁조카": 7745,
      "▁명화": 7746,
      "▁웃고": 7747,
      "▁봤는데도": 7748,
      "▁살면서": 7749,
      "▁이상하게": 7750,
      "▁보기에는": 7751,
      "▁영상이": 7752,
      "▁집착": 7753,
      "▁연기력은": 7754,
      "▁ᄏᄏᄏᄏᄏ\n": 7755,
      "▁질리지": 7756,
      "▁담배": 7757,
      "▁시리즈중": 7758,
      "▁없었다.\n": 7759,
      "▁부분도": 7760,
      "▁b급": 7761,
      "▁읽어": 7762,
      "▁ᅲ.": 7763,
      "▁실제로": 7764,
      "▁여주가": 7765,
      "▁볼수있는": 7766,
      "▁핵노잼": 7767,
      "▁다양한": 7768,
      "▁낯": 7769,
      "▁쥬": 7770,
      "▁휘": 7771,
      "국영": 7772,
      "니?": 7773,
      "도대체": 7774,
      "라의": 7775,
      "만다": 7776,
      "셈\n": 7777,
      "스\n": 7778,
      "싸움": 7779,
      "윤발": 7780,
      "잡고": 7781,
      "영화임": 7782,
      "▁영화이": 7783,
      "▁아~": 7784,
      "▁다를": 7785,
      "▁가지": 7786,
      "▁기자": 7787,
      "▁생긴": 7788,
      "어요!": 7789,
      "▁자식": 7790,
      "▁감동은": 7791,
      "▁영향": 7792,
      "▁거부": 7793,
      "▁살린": 7794,
      "▁마지막까지": 7795,
      "▁로버트": 7796,
      "이다...\n": 7797,
      "▁여자의": 7798,
      "▁꼭보": 7799,
      "▁망친": 7800,
      "▁짜증만": 7801,
      "▁있었다.": 7802,
      "▁자체는": 7803,
      "▁시리즈는": 7804,
      "▁앞뒤": 7805,
      "▁보세요.": 7806,
      "▁꽤나": 7807,
      "▁주제를": 7808,
      "▁약간의": 7809,
      "▁엉성하고": 7810,
      "▁2편은": 7811,
      "▁교훈을": 7812,
      "▁소설을": 7813,
      "년도에": 7814,
      "▁놀라운": 7815,
      "▁플롯": 7816,
      "지도않고": 7817,
      "▁특수효과": 7818,
      "▁캬": 7819,
      "▁튀": 7820,
      "나,": 7821,
      "로드": 7822,
      "마이": 7823,
      "문화": 7824,
      "분한": 7825,
      "속으로": 7826,
      "아빠": 7827,
      "어리": 7828,
      "어..": 7829,
      "있다\n": 7830,
      "자들의": 7831,
      "좋다": 7832,
      "죽는": 7833,
      "치곤": 7834,
      "▁없네": 7835,
      "▁사투": 7836,
      "▁있구나": 7837,
      "▁안에": 7838,
      "▁최고!": 7839,
      "▁않아서": 7840,
      "▁생각으로": 7841,
      "▁유아": 7842,
      "▁쓰는": 7843,
      "▁많고": 7844,
      "▁애기": 7845,
      "인데,": 7846,
      "인데..": 7847,
      "▁위험": 7848,
      "▁심지어": 7849,
      "▁장면도": 7850,
      "▁여자친구": 7851,
      "▁서부": 7852,
      "▁40": 7853,
      "▁교과서": 7854,
      "▁만들었는지": 7855,
      "▁친구가": 7856,
      "▁답답하고": 7857,
      "▁포스터가": 7858,
      "▁0점이": 7859,
      "▁be": 7860,
      "▁갖고": 7861,
      "▁짧은": 7862,
      "▁특별한": 7863,
      "▁거짓말": 7864,
      "▁끔찍": 7865,
      "▁W": 7866,
      "▁X": 7867,
      "개는": 7868,
      "관객": 7869,
      "도를": 7870,
      "래곤": 7871,
      "뢰매": 7872,
      "리며": 7873,
      "버려": 7874,
      "봤어요": 7875,
      "스포": 7876,
      "시오": 7877,
      "어용": 7878,
      "여행": 7879,
      "정의": 7880,
      "치노": 7881,
      "트의": 7882,
      "하길": 7883,
      "할까": 7884,
      "혼자": 7885,
      "▁영화와": 7886,
      "▁영화인지": 7887,
      "▁하다가": 7888,
      "▁좋음\n": 7889,
      "으로는": 7890,
      "▁무료": 7891,
      "▁배우들은": 7892,
      "▁반드시": 7893,
      "▁매일": 7894,
      "▁처음에는": 7895,
      "▁죽인": 7896,
      "▁나오지": 7897,
      "▁짜집": 7898,
      "▁원작에": 7899,
      "▁있었지만": 7900,
      "▁한번도": 7901,
      "▁치고": 7902,
      "▁20분": 7903,
      "▁역사를": 7904,
      "▁어느정도": 7905,
      "▁첫사랑": 7906,
      "나요?\n": 7907,
      "▁혹은": 7908,
      "▁어울리는": 7909,
      "▁시청률이": 7910,
      "▁한편의": 7911,
      "▁묻어": 7912,
      "▁에피소드": 7913,
      "▁가벼운": 7914,
      "▁일깨워": 7915,
      "(웃음": 7916,
      "▁K": 7917,
      "▁객": 7918,
      "▁벤": 7919,
      "▁....\n": 7920,
      "거든": 7921,
      "나..\n": 7922,
      "니다..": 7923,
      "덕화": 7924,
      "박한": 7925,
      "선을": 7926,
      "스키": 7927,
      "심으로": 7928,
      "아나": 7929,
      "작.": 7930,
      "영화!\n": 7931,
      "▁그야말로": 7932,
      "▁정작": 7933,
      "▁한숨": 7934,
      "▁안가": 7935,
      "▁가르": 7936,
      "▁주윤발": 7937,
      "▁평점조": 7938,
      "▁비행": 7939,
      "▁감독을": 7940,
      "▁때려": 7941,
      "▁멋졌": 7942,
      "▁여자주인공": 7943,
      "▁소재도": 7944,
      "▁짜증나서": 7945,
      "스러워": 7946,
      "▁호구": 7947,
      "감독님": 7948,
      "▁손색": 7949,
      "최고\n": 7950,
      "▁오랜만": 7951,
      "▁출연한": 7952,
      "▁작가님": 7953,
      "아까움": 7954,
      "▁아름답게": 7955,
      "▁강추\n": 7956,
      "▁보지말": 7957,
      "▁당신은": 7958,
      "▁예쁘고": 7959,
      "▁듣고": 7960,
      "▁말하고자": 7961,
      "▁태어나서": 7962,
      "▁스티븐": 7963,
      "▁살다살다": 7964,
      "2점": 7965,
      "~^^\n": 7966,
      "▁틈": 7967,
      "▁혐": 7968,
      "▁합니다.": 7969,
      "기까지": 7970,
      "누나": 7971,
      "봤지만": 7972,
      "상수": 7973,
      "시면": 7974,
      "싶은": 7975,
      "악한": 7976,
      "았다.\n": 7977,
      "애들이": 7978,
      "여주": 7979,
      "였다\n": 7980,
      "이어": 7981,
      "일을": 7982,
      "장르": 7983,
      "지말고": 7984,
      "프닝": 7985,
      "한듯": 7986,
      "함,": 7987,
      "후회": 7988,
      "▁다크": 7989,
      "▁내게": 7990,
      "네요~\n": 7991,
      "▁드라마..": 7992,
      "▁저급": 7993,
      "▁처음에": 7994,
      "인데도": 7995,
      "!!!!!\n": 7996,
      "▁당황": 7997,
      "▁당연히": 7998,
      "▁이상의": 7999
    },
    "merges": [
      [
        ".",
        "."
      ],
      [
        "영",
        "화"
      ],
      [
        "▁",
        "영화"
      ],
      [
        "▁",
        "이"
      ],
      [
        ".",
        "\n"
      ],
      [
        "▁",
        "아"
      ],
      [
        "ᄏ",
        "ᄏ"
      ],
      [
        "▁",
        "그"
      ],
      [
        "▁",
        "보"
      ],
      [
        "▁",
        "재"
      ],
      [
        "다",
        "."
      ],
      [
        "..",
        "."
      ],
      [
        "!",
        "!"
      ],
      [
        "다",
        "\n"
      ],
      [
        "다",
        ".\n"
      ],
      [
        "▁",
        "정"
      ],
      [
        "▁",
        "나"
      ],
      [
        "는",
        "데"
      ],
      [
        "너",
        "무"
      ],
      [
        "▁",
        "다"
      ],
      [
        "▁",
        "하"
      ],
      [
        "▁",
        "좋"
      ],
      [
        "..",
        "\n"
      ],
      [
        "▁",
        "없"
      ],
      [
        "▁",
        "어"
      ],
      [
        "▁",
        "너무"
      ],
      [
        "▁",
        "사"
      ],
      [
        "▁",
        "내"
      ],
      [
        "▁",
        "감"
      ],
      [
        "▁",
        "진"
      ],
      [
        "▁재",
        "미"
      ],
      [
        "▁",
        "연"
      ],
      [
        "▁",
        "있"
      ],
      [
        "▁",
        "지"
      ],
      [
        "으",
        "로"
      ],
      [
        "지",
        "만"
      ],
      [
        "하",
        "고"
      ],
      [
        "▁",
        "최"
      ],
      [
        "▁",
        "시"
      ],
      [
        "▁",
        "한"
      ],
      [
        "네",
        "요"
      ],
      [
        "▁",
        "안"
      ],
      [
        "▁",
        "1"
      ],
      [
        "▁정",
        "말"
      ],
      [
        "▁",
        "스"
      ],
      [
        "▁",
        "만"
      ],
      [
        "..",
        ".."
      ],
      [
        "▁",
        "가"
      ],
      [
        "..",
        ".\n"
      ],
      [
        "에",
        "서"
      ],
      [
        "▁재",
        "밌"
      ],
      [
        "▁",
        "기"
      ],
      [
        "▁",
        "봤"
      ],
      [
        "▁",
        "평"
      ],
      [
        "▁",
        "대"
      ],
      [
        "▁",
        "전"
      ],
      [
        "▁진",
        "짜"
      ],
      [
        "▁연",
        "기"
      ],
      [
        "▁",
        "마"
      ],
      [
        "하",
        "는"
      ],
      [
        "▁",
        "무"
      ],
      [
        "▁",
        "모"
      ],
      [
        "▁",
        "수"
      ],
      [
        "▁",
        "여"
      ],
      [
        "!",
        "\n"
      ],
      [
        "▁",
        "생"
      ],
      [
        "▁",
        "잘"
      ],
      [
        "어",
        "요"
      ],
      [
        "▁",
        "주"
      ],
      [
        "▁최",
        "고"
      ],
      [
        "▁",
        "않"
      ],
      [
        "▁",
        "더"
      ],
      [
        "습",
        "니"
      ],
      [
        "▁평",
        "점"
      ],
      [
        "드",
        "라"
      ],
      [
        "ᄏᄏ",
        "ᄏᄏ"
      ],
      [
        "토",
        "리"
      ],
      [
        "▁",
        "오"
      ],
      [
        "▁",
        "제"
      ],
      [
        "▁",
        "개"
      ],
      [
        "▁이",
        "런"
      ],
      [
        "▁",
        "인"
      ],
      [
        "▁",
        "말"
      ],
      [
        "▁",
        "배"
      ],
      [
        "드라",
        "마"
      ],
      [
        "~",
        "~"
      ],
      [
        "▁생",
        "각"
      ],
      [
        "?",
        "\n"
      ],
      [
        "▁",
        "왜"
      ],
      [
        "들",
        "이"
      ],
      [
        "▁",
        "자"
      ],
      [
        "▁",
        "같"
      ],
      [
        "▁",
        "못"
      ],
      [
        "▁스",
        "토리"
      ],
      [
        "▁영화",
        "\n"
      ],
      [
        "▁",
        "소"
      ],
      [
        "▁",
        "남"
      ],
      [
        "▁",
        "알"
      ],
      [
        "▁",
        "본"
      ],
      [
        "까",
        "지"
      ],
      [
        "▁",
        "느"
      ],
      [
        "▁",
        "유"
      ],
      [
        "▁아",
        "니"
      ],
      [
        "ᅲ",
        "ᅲ"
      ],
      [
        "▁",
        "미"
      ],
      [
        "▁보",
        "고"
      ],
      [
        "▁",
        "볼"
      ],
      [
        "▁감",
        "동"
      ],
      [
        "하",
        "게"
      ],
      [
        "▁",
        "일"
      ],
      [
        "▁",
        "별"
      ],
      [
        "이",
        "라"
      ],
      [
        "▁",
        "쓰"
      ],
      [
        "▁",
        "것"
      ],
      [
        "▁",
        "비"
      ],
      [
        "▁",
        "장"
      ],
      [
        "▁지",
        "루"
      ],
      [
        "다",
        "는"
      ],
      [
        "▁",
        "우"
      ],
      [
        "▁",
        "드라마"
      ],
      [
        ";",
        ";"
      ],
      [
        "▁",
        "많"
      ],
      [
        "▁",
        "작"
      ],
      [
        "▁",
        "ᄏᄏ"
      ],
      [
        "▁",
        "중"
      ],
      [
        "▁재미",
        "있"
      ],
      [
        "레",
        "기"
      ],
      [
        "▁그",
        "냥"
      ],
      [
        "▁",
        "부"
      ],
      [
        "▁배",
        "우"
      ],
      [
        "▁",
        "뭐"
      ],
      [
        "보",
        "다"
      ],
      [
        "▁",
        "공"
      ],
      [
        "▁사",
        "람"
      ],
      [
        "▁",
        "2"
      ],
      [
        "해",
        "서"
      ],
      [
        "면",
        "서"
      ],
      [
        "▁",
        "조"
      ],
      [
        "▁내",
        "용"
      ],
      [
        "▁",
        "역"
      ],
      [
        "▁1",
        "0"
      ],
      [
        "▁",
        "완"
      ],
      [
        "▁만",
        "들"
      ],
      [
        "▁감",
        "독"
      ],
      [
        "▁",
        "끝"
      ],
      [
        "▁",
        "저"
      ],
      [
        "▁",
        "애"
      ],
      [
        "다",
        ".."
      ],
      [
        "▁",
        "좀"
      ],
      [
        "적",
        "인"
      ],
      [
        "▁재미",
        "없"
      ],
      [
        "렇",
        "게"
      ],
      [
        "리",
        "고"
      ],
      [
        "▁",
        "고"
      ],
      [
        "▁쓰",
        "레기"
      ],
      [
        "▁",
        "해"
      ],
      [
        "▁",
        "명"
      ],
      [
        "▁사",
        "랑"
      ],
      [
        "▁",
        "참"
      ],
      [
        "▁",
        "되"
      ],
      [
        "▁",
        "반"
      ],
      [
        "▁보",
        "는"
      ],
      [
        "ᄏ",
        "\n"
      ],
      [
        "?",
        "?"
      ],
      [
        "▁영화",
        "를"
      ],
      [
        "!!",
        "\n"
      ],
      [
        "▁",
        "웃"
      ],
      [
        ",",
        ","
      ],
      [
        "▁",
        "영"
      ],
      [
        "^",
        "^"
      ],
      [
        "▁",
        "예"
      ],
      [
        "보",
        "고"
      ],
      [
        "▁",
        "결"
      ],
      [
        "▁",
        "봐"
      ],
      [
        "ᄒ",
        "ᄒ"
      ],
      [
        "▁다",
        "시"
      ],
      [
        "지",
        "막"
      ],
      [
        "액",
        "션"
      ],
      [
        "▁좋",
        "은"
      ],
      [
        "▁좋",
        "아"
      ],
      [
        "입",
        "니"
      ],
      [
        "▁시",
        "간"
      ],
      [
        "라",
        "고"
      ],
      [
        "▁",
        "거"
      ],
      [
        "▁",
        "매"
      ],
      [
        "▁",
        "싶"
      ],
      [
        "▁",
        "상"
      ],
      [
        "~",
        "\n"
      ],
      [
        "▁",
        "신"
      ],
      [
        "다",
        "고"
      ],
      [
        "으",
        "면"
      ],
      [
        "▁",
        "눈"
      ],
      [
        "▁",
        "처"
      ],
      [
        "▁",
        "실"
      ],
      [
        "▁",
        "바"
      ],
      [
        "▁이",
        "거"
      ],
      [
        "음",
        "\n"
      ],
      [
        "다",
        "가"
      ],
      [
        "들",
        "의"
      ],
      [
        "▁",
        "노"
      ],
      [
        "▁영화",
        "가"
      ],
      [
        "▁",
        "불"
      ],
      [
        "▁작",
        "품"
      ],
      [
        "▁영화",
        "는"
      ],
      [
        "적",
        "이"
      ],
      [
        "지",
        "는"
      ],
      [
        "O",
        "O"
      ],
      [
        "▁",
        "원"
      ],
      [
        "▁봤",
        "는데"
      ],
      [
        "▁없",
        "는"
      ],
      [
        "▁",
        "살"
      ],
      [
        "▁영화",
        "."
      ],
      [
        "하",
        "지"
      ],
      [
        "▁이",
        "건"
      ],
      [
        "인",
        "공"
      ],
      [
        "▁최고",
        "의"
      ],
      [
        "▁마",
        "지막"
      ],
      [
        "▁",
        "난"
      ],
      [
        "▁내",
        "가"
      ],
      [
        "▁",
        "3"
      ],
      [
        "▁기",
        "대"
      ],
      [
        "▁완",
        "전"
      ],
      [
        "▁",
        "액션"
      ],
      [
        "▁좋",
        "았"
      ],
      [
        "▁있",
        "는"
      ],
      [
        "▁하",
        "나"
      ],
      [
        "▁",
        "넘"
      ],
      [
        "▁",
        "할"
      ],
      [
        "▁",
        "의"
      ],
      [
        "▁",
        "코"
      ],
      [
        "▁",
        "성"
      ],
      [
        "야",
        "기"
      ],
      [
        "▁",
        "도"
      ],
      [
        "어",
        "서"
      ],
      [
        "▁처",
        "음"
      ],
      [
        "▁",
        "때"
      ],
      [
        "▁",
        "죽"
      ],
      [
        "▁",
        "몰"
      ],
      [
        "▁한",
        "국"
      ],
      [
        "없",
        "는"
      ],
      [
        "세",
        "요"
      ],
      [
        "▁",
        "추"
      ],
      [
        "▁지",
        "금"
      ],
      [
        "같",
        "은"
      ],
      [
        "▁",
        "후"
      ],
      [
        "인",
        "데"
      ],
      [
        "▁",
        "했"
      ],
      [
        "▁나",
        "오"
      ],
      [
        "▁",
        "현"
      ],
      [
        "들",
        "은"
      ],
      [
        "▁",
        "괜"
      ],
      [
        "▁하",
        "는"
      ],
      [
        "▁최",
        "악"
      ],
      [
        "▁",
        "김"
      ],
      [
        "합",
        "니"
      ],
      [
        "▁이",
        "렇게"
      ],
      [
        "▁이",
        "게"
      ],
      [
        "에",
        "게"
      ],
      [
        "▁모",
        "르"
      ],
      [
        "▁",
        "또"
      ],
      [
        "▁10",
        "점"
      ],
      [
        "▁아",
        "깝"
      ],
      [
        "▁",
        "극"
      ],
      [
        "ᅳ",
        "ᅳ"
      ],
      [
        "대",
        "로"
      ],
      [
        "라",
        "는"
      ],
      [
        "▁별",
        "로"
      ],
      [
        "적",
        "으로"
      ],
      [
        "▁",
        "세"
      ],
      [
        "이",
        "나"
      ],
      [
        "▁",
        "허"
      ],
      [
        "▁1",
        "점"
      ],
      [
        "▁",
        "멋"
      ],
      [
        "▁이",
        "해"
      ],
      [
        "부",
        "터"
      ],
      [
        "▁",
        "강"
      ],
      [
        "▁",
        "관"
      ],
      [
        "▁",
        "위"
      ],
      [
        "▁",
        "초"
      ],
      [
        "연",
        "기"
      ],
      [
        "▁연",
        "출"
      ],
      [
        "▁",
        "분"
      ],
      [
        "있",
        "는"
      ],
      [
        "▁",
        "돈"
      ],
      [
        "하",
        "다"
      ],
      [
        "▁느",
        "낌"
      ],
      [
        "▁",
        "짜"
      ],
      [
        "▁명",
        "작"
      ],
      [
        "▁",
        "두"
      ],
      [
        "▁",
        "동"
      ],
      [
        "▁역",
        "시"
      ],
      [
        "▁",
        "화"
      ],
      [
        "네",
        "\n"
      ],
      [
        "▁",
        "심"
      ],
      [
        "▁",
        "로"
      ],
      [
        "▁",
        "따"
      ],
      [
        "▁",
        "잼"
      ],
      [
        "▁",
        "구"
      ],
      [
        "▁이",
        "야기"
      ],
      [
        "▁평점",
        "이"
      ],
      [
        "!!",
        "!!"
      ],
      [
        "..",
        "..\n"
      ],
      [
        "▁기",
        "억"
      ],
      [
        "▁",
        "뭔"
      ],
      [
        "네요",
        "\n"
      ],
      [
        "▁재밌",
        "게"
      ],
      [
        "되",
        "는"
      ],
      [
        "▁우",
        "리"
      ],
      [
        "^^",
        "\n"
      ],
      [
        "영화",
        "\n"
      ],
      [
        "▁",
        "음"
      ],
      [
        "이",
        "다"
      ],
      [
        "▁",
        "캐"
      ],
      [
        "습니",
        "다"
      ],
      [
        "▁많",
        "이"
      ],
      [
        "▁괜",
        "찮"
      ],
      [
        "▁",
        "당"
      ],
      [
        "정",
        "도"
      ],
      [
        "▁아",
        "이"
      ],
      [
        "배",
        "우"
      ],
      [
        "▁",
        "들"
      ],
      [
        "▁장",
        "면"
      ],
      [
        "▁그",
        "래"
      ],
      [
        "주",
        "는"
      ],
      [
        "▁이",
        "영화"
      ],
      [
        "지",
        "도"
      ],
      [
        "고",
        ","
      ],
      [
        "습니",
        "다."
      ],
      [
        "▁여",
        "자"
      ],
      [
        "▁그",
        "리고"
      ],
      [
        "▁",
        "잔"
      ],
      [
        "▁",
        "에"
      ],
      [
        "다",
        "면"
      ],
      [
        "▁아",
        "름"
      ],
      [
        "문",
        "에"
      ],
      [
        "▁만",
        "든"
      ],
      [
        "▁",
        "엄"
      ],
      [
        "▁",
        "요"
      ],
      [
        "▁",
        "발"
      ],
      [
        "네요",
        "."
      ],
      [
        "▁그",
        "런"
      ],
      [
        "\"",
        "\""
      ],
      [
        "▁아",
        "까"
      ],
      [
        "▁",
        "막"
      ],
      [
        "▁",
        "와"
      ],
      [
        "리",
        "는"
      ],
      [
        "▁",
        "꼭"
      ],
      [
        "재",
        "미"
      ],
      [
        "▁주",
        "인공"
      ],
      [
        "▁",
        "포"
      ],
      [
        "요",
        "\n"
      ],
      [
        "사",
        "람"
      ],
      [
        "▁보",
        "여"
      ],
      [
        "▁",
        "차"
      ],
      [
        "▁영화",
        ".\n"
      ],
      [
        "▁",
        "귀"
      ],
      [
        "▁마",
        "음"
      ],
      [
        "▁",
        "특"
      ],
      [
        "▁",
        "단"
      ],
      [
        "▁같",
        "은"
      ],
      [
        "다",
        "..\n"
      ],
      [
        "▁",
        "슬"
      ],
      [
        "만",
        "에"
      ],
      [
        "▁아",
        "닌"
      ],
      [
        "드",
        "는"
      ],
      [
        "필",
        "요"
      ],
      [
        "▁",
        "설"
      ],
      [
        "것",
        "도"
      ],
      [
        "▁공",
        "포"
      ],
      [
        "▁유",
        "치"
      ],
      [
        "▁",
        "울"
      ],
      [
        "▁",
        "졸"
      ],
      [
        "▁",
        "존"
      ],
      [
        "진",
        "짜"
      ],
      [
        "다",
        "..."
      ],
      [
        "▁일",
        "본"
      ],
      [
        "▁",
        "줄"
      ],
      [
        "▁",
        "표"
      ],
      [
        "을",
        "까"
      ],
      [
        "ᄏᄏᄏᄏ",
        "ᄏᄏᄏᄏ"
      ],
      [
        "▁",
        "박"
      ],
      [
        "아",
        "서"
      ],
      [
        "▁무",
        "슨"
      ],
      [
        "하",
        "나"
      ],
      [
        "....",
        "...."
      ],
      [
        "▁",
        "망"
      ],
      [
        "가",
        "는"
      ],
      [
        "없",
        "이"
      ],
      [
        "0",
        "0"
      ],
      [
        "▁아",
        "무"
      ],
      [
        "었",
        "는데"
      ],
      [
        "▁",
        "점"
      ],
      [
        "▁볼",
        "만"
      ],
      [
        "▁현",
        "실"
      ],
      [
        "▁결",
        "말"
      ],
      [
        "▁",
        "서"
      ],
      [
        "▁",
        "힘"
      ],
      [
        "▁소",
        "재"
      ],
      [
        "▁가",
        "장"
      ],
      [
        "하",
        "기"
      ],
      [
        "▁",
        "ᅲᅲ"
      ],
      [
        "다",
        "니"
      ],
      [
        "▁몰",
        "입"
      ],
      [
        "▁다",
        "른"
      ],
      [
        "▁",
        "누"
      ],
      [
        "인",
        "가"
      ],
      [
        "시",
        "간"
      ],
      [
        "▁이",
        "상"
      ],
      [
        "▁",
        "흥"
      ],
      [
        "▁보",
        "면"
      ],
      [
        "▁",
        "짱"
      ],
      [
        "▁보",
        "기"
      ],
      [
        "▁",
        "과"
      ],
      [
        "!!",
        "!\n"
      ],
      [
        "나",
        "는"
      ],
      [
        "▁",
        "OO"
      ],
      [
        "▁반",
        "전"
      ],
      [
        "▁매",
        "력"
      ],
      [
        "▁",
        "속"
      ],
      [
        "하",
        "면"
      ],
      [
        "▁말",
        "이"
      ],
      [
        "음",
        "."
      ],
      [
        "▁",
        "빠"
      ],
      [
        "보",
        "는"
      ],
      [
        "▁남",
        "자"
      ],
      [
        "▁",
        "뻔"
      ],
      [
        "▁",
        "절"
      ],
      [
        "구",
        "나"
      ],
      [
        "▁애",
        "니"
      ],
      [
        "▁",
        "걸"
      ],
      [
        "▁",
        "얼"
      ],
      [
        "ᅮ",
        "ᅮ"
      ],
      [
        "▁스",
        "릴"
      ],
      [
        "▁가",
        "슴"
      ],
      [
        "▁짜",
        "증"
      ],
      [
        "인",
        "지"
      ],
      [
        "▁",
        "리"
      ],
      [
        "▁없",
        "고"
      ],
      [
        "▁",
        "낮"
      ],
      [
        "▁원",
        "작"
      ],
      [
        "▁",
        "선"
      ],
      [
        "미",
        "디"
      ],
      [
        "▁",
        "솔"
      ],
      [
        "하",
        "지만"
      ],
      [
        "▁눈",
        "물"
      ],
      [
        "스",
        "럽"
      ],
      [
        "▁",
        "맞"
      ],
      [
        "▁",
        "ᄒᄒ"
      ],
      [
        "▁",
        "억"
      ],
      [
        "봐",
        "도"
      ],
      [
        "▁정",
        "도"
      ],
      [
        "▁",
        "높"
      ],
      [
        "▁대",
        "한"
      ],
      [
        "▁",
        "방"
      ],
      [
        "는",
        "지"
      ],
      [
        "0",
        "년"
      ],
      [
        "▁",
        "드"
      ],
      [
        "▁",
        "긴"
      ],
      [
        "▁",
        "충"
      ],
      [
        "이",
        "었"
      ],
      [
        "▁",
        "계"
      ],
      [
        "▁인",
        "생"
      ],
      [
        "릭",
        "터"
      ],
      [
        "재",
        "밌"
      ],
      [
        "▁만들",
        "어"
      ],
      [
        "려",
        "고"
      ],
      [
        "▁전",
        "개"
      ],
      [
        "▁영",
        "상"
      ],
      [
        "요",
        "."
      ],
      [
        "▁인",
        "간"
      ],
      [
        "습니",
        "다.\n"
      ],
      [
        "▁않",
        "는"
      ],
      [
        "▁ᄏᄏ",
        "\n"
      ],
      [
        "▁음",
        "악"
      ],
      [
        "스",
        "러"
      ],
      [
        "지",
        "않"
      ],
      [
        "▁있",
        "었"
      ],
      [
        "▁",
        "몇"
      ],
      [
        "더",
        "라"
      ],
      [
        "▁솔",
        "직"
      ],
      [
        "이",
        "다."
      ],
      [
        "지",
        "마"
      ],
      [
        "▁많",
        "은"
      ],
      [
        "▁모르",
        "겠"
      ],
      [
        "이",
        "고"
      ],
      [
        "▁",
        "집"
      ],
      [
        "에",
        "는"
      ],
      [
        "▁",
        "머"
      ],
      [
        "니",
        "까"
      ],
      [
        "리",
        "즈"
      ],
      [
        "어요",
        "\n"
      ],
      [
        "▁",
        "'"
      ],
      [
        "ᄏᄏ",
        "\n"
      ],
      [
        "▁극",
        "장"
      ],
      [
        "▁",
        "순"
      ],
      [
        "▁",
        "필요"
      ],
      [
        "▁",
        "9"
      ],
      [
        "▁",
        "건"
      ],
      [
        "▁",
        "굿"
      ],
      [
        "▁모",
        "든"
      ],
      [
        "▁아름",
        "다"
      ],
      [
        "나",
        "서"
      ],
      [
        "▁한",
        "번"
      ],
      [
        "▁",
        "돌"
      ],
      [
        "처",
        "럼"
      ],
      [
        "▁",
        "적"
      ],
      [
        "▁",
        "간"
      ],
      [
        "▁",
        "듯"
      ],
      [
        "▁",
        "게"
      ],
      [
        "▁",
        "4"
      ],
      [
        "▁아",
        "직"
      ],
      [
        "정",
        "말"
      ],
      [
        "▁억",
        "지"
      ],
      [
        "지",
        "고"
      ],
      [
        "▁",
        "피"
      ],
      [
        "메",
        "이"
      ],
      [
        "▁끝",
        "까지"
      ],
      [
        "▁",
        "새"
      ],
      [
        "▁",
        "ᅳᅳ"
      ],
      [
        "밖",
        "에"
      ],
      [
        "▁",
        "문"
      ],
      [
        "이",
        "다.\n"
      ],
      [
        "근",
        "데"
      ],
      [
        "▁수",
        "준"
      ],
      [
        "▁",
        "욕"
      ],
      [
        "▁",
        "찾"
      ],
      [
        "나",
        "오"
      ],
      [
        "▁하",
        "지만"
      ],
      [
        "▁",
        "8"
      ],
      [
        "▁",
        "올"
      ],
      [
        "▁",
        "편"
      ],
      [
        "떨",
        "어"
      ],
      [
        "▁봐",
        "도"
      ],
      [
        "들",
        "을"
      ],
      [
        "▁솔직",
        "히"
      ],
      [
        "▁전",
        "혀"
      ],
      [
        "▁",
        "받"
      ],
      [
        "▁",
        "파"
      ],
      [
        "▁하",
        "고"
      ],
      [
        "중",
        "에"
      ],
      [
        "▁재",
        "밋"
      ],
      [
        "▁",
        "언"
      ],
      [
        "스",
        "터"
      ],
      [
        "하",
        "다\n"
      ],
      [
        ";;",
        "\n"
      ],
      [
        "다",
        "...\n"
      ],
      [
        "▁",
        "행"
      ],
      [
        "▁",
        ".."
      ],
      [
        "▁이",
        "제"
      ],
      [
        "▁",
        "프"
      ],
      [
        "▁모",
        "두"
      ],
      [
        "▁뭔",
        "가"
      ],
      [
        "▁",
        "열"
      ],
      [
        "▁",
        "외"
      ],
      [
        "▁",
        "7"
      ],
      [
        "떻",
        "게"
      ],
      [
        "했",
        "던"
      ],
      [
        "▁아",
        "주"
      ],
      [
        "▁",
        "찍"
      ],
      [
        "▁",
        "."
      ],
      [
        "▁추",
        "천"
      ],
      [
        "이",
        "는"
      ],
      [
        "▁영화",
        "였"
      ],
      [
        "▁여",
        "운"
      ],
      [
        "▁",
        "딱"
      ],
      [
        "▁",
        "경"
      ],
      [
        "나",
        "라"
      ],
      [
        ";",
        "\n"
      ],
      [
        "▁",
        "5"
      ],
      [
        "▁캐",
        "릭터"
      ],
      [
        "지",
        "\n"
      ],
      [
        "▁연기",
        "력"
      ],
      [
        "!!",
        "!"
      ],
      [
        "아",
        "니"
      ],
      [
        "▁엄",
        "청"
      ],
      [
        "▁코",
        "미디"
      ],
      [
        "하",
        "다."
      ],
      [
        "리",
        "가"
      ],
      [
        "타",
        "임"
      ],
      [
        "▁실",
        "망"
      ],
      [
        "함",
        "\n"
      ],
      [
        "▁공",
        "감"
      ],
      [
        "▁대",
        "박"
      ],
      [
        "0",
        "점"
      ],
      [
        "기",
        "도"
      ],
      [
        "장",
        "면"
      ],
      [
        "▁",
        "치"
      ],
      [
        "이",
        "다\n"
      ],
      [
        "▁긴",
        "장"
      ],
      [
        "는",
        "거"
      ],
      [
        "▁",
        "호"
      ],
      [
        "▁",
        "ᄏᄏᄏᄏ"
      ],
      [
        "▁",
        "된"
      ],
      [
        "▁",
        "갈"
      ],
      [
        "듯",
        "\n"
      ],
      [
        "▁",
        "독"
      ],
      [
        "스",
        "트"
      ],
      [
        "▁",
        "달"
      ],
      [
        "감",
        "독"
      ],
      [
        "을",
        "때"
      ],
      [
        "주",
        "고"
      ],
      [
        "▁",
        "약"
      ],
      [
        "▁",
        "버"
      ],
      [
        "▁",
        "출"
      ],
      [
        "▁최악",
        "의"
      ],
      [
        "이",
        "랑"
      ],
      [
        "▁",
        "놀"
      ],
      [
        "▁나",
        "온"
      ],
      [
        "▁",
        "먹"
      ],
      [
        "▁",
        "크"
      ],
      [
        "주",
        "인공"
      ],
      [
        "▁개",
        "봉"
      ],
      [
        "▁배우",
        "들"
      ],
      [
        "었",
        "던"
      ],
      [
        "▁대",
        "단"
      ],
      [
        "생",
        "각"
      ],
      [
        "에",
        "도"
      ],
      [
        "▁가",
        "족"
      ],
      [
        "▁",
        "답"
      ],
      [
        "▁",
        "믿"
      ],
      [
        "친",
        "구"
      ],
      [
        "▁",
        "손"
      ],
      [
        "▁",
        "준"
      ],
      [
        "▁영화",
        "의"
      ],
      [
        "▁재미있",
        "게"
      ],
      [
        "라",
        "도"
      ],
      [
        "▁이",
        "걸"
      ],
      [
        "▁어",
        "떻게"
      ],
      [
        "▁",
        "교"
      ],
      [
        "만",
        "들"
      ],
      [
        "▁",
        "엉"
      ],
      [
        "때",
        "문에"
      ],
      [
        "▁내",
        "내"
      ],
      [
        "ᅲ",
        "\n"
      ],
      [
        "수",
        "록"
      ],
      [
        "▁계",
        "속"
      ],
      [
        "했",
        "는데"
      ],
      [
        "▁흥",
        "미"
      ],
      [
        "영화",
        "는"
      ],
      [
        "이",
        "가"
      ],
      [
        "▁",
        "레"
      ],
      [
        "▁표",
        "현"
      ],
      [
        "던",
        "데"
      ],
      [
        "▁잔",
        "잔"
      ],
      [
        "▁영화",
        "에"
      ],
      [
        "수",
        "가"
      ],
      [
        "이라",
        "는"
      ],
      [
        "▁",
        "등"
      ],
      [
        "스",
        "토리"
      ],
      [
        "▁어",
        "디"
      ],
      [
        "습니",
        "다\n"
      ],
      [
        "▁알",
        "았"
      ],
      [
        "엔",
        "딩"
      ],
      [
        "▁",
        "악"
      ],
      [
        "건",
        "지"
      ],
      [
        "▁",
        "질"
      ],
      [
        "▁",
        "야"
      ],
      [
        "▁",
        "즐"
      ],
      [
        "▁남",
        "는"
      ],
      [
        "▁아니",
        "라"
      ],
      [
        "기",
        "는"
      ],
      [
        "▁대",
        "사"
      ],
      [
        "최",
        "고"
      ],
      [
        "~~",
        "\n"
      ],
      [
        "이",
        "지"
      ],
      [
        "▁",
        "함"
      ],
      [
        "어",
        "야"
      ],
      [
        "▁모",
        "습"
      ],
      [
        "▁제",
        "목"
      ],
      [
        "▁재밌",
        "었"
      ],
      [
        "냐",
        "?"
      ],
      [
        "▁아",
        "쉽"
      ],
      [
        "이",
        "상"
      ],
      [
        "▁잼",
        "있"
      ],
      [
        "봤",
        "는데"
      ],
      [
        "내",
        "내"
      ],
      [
        "▁",
        "물"
      ],
      [
        "없",
        "고"
      ],
      [
        "▁그래",
        "도"
      ],
      [
        "▁",
        "싸"
      ],
      [
        "▁",
        "떨어"
      ],
      [
        "▁",
        "삶"
      ],
      [
        "▁않",
        "은"
      ],
      [
        "어요",
        "."
      ],
      [
        "▁나오",
        "는"
      ],
      [
        "내",
        "용"
      ],
      [
        "ᄒ",
        "\n"
      ],
      [
        "▁",
        "-"
      ],
      [
        "▁",
        "담"
      ],
      [
        "보",
        "면"
      ],
      [
        "▁",
        "카"
      ],
      [
        "▁아",
        "쉬"
      ],
      [
        "기",
        "에"
      ],
      [
        "전",
        "에"
      ],
      [
        "▁연기",
        "가"
      ],
      [
        "▁만들",
        "었"
      ],
      [
        "하",
        "다.\n"
      ],
      [
        "한",
        "테"
      ],
      [
        "라",
        "리"
      ],
      [
        "▁ᄏᄏ",
        "ᄏ"
      ],
      [
        "▁내용",
        "이"
      ],
      [
        "▁",
        "잊"
      ],
      [
        "▁조",
        "금"
      ],
      [
        "▁그",
        "렇"
      ],
      [
        "아",
        "요"
      ],
      [
        "▁기",
        "분"
      ],
      [
        "▁스릴",
        "러"
      ],
      [
        "영화",
        "가"
      ],
      [
        "▁",
        "잠"
      ],
      [
        "성",
        "이"
      ],
      [
        "▁않",
        "고"
      ],
      [
        "▁",
        "베"
      ],
      [
        "▁진",
        "심"
      ],
      [
        "▁느",
        "껴"
      ],
      [
        "▁봐",
        "야"
      ],
      [
        "▁막",
        "장"
      ],
      [
        "리",
        "오"
      ],
      [
        "어",
        "도"
      ],
      [
        "▁긴장",
        "감"
      ],
      [
        "▁자",
        "체"
      ],
      [
        "만",
        "큼"
      ],
      [
        "입니",
        "다"
      ],
      [
        "라",
        "\n"
      ],
      [
        "리",
        "스"
      ],
      [
        "▁제",
        "대로"
      ],
      [
        "평",
        "점"
      ],
      [
        "하",
        "면서"
      ],
      [
        "▁시",
        "리즈"
      ],
      [
        "들",
        "도"
      ],
      [
        "▁아름다",
        "운"
      ],
      [
        "▁개",
        "인"
      ],
      [
        "이라",
        "고"
      ],
      [
        "▁",
        "메"
      ],
      [
        "▁요",
        "즘"
      ],
      [
        "▁제",
        "일"
      ],
      [
        "▁",
        "떠"
      ],
      [
        "▁오",
        "랜"
      ],
      [
        "대",
        "체"
      ],
      [
        "입니",
        "다."
      ],
      [
        "▁",
        "앞"
      ],
      [
        "▁",
        "근데"
      ],
      [
        "▁연기",
        "도"
      ],
      [
        "으",
        "나"
      ],
      [
        "네요",
        ".\n"
      ],
      [
        "▁",
        "네"
      ],
      [
        "▁없",
        "었"
      ],
      [
        "▁만",
        "드는"
      ],
      [
        "▁알",
        "바"
      ],
      [
        "ᄃ",
        "ᄃ"
      ],
      [
        "▁부",
        "족"
      ],
      [
        "이",
        "란"
      ],
      [
        "▁나",
        "는"
      ],
      [
        "ᅲᅲ",
        "\n"
      ],
      [
        "ᄏᄏ",
        "ᄏ"
      ],
      [
        "▁감동",
        "적이"
      ],
      [
        "▁중",
        "간"
      ],
      [
        "▁",
        "천"
      ],
      [
        "▁",
        "홍"
      ],
      [
        "훌",
        "륭"
      ],
      [
        "▁웃",
        "기"
      ],
      [
        "▁재미",
        "도"
      ],
      [
        "▁보",
        "다"
      ],
      [
        "▁내용",
        "도"
      ],
      [
        "음",
        ".\n"
      ],
      [
        "▁아까",
        "운"
      ],
      [
        "▁정",
        "신"
      ],
      [
        "▁제",
        "작"
      ],
      [
        "▁스토리",
        "가"
      ],
      [
        "▁보",
        "다가"
      ],
      [
        "것",
        "같"
      ],
      [
        "기",
        "가"
      ],
      [
        "▁노",
        "래"
      ],
      [
        "치",
        "는"
      ],
      [
        "▁나",
        "름"
      ],
      [
        "▁미",
        "국"
      ],
      [
        "▁이",
        "유"
      ],
      [
        "만",
        "한"
      ],
      [
        "▁않",
        "았"
      ],
      [
        "▁어",
        "설"
      ],
      [
        "▁",
        "날"
      ],
      [
        "▁",
        "데"
      ],
      [
        "▁나",
        "왔"
      ],
      [
        "▁",
        "목"
      ],
      [
        "▁시",
        "작"
      ],
      [
        "▁",
        "형"
      ],
      [
        "▁1",
        "편"
      ],
      [
        "▁",
        "국"
      ],
      [
        "지만",
        ","
      ],
      [
        "0년",
        "대"
      ],
      [
        "▁",
        "삼"
      ],
      [
        "임",
        "\n"
      ],
      [
        "▁영화",
        ".."
      ],
      [
        "▁",
        "디"
      ],
      [
        "▁",
        "..."
      ],
      [
        "ᄍ",
        "ᄍ"
      ],
      [
        "▁",
        "타"
      ],
      [
        "▁보고",
        "싶"
      ],
      [
        "거",
        "리"
      ],
      [
        "▁때",
        "문에"
      ],
      [
        "▁왜",
        "이"
      ],
      [
        "▁감독",
        "이"
      ],
      [
        "▁못",
        "한"
      ],
      [
        "▁",
        "각"
      ],
      [
        "할",
        "수"
      ],
      [
        "▁",
        "킬"
      ],
      [
        "해",
        "도"
      ],
      [
        "▁영화",
        "라고"
      ],
      [
        "▁나",
        "와"
      ],
      [
        "라",
        "이"
      ],
      [
        "▁그",
        "러"
      ],
      [
        "▁로",
        "맨"
      ],
      [
        "▁절",
        "대"
      ],
      [
        "▁",
        "훌륭"
      ],
      [
        "▁보",
        "게"
      ],
      [
        "마",
        "다"
      ],
      [
        "▁너무",
        "나"
      ],
      [
        "▁",
        "복"
      ],
      [
        "이",
        "없"
      ],
      [
        "▁",
        "될"
      ],
      [
        "▁",
        "뒤"
      ],
      [
        "▁",
        "통"
      ],
      [
        "영화",
        "를"
      ],
      [
        "스",
        "팅"
      ],
      [
        "▁따",
        "뜻"
      ],
      [
        "니",
        "다"
      ],
      [
        "▁싶",
        "은"
      ],
      [
        "▁감",
        "정"
      ],
      [
        "▁살",
        "아"
      ],
      [
        "▁의",
        "미"
      ],
      [
        "▁영화",
        "로"
      ],
      [
        "▁",
        "케"
      ],
      [
        "감",
        "동"
      ],
      [
        "▁수",
        "작"
      ],
      [
        "▁아직",
        "도"
      ],
      [
        "▁출",
        "연"
      ],
      [
        "ᄏᄏ",
        "ᄏ\n"
      ],
      [
        "▁느",
        "끼"
      ],
      [
        "▁",
        "글"
      ],
      [
        "▁시간",
        "이"
      ],
      [
        "▁뻔",
        "한"
      ],
      [
        "▁",
        "티"
      ],
      [
        "▁세",
        "상"
      ],
      [
        "▁아니",
        "고"
      ],
      [
        "▁작",
        "가"
      ],
      [
        "▁2",
        "0"
      ],
      [
        "▁여운",
        "이"
      ],
      [
        "기",
        "를"
      ],
      [
        "나",
        "리오"
      ],
      [
        "~~",
        "~~"
      ],
      [
        "로",
        "운"
      ],
      [
        "▁괜찮",
        "은"
      ],
      [
        "더",
        "니"
      ],
      [
        "▁차",
        "라리"
      ],
      [
        "으로",
        "도"
      ],
      [
        "나",
        "고"
      ],
      [
        "이",
        "야"
      ],
      [
        "하",
        "는데"
      ],
      [
        "▁스토리",
        "도"
      ],
      [
        "스러",
        "운"
      ],
      [
        "▁",
        "ᄏ\n"
      ],
      [
        "▁그",
        "저"
      ],
      [
        "▁나",
        "도"
      ],
      [
        "▁신",
        "선"
      ],
      [
        "\"",
        "\n"
      ],
      [
        "네",
        "."
      ],
      [
        "▁",
        "희"
      ],
      [
        "▁",
        "뭘"
      ],
      [
        "학",
        "교"
      ],
      [
        "▁안",
        "되"
      ],
      [
        "▁주",
        "는"
      ],
      [
        "▁무",
        "엇"
      ],
      [
        "▁특",
        "히"
      ],
      [
        "▁얼",
        "마"
      ],
      [
        "▁보",
        "면서"
      ],
      [
        "▁",
        "6"
      ],
      [
        "소",
        "리"
      ],
      [
        "▁장",
        "난"
      ],
      [
        "▁",
        "걍"
      ],
      [
        "이",
        "런"
      ],
      [
        "▁좋",
        "겠"
      ],
      [
        "▁",
        "C"
      ],
      [
        "요",
        "?"
      ],
      [
        "▁도",
        "대체"
      ],
      [
        "해",
        "야"
      ],
      [
        "▁만",
        "화"
      ],
      [
        "▁",
        "변"
      ],
      [
        "▁",
        "산"
      ],
      [
        "▁점",
        "수"
      ],
      [
        "▁",
        "싫"
      ],
      [
        "▁감독",
        "의"
      ],
      [
        "▁",
        "친구"
      ],
      [
        "고",
        "싶"
      ],
      [
        "▁무",
        "섭"
      ],
      [
        "▁행",
        "복"
      ],
      [
        "▁어",
        "린"
      ],
      [
        "▁사",
        "실"
      ],
      [
        "▁",
        "B"
      ],
      [
        "▁무",
        "서"
      ],
      [
        "▁",
        "니"
      ],
      [
        "▁",
        "판"
      ],
      [
        "▁",
        "황"
      ],
      [
        "♥",
        "♥"
      ],
      [
        "▁",
        "확"
      ],
      [
        "▁ᄏᄏ",
        "ᄏ\n"
      ],
      [
        "▁",
        "\"\""
      ],
      [
        "▁되",
        "는"
      ],
      [
        "▁",
        "t"
      ],
      [
        "▁",
        "갑"
      ],
      [
        "메이",
        "션"
      ],
      [
        "▁언",
        "제"
      ],
      [
        "▁오랜",
        "만에"
      ],
      [
        "▁",
        "훨"
      ],
      [
        "▁답",
        "답"
      ],
      [
        "▁시",
        "청"
      ],
      [
        "▁ᅲᅲ",
        "\n"
      ],
      [
        "▁",
        "용"
      ],
      [
        "▁멋",
        "진"
      ],
      [
        "사",
        "랑"
      ],
      [
        "지",
        "가"
      ],
      [
        "▁이해",
        "가"
      ],
      [
        "▁",
        "옛"
      ],
      [
        "▁",
        "첨"
      ],
      [
        "것",
        "이"
      ],
      [
        "▁부",
        "분"
      ],
      [
        "▁허",
        "접"
      ],
      [
        "_",
        "-"
      ],
      [
        "▁마지막",
        "에"
      ],
      [
        "거",
        "같"
      ],
      [
        "▁재미",
        "가"
      ],
      [
        "▁",
        "길"
      ],
      [
        "▁",
        "토"
      ],
      [
        "▁좋아",
        "하는"
      ],
      [
        "▁",
        "빨"
      ],
      [
        "▁",
        "빼"
      ],
      [
        "나",
        "게"
      ],
      [
        "입니",
        "다.\n"
      ],
      [
        "합니",
        "다"
      ],
      [
        "니",
        "다."
      ],
      [
        "▁자",
        "신"
      ],
      [
        "▁초",
        "반"
      ],
      [
        "▁관",
        "객"
      ],
      [
        "▁추",
        "억"
      ],
      [
        "▁우리",
        "나라"
      ],
      [
        "▁",
        "깨"
      ],
      [
        "▁귀",
        "여"
      ],
      [
        "▁전",
        "쟁"
      ],
      [
        "부",
        "분"
      ],
      [
        "하",
        "네"
      ],
      [
        "▁봤",
        "던"
      ],
      [
        "▁인",
        "상"
      ],
      [
        "▁",
        "양"
      ],
      [
        "▁소",
        "름"
      ],
      [
        "▁완",
        "벽"
      ],
      [
        "▁",
        "깊"
      ],
      [
        "성",
        "도"
      ],
      [
        "좋",
        "아"
      ],
      [
        "지",
        "?"
      ],
      [
        "놓",
        "고"
      ],
      [
        "▁",
        "엔딩"
      ],
      [
        "어",
        "\n"
      ],
      [
        "인",
        "듯"
      ],
      [
        "한",
        "데"
      ],
      [
        "▁생각",
        "이"
      ],
      [
        "▁없",
        "이"
      ],
      [
        "▁어",
        "색"
      ],
      [
        "▁시",
        "나리오"
      ],
      [
        "▁배",
        "경"
      ],
      [
        "아",
        "깝"
      ],
      [
        "▁지루",
        "하고"
      ],
      [
        "▁OO",
        "O"
      ],
      [
        "▁어",
        "떤"
      ],
      [
        "▁",
        "궁"
      ],
      [
        "▁킬",
        "링"
      ],
      [
        "▁",
        "청"
      ],
      [
        "▁1점",
        "도"
      ],
      [
        "▁",
        "낚"
      ],
      [
        "▁유",
        "쾌"
      ],
      [
        "▁힘",
        "들"
      ],
      [
        "디",
        "오"
      ],
      [
        "인",
        "이"
      ],
      [
        "영화",
        "."
      ],
      [
        "▁영화",
        "관"
      ],
      [
        "네요",
        ".."
      ],
      [
        "▁분",
        "위"
      ],
      [
        "▁",
        "ᄏ"
      ],
      [
        "동",
        "안"
      ],
      [
        "▁",
        "헐"
      ],
      [
        "▁다",
        "큐"
      ],
      [
        "▁",
        "흐"
      ],
      [
        "▁",
        "총"
      ],
      [
        "▁안",
        "타"
      ],
      [
        "▁",
        "식"
      ],
      [
        "▁",
        "팬"
      ],
      [
        "▁",
        "둘"
      ],
      [
        "▁오",
        "늘"
      ],
      [
        "▁없",
        "다."
      ],
      [
        "▁스",
        "타"
      ],
      [
        "▁지루",
        "한"
      ],
      [
        "▁배우",
        "들의"
      ],
      [
        "▁이",
        "딴"
      ],
      [
        "▁시",
        "대"
      ],
      [
        "▁문",
        "제"
      ],
      [
        "▁",
        "잡"
      ],
      [
        "▁슬",
        "프"
      ],
      [
        "▁함",
        "께"
      ],
      [
        "▁",
        "입"
      ],
      [
        "▁",
        "환"
      ],
      [
        "구",
        "만"
      ],
      [
        ",,",
        ","
      ],
      [
        "▁들",
        "어"
      ],
      [
        "아",
        "까"
      ],
      [
        "▁찾",
        "아"
      ],
      [
        "▁졸",
        "작"
      ],
      [
        "o",
        "o"
      ],
      [
        "▁결",
        "국"
      ],
      [
        "치",
        "고"
      ],
      [
        "텐",
        "데"
      ],
      [
        "▁ᄒᄒ",
        "\n"
      ],
      [
        "▁",
        "종"
      ],
      [
        "해",
        "요"
      ],
      [
        "▁",
        "큰"
      ],
      [
        "▁보",
        "았"
      ],
      [
        "▁좋",
        "고"
      ],
      [
        "▁개인",
        "적으로"
      ],
      [
        "▁",
        "뛰"
      ],
      [
        "▁",
        "범"
      ],
      [
        "▁",
        "왠"
      ],
      [
        "들",
        "에게"
      ],
      [
        "럽",
        "게"
      ],
      [
        "었",
        "다."
      ],
      [
        "▁진",
        "정"
      ],
      [
        "▁",
        "뿐"
      ],
      [
        "▁보는",
        "내내"
      ],
      [
        "▁",
        "태"
      ],
      [
        "시",
        "길"
      ],
      [
        "▁어",
        "릴"
      ],
      [
        "▁당",
        "시"
      ],
      [
        "▁역",
        "사"
      ],
      [
        "▁애니",
        "메이션"
      ],
      [
        "▁",
        "러"
      ],
      [
        "그",
        "냥"
      ],
      [
        "리",
        "지"
      ],
      [
        "쓰",
        "레기"
      ],
      [
        "이",
        "지만"
      ],
      [
        "▁재밌",
        "는"
      ],
      [
        "?",
        "?\n"
      ],
      [
        "▁",
        "임"
      ],
      [
        "수",
        "있"
      ],
      [
        "▁보",
        "세요"
      ],
      [
        "▁진",
        "부"
      ],
      [
        "낭",
        "비"
      ],
      [
        "보",
        "니"
      ],
      [
        "▁예",
        "술"
      ],
      [
        "▁얼마",
        "나"
      ],
      [
        "건",
        "가"
      ],
      [
        "▁코",
        "믹"
      ],
      [
        "▁",
        "책"
      ],
      [
        "그",
        "래"
      ],
      [
        "보",
        "단"
      ],
      [
        "▁",
        "꿈"
      ],
      [
        "▁포",
        "스터"
      ],
      [
        "▁",
        "클"
      ],
      [
        "▁아름",
        "답"
      ],
      [
        "▁몰입",
        "도"
      ],
      [
        ")",
        "\n"
      ],
      [
        "나",
        "마"
      ],
      [
        "니",
        "다.\n"
      ],
      [
        "▁아무",
        "리"
      ],
      [
        "▁",
        "암"
      ],
      [
        "다",
        "!\n"
      ],
      [
        "▁캐",
        "스팅"
      ],
      [
        "▁설",
        "정"
      ],
      [
        "▁",
        "혼"
      ],
      [
        "▁강",
        "추"
      ],
      [
        "▁",
        "\""
      ],
      [
        "▁",
        "0점"
      ],
      [
        "▁",
        "백"
      ],
      [
        "레",
        "이"
      ],
      [
        "지",
        "루"
      ],
      [
        "▁킬링",
        "타임"
      ],
      [
        "▁없",
        "다.\n"
      ],
      [
        "▁연기",
        "는"
      ],
      [
        "▁기억",
        "에"
      ],
      [
        "▁",
        "맘"
      ],
      [
        "점",
        "대"
      ],
      [
        "▁안",
        "되는"
      ],
      [
        "▁주",
        "연"
      ],
      [
        "▁후",
        "회"
      ],
      [
        "네",
        ".."
      ],
      [
        "지",
        ".."
      ],
      [
        "▁개",
        "연"
      ],
      [
        "▁영화",
        "도"
      ],
      [
        "▁영화",
        "라"
      ],
      [
        "▁오",
        "래"
      ],
      [
        "▁",
        "민"
      ],
      [
        "▁영화",
        "..."
      ],
      [
        "▁사람",
        "이"
      ],
      [
        "▁돌",
        "아"
      ],
      [
        "하",
        "며"
      ],
      [
        "함",
        "을"
      ],
      [
        "었",
        "다"
      ],
      [
        "▁",
        "패"
      ],
      [
        "려",
        "는"
      ],
      [
        "작",
        "품"
      ],
      [
        "▁웃",
        "음"
      ],
      [
        "▁멋",
        "있"
      ],
      [
        "s",
        "t"
      ],
      [
        "▁",
        "얘"
      ],
      [
        "주",
        "의"
      ],
      [
        "▁",
        "꽤"
      ],
      [
        "▁",
        "브"
      ],
      [
        "▁제",
        "발"
      ],
      [
        "▁매",
        "우"
      ],
      [
        "▁",
        "몸"
      ],
      [
        "자",
        "기"
      ],
      [
        "▁지",
        "나"
      ],
      [
        "▁더",
        "빙"
      ],
      [
        "ᅮᅮ",
        "\n"
      ],
      [
        "▁충",
        "격"
      ],
      [
        "▁보",
        "지"
      ],
      [
        "▁주",
        "제"
      ],
      [
        "▁그",
        "렇게"
      ],
      [
        "들",
        "과"
      ],
      [
        "당",
        "히"
      ],
      [
        "나",
        "?"
      ],
      [
        "이",
        "버"
      ],
      [
        "한",
        "거"
      ],
      [
        "▁여",
        "러"
      ],
      [
        "▁집",
        "중"
      ],
      [
        "▁",
        "폭"
      ],
      [
        "했",
        "다."
      ],
      [
        "▁어",
        "느"
      ],
      [
        "▁잔",
        "인"
      ],
      [
        "▁",
        "낫"
      ],
      [
        "▁보",
        "지마"
      ],
      [
        "▁엄",
        "마"
      ],
      [
        "인",
        "줄"
      ],
      [
        "같",
        "이"
      ],
      [
        "▁재밌",
        "어요"
      ],
      [
        "▁충",
        "분"
      ],
      [
        "♥",
        "\n"
      ],
      [
        "▁같",
        "이"
      ],
      [
        "▁궁",
        "금"
      ],
      [
        "!!!!",
        "!!!!"
      ],
      [
        "▁",
        "군"
      ],
      [
        "▁별",
        "점"
      ],
      [
        "재미",
        "있"
      ],
      [
        "르",
        "는"
      ],
      [
        "▁하나",
        "도"
      ],
      [
        "▁옛",
        "날"
      ],
      [
        "▁",
        "병"
      ],
      [
        "적이",
        "고"
      ],
      [
        "▁아깝",
        "다"
      ],
      [
        "영화",
        "의"
      ],
      [
        "▁",
        "채"
      ],
      [
        "▁미",
        "친"
      ],
      [
        "학",
        "생"
      ],
      [
        "▁빠",
        "져"
      ],
      [
        "▁따",
        "라"
      ],
      [
        "▁순",
        "수"
      ],
      [
        "재미",
        "없"
      ],
      [
        "▁",
        "T"
      ],
      [
        "마",
        "디"
      ],
      [
        "▁",
        "먼"
      ],
      [
        "▁것",
        "이"
      ],
      [
        "ᄒᄒ",
        "\n"
      ],
      [
        "▁",
        "터"
      ],
      [
        "함",
        "."
      ],
      [
        "▁",
        "은"
      ],
      [
        "이",
        "거"
      ],
      [
        "▁불",
        "쌍"
      ],
      [
        "▁극장",
        "에서"
      ],
      [
        "▁",
        "블"
      ],
      [
        "한",
        "다"
      ],
      [
        "▁",
        "풀"
      ],
      [
        "0",
        "분"
      ],
      [
        "▁뛰",
        "어"
      ],
      [
        "▁",
        "커"
      ],
      [
        "꿀",
        "잼"
      ],
      [
        "만",
        "든"
      ],
      [
        "▁위",
        "해"
      ],
      [
        "▁",
        "광"
      ],
      [
        "▁",
        "탄"
      ],
      [
        "길",
        "래"
      ],
      [
        "▁나",
        "올"
      ],
      [
        "▁",
        "숨"
      ],
      [
        "에",
        "요"
      ],
      [
        "지",
        "."
      ],
      [
        "▁위",
        "한"
      ],
      [
        "▁",
        "괴"
      ],
      [
        "음",
        ".."
      ],
      [
        "▁말",
        "도"
      ],
      [
        "▁",
        "색"
      ],
      [
        "▁",
        "너"
      ],
      [
        "▁",
        "투"
      ],
      [
        "▁",
        "흘"
      ],
      [
        "▁",
        "o"
      ],
      [
        "함",
        "이"
      ],
      [
        "▁중",
        "국"
      ],
      [
        "▁마음",
        "이"
      ],
      [
        "자",
        "가"
      ],
      [
        "하",
        "겠"
      ],
      [
        "▁",
        "b"
      ],
      [
        "해",
        "지는"
      ],
      [
        "!!",
        "!!\n"
      ],
      [
        "▁그",
        "만"
      ],
      [
        "▁없",
        "다\n"
      ],
      [
        "▁",
        "굳"
      ],
      [
        "고",
        ".."
      ],
      [
        "▁상",
        "상"
      ],
      [
        "▁",
        ","
      ],
      [
        "버",
        "린"
      ],
      [
        "합니",
        "다."
      ],
      [
        "▁느낌",
        "이"
      ],
      [
        "고",
        "\n"
      ],
      [
        "▁영화",
        "중"
      ],
      [
        "▁있",
        "을"
      ],
      [
        "▁알",
        "고"
      ],
      [
        "이라",
        "도"
      ],
      [
        "▁약",
        "간"
      ],
      [
        "▁엉",
        "성"
      ],
      [
        "▁",
        "끌"
      ],
      [
        "기",
        "만"
      ],
      [
        "성",
        "을"
      ],
      [
        "시",
        "는"
      ],
      [
        "▁",
        "돋"
      ],
      [
        "듯",
        "한"
      ],
      [
        "말",
        "이"
      ],
      [
        "..",
        "..."
      ],
      [
        "▁",
        "왕"
      ],
      [
        "워",
        "서"
      ],
      [
        "좋",
        "은"
      ],
      [
        "▁이",
        "름"
      ],
      [
        "▁감",
        "사"
      ],
      [
        "력",
        "이"
      ],
      [
        "전",
        "개"
      ],
      [
        "▁프",
        "로"
      ],
      [
        "가",
        "지"
      ],
      [
        "이",
        "야기"
      ],
      [
        "▁여",
        "기"
      ],
      [
        "▁내용",
        "은"
      ],
      [
        "합니",
        "다.\n"
      ],
      [
        "▁이",
        "쁘"
      ],
      [
        "▁대",
        "체"
      ],
      [
        "▁누",
        "가"
      ],
      [
        "▁걸",
        "작"
      ],
      [
        "니",
        "다\n"
      ],
      [
        "▁",
        "읽"
      ],
      [
        "하",
        "네요"
      ],
      [
        "▁비",
        "슷"
      ],
      [
        "▁얼",
        "굴"
      ],
      [
[...]
