<pad>	0
<unk>	0
<s>	0
</s>	0
..	-0
영화	-1
▁영화	-2
▁이	-3
▁아	-4
...	-5
ᄏᄏ	-6
▁그	-7
▁보	-8
▁재	-9
!!	-10
니다	-11
▁정	-12
▁나	-13
는데	-14
너무	-15
▁다	-16
▁하	-17
▁좋	-18
▁없	-19
▁어	-20
▁너무	-21
▁사	-22
▁내	-23
▁감	-24
▁진	-25
▁재미	-26
....	-27
▁연	-28
▁있	-29
▁지	-30
으로	-31
지만	-32
하고	-33
▁최	-34
▁시	-35
▁한	-36
네요	-37
▁안	-38
▁1	-39
▁정말	-40
▁스	-41
▁만	-42
▁가	-43
에서	-44
▁재밌	-45
▁기	-46
▁봤	-47
▁평	-48
▁대	-49
▁전	-50
▁진짜	-51
▁연기	-52
▁마	-53
하는	-54
▁무	-55
▁모	-56
▁수	-57
▁여	-58
▁생	-59
▁잘	-60
어요	-61
▁주	-62
▁최고	-63
▁않	-64
▁더	-65
▁평점	-66
드라	-67
ᄏᄏᄏᄏ	-68
토리	-69
▁오	-70
습니다	-71
이다	-72
▁제	-73
▁개	-74
▁이런	-75
하다	-76
▁인	-77
▁말	-78
▁배	-79
드라마	-80
~~	-81
▁생각	-82
▁왜	-83
▁자	-84
들이	-85
▁같	-86
▁못	-87
▁스토리	-88
▁소	-89
▁남	-90
▁알	-91
▁본	-92
까지	-93
▁느	-94
▁유	-95
ᅲᅲ	-96
▁미	-97
▁보고	-98
▁볼	-99
▁감동	-100
하게	-101
▁일	-102
▁별	-103
이라	-104
▁쓰	-105
▁것	-106
▁비	-107
▁장	-108
보다	-109
었다	-110
▁지루	-111
▁우	-112
▁드라마	-113
;;	-114
▁많	-115
??	-116
▁작	-117
▁ᄏᄏ	-118
▁중	-119
▁재미있	-120
레기	-121
▁그냥	-122
▁부	-123
▁배우	-124
▁뭐	-125
▁아니	-126
▁공	-127
▁사람	-128
▁2	-129
해서	-130
면서	-131
▁조	-132
▁내용	-133
▁역	-134
▁10	-135
▁완	-136
▁만들	-137
▁감독	-138
▁끝	-139
▁저	-140
▁애	-141
▁좀	-142
적인	-143
▁재미없	-144
다는	-145
렇게	-146
리고	-147
▁고	-148
▁쓰레기	-149
▁해	-150
▁명	-151
▁사랑	-152
▁참	-153
▁되	-154
▁반	-155
▁보는	-156
▁영화를	-157
▁웃	-158
,,	-159
▁영	-160
^^	-161
▁예	-162
보고	-163
▁결	-164
▁봐	-165
ᄒᄒ	-166
▁다시	-167
지막	-168
액션	-169
▁좋은	-170
▁좋아	-171
▁시간	-172
라고	-173
▁거	-174
▁매	-175
▁싶	-176
▁상	-177
▁신	-178
으면	-179
▁눈	-180
입니다	-181
▁처	-182
▁실	-183
▁바	-184
▁이거	-185
들의	-186
▁노	-187
▁영화가	-188
▁불	-189
▁작품	-190
▁영화는	-191
지는	-192
OO	-193
▁원	-194
▁봤는데	-195
▁없는	-196
▁살	-197
하지	-198
▁이건	-199
인공	-200
▁최고의	-201
▁마지막	-202
!!!	-203
▁난	-204
▁내가	-205
▁3	-206
▁기대	-207
▁완전	-208
▁액션	-209
▁좋았	-210
다가	-211
▁있는	-212
▁하나	-213
▁넘	-214
▁할	-215
▁의	-216
다고	-217
▁코	-218
▁성	-219
야기	-220
▁도	-221
▁처음	-222
어서	-223
▁때	-224
▁죽	-225
▁몰	-226
▁한국	-227
없는	-228
적이	-229
세요	-230
▁추	-231
▁지금	-232
▁없다	-233
같은	-234
▁후	-235
했다	-236
인데	-237
▁나오	-238
▁현	-239
들은	-240
▁괜	-241
▁하는	-242
▁최악	-243
▁김	-244
!!!!	-245
▁이렇게	-246
▁이게	-247
에게	-248
▁모르	-249
▁또	-250
▁아깝	-251
▁극	-252
ᅳᅳ	-253
대로	-254
합니다	-255
라는	-256
▁별로	-257
적으로	-258
▁세	-259
이나	-260
▁허	-261
▁멋	-262
▁이해	-263
부터	-264
▁강	-265
겠다	-266
▁관	-267
▁위	-268
▁초	-269
연기	-270
▁연출	-271
▁분	-272
있는	-273
▁돈	-274
▁느낌	-275
▁짜	-276
▁명작	-277
한다	-278
▁두	-279
▁동	-280
▁역시	-281
▁화	-282
▁심	-283
▁로	-284
▁따	-285
▁잼	-286
▁구	-287
▁이야기	-288
▁했	-289
▁기억	-290
▁뭔	-291
▁음	-292
▁평점이	-293
▁재밌게	-294
되는	-295
▁우리	-296
▁캐	-297
▁많이	-298
▁괜찮	-299
▁당	-300
정도	-301
▁아이	-302
배우	-303
▁들	-304
▁이영화	-305
▁장면	-306
▁그래	-307
주는	-308
지도	-309
▁여자	-310
▁그리고	-311
▁잔	-312
▁에	-313
▁아름	-314
문에	-315
▁만든	-316
▁엄	-317
▁요	-318
▁발	-319
▁그런	-320
""	-321
▁아까	-322
▁막	-323
▁와	-324
리는	-325
▁꼭	-326
재미	-327
▁주인공	-328
▁포	-329
사람	-330
▁보여	-331
았다	-332
▁차	-333
▁마음	-334
▁귀	-335
▁특	-336
▁단	-337
▁같은	-338
필요	-339
▁슬	-340
만에	-341
▁아닌	-342
드는	-343
▁설	-344
것도	-345
▁공포	-346
▁유치	-347
▁울	-348
▁졸	-349
▁존	-350
진짜	-351
▁일본	-352
▁줄	-353
▁표	-354
을까	-355
ᄏᄏᄏᄏᄏᄏᄏᄏ	-356
▁박	-357
아서	-358
▁무슨	-359
하나	-360
........	-361
▁망	-362
가는	-363
없이	-364
▁없고	-365
00	-366
▁아무	-367
었는데	-368
▁점	-369
▁ᄏᄏᄏ	-370
▁볼만	-371
▁현실	-372
▁결말	-373
▁서	-374
ᄏᄏᄏ	-375
▁힘	-376
▁소재	-377
▁가장	-378
하기	-379
▁ᅲᅲ	-380
▁몰입	-381
였다	-382
▁아깝다	-383
▁다른	-384
▁누	-385
인가	-386
시간	-387
없다	-388
▁이상	-389
▁흥	-390
▁보면	-391
▁짱	-392
▁보기	-393
▁과	-394
▁.	-395
나는	-396
▁..	-397
▁OO	-398
니까	-399
▁매력	-400
▁반전	-401
▁속	-402
하면	-403
▁빠	-404
보는	-405
▁남자	-406
▁뻔	-407
▁절	-408
구나	-409
▁걸	-410
▁얼	-411
ᅮᅮ	-412
▁가슴	-413
▁스릴	-414
▁짜증	-415
인지	-416
▁말이	-417
▁애니	-418
▁리	-419
▁낮	-420
▁원작	-421
▁선	-422
▁영화다	-423
미디	-424
▁솔	-425
하지만	-426
▁눈물	-427
스럽	-428
▁맞	-429
이고	-430
▁ᄒᄒ	-431
▁억	-432
봐도	-433
▁정도	-434
▁높	-435
▁대한	-436
▁방	-437
는지	-438
▁드	-439
는다	-440
▁긴	-441
▁충	-442
▁계	-443
▁인생	-444
▁ᄏ	-445
▁있다	-446
려고	-447
릭터	-448
재밌	-449
▁만들어	-450
▁전개	-451
▁영상	-452
었던	-453
▁인간	-454
▁음악	-455
아요	-456
스러	-457
지않	-458
▁몇	-459
더라	-460
▁솔직	-461
지마	-462
▁많은	-463
▁집	-464
지고	-465
에는	-466
▁머	-467
리즈	-468
▁'	-469
▁필요	-470
▁극장	-471
▁순	-472
▁9	-473
▁건	-474
▁굿	-475
▁모든	-476
▁아름다	-477
나서	-478
▁한번	-479
▁돌	-480
처럼	-481
▁적	-482
▁간	-483
▁듯	-484
▁게	-485
▁4	-486
▁아직	-487
정말	-488
▁억지	-489
▁피	-490
메이	-491
▁끝까지	-492
▁새	-493
▁ᅳᅳ	-494
점이	-495
밖에	-496
▁문	-497
▁하고	-498
다니	-499
근데	-500
▁수준	-501
▁욕	-502
▁찾	-503
었음	-504
나오	-505
▁하지만	-506
▁8	-507
▁올	-508
▁편	-509
떨어	-510
▁봐도	-511
들을	-512
▁솔직히	-513
▁전혀	-514
▁받	-515
▁파	-516
중에	-517
▁재밋	-518
▁언	-519
스터	-520
▁행	-521
▁이제	-522
▁프	-523
▁모두	-524
▁...	-525
▁뭔가	-526
된다	-527
▁열	-528
▁외	-529
▁7	-530
떻게	-531
했던	-532
는거	-533
▁아주	-534
▁찍	-535
▁추천	-536
▁여운	-537
▁딱	-538
▁경	-539
나라	-540
▁5	-541
▁캐릭터	-542
▁좋다	-543
▁연기력	-544
▁엄청	-545
▁코미디	-546
이는	-547
리가	-548
타임	-549
▁같다	-550
▁실망	-551
▁공감	-552
.....	-553
준다	-554
▁대박	-555
기도	-556
장면	-557
▁치	-558
▁긴장	-559
▁호	-560
▁ᄏᄏᄏᄏ	-561
주고	-562
▁갈	-563
▁독	-564
스트	-565
▁봤다	-566
▁달	-567
감독	-568
을때	-569
▁약	-570
▁버	-571
▁출	-572
▁최악의	-573
▁놀	-574
▁나온	-575
이랑	-576
▁배우들	-577
▁먹	-578
▁크	-579
건지	-580
▁개봉	-581
주인공	-582
▁대단	-583
생각	-584
에도	-585
이지	-586
▁가족	-587
▁답	-588
▁믿	-589
친구	-590
▁손	-591
▁영화의	-592
▁재미있게	-593
라도	-594
▁이걸	-595
▁어떻게	-596
▁교	-597
만들	-598
▁엉	-599
때문에	-600
▁내내	-601
수록	-602
▁재밌다	-603
▁계속	-604
▁흥미	-605
했는데	-606
▁함	-607
없고	-608
영화는	-609
이가	-610
점도	-611
▁레	-612
▁표현	-613
하네요	-614
▁않고	-615
던데	-616
▁잔잔	-617
▁영화에	-618
수가	-619
이라는	-620
▁등	-621
▁어디	-622
스토리	-623
엔딩	-624
었어요	-625
▁악	-626
▁질	-627
▁야	-628
▁즐	-629
▁아니라	-630
있다	-631
최고	-632
▁대사	-633
기는	-634
어야	-635
▁모습	-636
▁제목	-637
▁아쉽	-638
봤는데	-639
내내	-640
▁물	-641
아니	-642
▁그래도	-643
▁20	-644
▁싸	-645
▁내용이	-646
▁떨어	-647
▁삶	-648
▁않은	-649
▁나오는	-650
내용	-651
하네	-652
▁-	-653
▁담	-654
보면	-655
▁카	-656
▁아쉬	-657
기에	-658
전에	-659
▁연기가	-660
한테	-661
라리	-662
▁잊	-663
▁아니다	-664
▁조금	-665
▁그렇	-666
성이	-667
▁기분	-668
▁스릴러	-669
영화가	-670
▁잠	-671
~~~~	-672
▁베	-673
▁느껴	-674
▁봐야	-675
▁진심	-676
▁막장	-677
리오	-678
어도	-679
▁보다	-680
▁긴장감	-681
해요	-682
▁자체	-683
만큼	-684
리스	-685
▁제대로	-686
하면서	-687
▁시리즈	-688
들도	-689
이라고	-690
▁아름다운	-691
▁개인	-692
▁메	-693
▁요즘	-694
▁제일	-695
▁재미없다	-696
▁떠	-697
▁오랜	-698
대체	-699
▁앞	-700
▁근데	-701
▁연기도	-702
▁네	-703
으나	-704
같다	-705
▁알바	-706
▁만드는	-707
ᄃᄃ	-708
▁부족	-709
인듯	-710
▁나는	-711
▁중간	-712
▁천	-713
▁홍	-714
훌륭	-715
▁웃기	-716
이상	-717
▁재미도	-718
▁내용도	-719
▁아까운	-720
▁정신	-721
▁제작	-722
▁스토리가	-723
▁0	-724
이란	-725
▁보다가	-726
▁잼있	-727
기가	-728
▁노래	-729
▁않는	-730
치는	-731
▁나름	-732
▁미국	-733
▁이유	-734
년대	-735
10	-736
▁어설	-737
만한	-738
▁날	-739
▁데	-740
▁나왔	-741
▁목	-742
▁시작	-743
난다	-744
점은	-745
~~~	-746
▁형	-747
▁아니고	-748
▁국	-749
▁삼	-750
▁감독이	-751
▁디	-752
ᄍᄍ	-753
▁타	-754
▁보고싶	-755
거리	-756
▁때문에	-757
▁왜이	-758
진다	-759
▁싶다	-760
▁각	-761
할수	-762
▁킬	-763
마다	-764
해도	-765
▁나와	-766
▁영화라고	-767
라이	-768
▁그러	-769
군요	-770
▁로맨	-771
▁절대	-772
▁모르겠	-773
▁남는	-774
▁보게	-775
▁훌륭	-776
▁시간이	-777
▁너무나	-778
▁복	-779
▁될	-780
▁뒤	-781
▁통	-782
영화를	-783
스팅	-784
▁된	-785
▁따뜻	-786
▁싶은	-787
▁감정	-788
▁의미	-789
▁살아	-790
▁영화로	-791
▁케	-792
이네	-793
적이고	-794
감동	-795
에요	-796
▁수작	-797
▁출연	-798
▁아직도	-799
나고	-800
▁느끼	-801
▁글	-802
▁뻔한	-803
▁티	-804
▁세상	-805
▁작가	-806
았는데	-807
▁여운이	-808
기를	-809
나리오	-810
로운	-811
▁괜찮은	-812
나요	-813
더니	-814
▁차라리	-815
으로도	-816
▁영화입니다	-817
스러운	-818
하는데	-819
▁스토리도	-820
▁^^	-821
▁그저	-822
▁나도	-823
▁신선	-824
▁희	-825
▁어이	-826
▁뭘	-827
▁재밌어요	-828
학교	-829
▁안되	-830
▁주는	-831
었습니다	-832
▁무엇	-833
▁얼마	-834
▁특히	-835
▁보면서	-836
▁6	-837
소리	-838
▁장난	-839
▁ᅲ	-840
▁걍	-841
이런	-842
▁C	-843
이야	-844
▁도대체	-845
해야	-846
▁만화	-847
▁변	-848
▁산	-849
없음	-850
▁점수	-851
▁싫	-852
▁감독의	-853
고싶	-854
▁무섭	-855
▁친구	-856
▁행복	-857
▁사실	-858
▁어린	-859
▁B	-860
▁무서	-861
▁니	-862
▁판	-863
▁황	-864
♥♥	-865
▁확	-866
▁영화였	-867
▁""	-868
이네요	-869
▁되는	-870
▁t	-871
▁갑	-872
▁언제	-873
메이션	-874
▁오랜만에	-875
▁훨	-876
점을	-877
▁답답	-878
▁시청	-879
▁좋았다	-880
▁용	-881
???	-882
▁멋진	-883
사랑	-884
지가	-885
▁이해가	-886
▁옛	-887
▁첨	-888
이지만	-889
▁없음	-890
▁부분	-891
▁허접	-892
_-	-893
▁마지막에	-894
▁재미가	-895
▁길	-896
▁토	-897
▁좋아하는	-898
▁빨	-899
▁빼	-900
나게	-901
;;;	-902
▁좋고	-903
▁자신	-904
▁초반	-905
▁관객	-906
▁봤습니다	-907
▁추억	-908
▁우리나라	-909
▁깨	-910
놓고	-911
▁귀여	-912
▁전쟁	-913
부분	-914
▁봤던	-915
▁인상	-916
것이	-917
▁양	-918
▁소름	-919
▁완벽	-920
▁깊	-921
성도	-922
한데	-923
▁엔딩	-924
▁생각이	-925
▁배경	-926
▁어색	-927
▁없이	-928
▁시나리오	-929
아깝	-930
▁OOO	-931
▁지루하고	-932
▁어떤	-933
▁궁	-934
▁킬링	-935
▁지루함	-936
▁청	-937
▁낚	-938
▁유쾌	-939
▁힘들	-940
디오	-941
치고	-942
▁못한	-943
▁영화관	-944
인이	-945
▁분위	-946
동안	-947
▁헐	-948
▁다큐	-949
▁흐	-950
▁총	-951
▁안타	-952
▁식	-953
▁준	-954
▁팬	-955
▁둘	-956
▁오늘	-957
▁최고다	-958
▁입	-959
다면	-960
▁스타	-961
▁배우들의	-962
▁문제	-963
▁시대	-964
▁이딴	-965
▁지루한	-966
▁잡	-967
▁슬프	-968
▁들어	-969
▁함께	-970
▁환	-971
구만	-972
,,,	-973
아까	-974
▁졸작	-975
▁찾아	-976
oo	-977
▁결국	-978
텐데	-979
▁만들었	-980
▁종	-981
한거	-982
▁있었	-983
▁큰	-984
▁개인적으로	-985
▁뛰	-986
▁범	-987
▁왠	-988
럽게	-989
들에게	-990
리지	-991
▁진정	-992
▁뿐	-993
▁보는내내	-994
▁태	-995
▁임	-996
시길	-997
▁당시	-998
▁어릴	-999
▁역사	-1000
을듯	-1001
▁애니메이션	-1002
▁러	-1003
그냥	-1004
점대	-1005
쓰레기	-1006
▁진부	-1007
▁보세요	-1008
▁재밌는	-1009
낭비	-1010
보니	-1011
▁예술	-1012
▁얼마나	-1013
건가	-1014
구요	-1015
좋아	-1016
▁코믹	-1017
▁책	-1018
그래	-1019
보단	-1020
▁꿈	-1021
▁포스터	-1022
~!	-1023
▁클	-1024
▁몰입도	-1025
▁아름답	-1026
나마	-1027
▁아무리	-1028
▁암	-1029
▁설정	-1030
▁캐스팅	-1031
▁혼	-1032
▁강추	-1033
▁"	-1034
▁백	-1035
지루	-1036
평점	-1037
▁킬링타임	-1038
레이	-1039
▁기억에	-1040
▁사람이	-1041
▁ᄒ	-1042
▁맘	-1043
▁연기는	-1044
▁웃음	-1045
▁안되는	-1046
▁지루하다	-1047
▁주연	-1048
▁후회	-1049
▁개연	-1050
▁오래	-1051
▁영화도	-1052
▁영화라	-1053
▁민	-1054
▁돌아	-1055
하며	-1056
있고	-1057
▁패	-1058
려는	-1059
작품	-1060
▁보지	-1061
▁공포영화	-1062
st	-1063
▁얘	-1064
했음	-1065
주의	-1066
▁꽤	-1067
▁브	-1068
▁매우	-1069
▁제발	-1070
▁몸	-1071
같이	-1072
자기	-1073
▁더빙	-1074
▁지나	-1075
▁충격	-1076
▁주제	-1077
▁그렇게	-1078
들과	-1079
당히	-1080
이버	-1081
▁여러	-1082
▁집중	-1083
한영화	-1084
▁폭	-1085
는게	-1086
▁어느	-1087
▁잔인	-1088
▁낫	-1089
▁엄마	-1090
▁보지마	-1091
인줄	-1092
말이	-1093
▁충분	-1094
▁같이	-1095
▁궁금	-1096
▁않았	-1097
▁있고	-1098
▁한국영화	-1099
렸다	-1100
▁좋아요	-1101
▁옛날	-1102
▁하나도	-1103
▁병	-1104
▁채	-1105
▁미친	-1106
학생	-1107
▁것이	-1108
▁빠져	-1109
▁따라	-1110
▁순수	-1111
ᅲᅲᅲᅲ	-1112
!!!!!!!!	-1113
▁T	-1114
▁군	-1115
마디	-1116
▁먼	-1117
르는	-1118
웠다	-1119
▁봤어요	-1120
▁터	-1121
▁감동적이	-1122
▁은	-1123
이거	-1124
▁불쌍	-1125
▁극장에서	-1126
▁모르겠다	-1127
......	-1128
▁블	-1129
▁느낌이	-1130
▁풀	-1131
▁뛰어	-1132
▁커	-1133
가지	-1134
것같	-1135
▁한다	-1136
꿀잼	-1137
만든	-1138
▁위해	-1139
▁광	-1140
▁탄	-1141
길래	-1142
▁나올	-1143
▁하지	-1144
▁숨	-1145
▁괴	-1146
야지	-1147
▁말도	-1148
▁색	-1149
▁ᅮᅮ	-1150
▁영화네요	-1151
▁너	-1152
▁투	-1153
▁흘	-1154
거지	-1155
함을	-1156
▁재밌음	-1157
▁o	-1158
린다	-1159
수있	-1160
▁중국	-1161
▁마음이	-1162
▁b	-1163
해지는	-1164
자가	-1165
▁그만	-1166
▁굳	-1167
▁상상	-1168
????	-1169
▁,	-1170
▁알고	-1171
▁위한	-1172
기만	-1173
▁영화중	-1174
▁약간	-1175
▁엉성	-1176
이라도	-1177
▁않는다	-1178
▁끌	-1179
성을	-1180
▁돋	-1181
봤다	-1182
▁왕	-1183
력이	-1184
워서	-1185
좋은	-1186
하시	-1187
▁감사	-1188
▁이름	-1189
▁!	-1190
전개	-1191
▁프로	-1192
▁여기	-1193
이야기	-1194
▁내용은	-1195
▁걸작	-1196
▁누가	-1197
▁대체	-1198
▁이쁘	-1199
▁읽	-1200
▁비슷	-1201
▁얼굴	-1202
했지만	-1203
▁후반	-1204
▁로맨스	-1205
그리고	-1206
▁똥	-1207
▁훨씬	-1208
▁영상미	-1209
▁이정도	-1210
느낌	-1211
▁철	-1212
이었다	-1213
▁가슴이	-1214
▁눈물이	-1215
으니	-1216
▁갈수록	-1217
▁감동도	-1218
▁사람들	-1219
▁CG	-1220
▁있을	-1221
▁존나	-1222
▁여주인공	-1223
▁첫	-1224
굉장	-1225
듯한	-1226
▁실화	-1227
▁그나마	-1228
것을	-1229
노잼	-1230
리를	-1231
자체	-1232
겠지만	-1233
가서	-1234
▁히	-1235
재밋	-1236
▁비교	-1237
이건	-1238
▁없었다	-1239
▁똑	-1240
▁번	-1241
▁죄	-1242
▁흔	-1243
인생	-1244
함이	-1245
▁연기를	-1246
▁재미없음	-1247
▁g	-1248
▁키	-1249
대한	-1250
라서	-1251
▁전체	-1252
▁발연기	-1253
년이	-1254
버린	-1255
타지	-1256
편이	-1257
▁노잼	-1258
겠지	-1259
▁알았	-1260
▁맛	-1261
재미있	-1262
▁없어	-1263
라면	-1264
멜로	-1265
▁어렸	-1266
▁기억이	-1267
▁그래서	-1268
▁장르	-1269
▁재밌고	-1270
▁S	-1271
▁갖	-1272
▁벌	-1273
▁단순	-1274
▁밖에	-1275
스럽다	-1276
▁어설픈	-1277
▁늘	-1278
시절	-1279
▁것도	-1280
▁s	-1281
ood	-1282
▁굉장	-1283
▁티비	-1284
▁비디오	-1285
년도	-1286
수준	-1287
지지	-1288
▁느낄	-1289
▁초딩	-1290
▁200	-1291
▁네이버	-1292
나온	-1293
이라면	-1294
▁취	-1295
든다	-1296
시키	-1297
▁알게	-1298
▁보여주는	-1299
▁사람들이	-1300
ᄋᄋ	-1301
보게	-1302
보기	-1303
▁딸	-1304
개도	-1305
정이	-1306
▁귀엽	-1307
▁다들	-1308
▁감동이	-1309
▁19	-1310
▁오글	-1311
▁다음	-1312
▁이미	-1313
아이	-1314
▁것을	-1315
▁시즌	-1316
▁인물	-1317
마지막	-1318
으면서	-1319
▁결말이	-1320
스가	-1321
▁....	-1322
한번	-1323
er	-1324
▁상황	-1325
▁주고	-1326
려서	-1327
말고	-1328
▁간만에	-1329
▁잘봤	-1330
▁쓰레기영화	-1331
▁영화관에서	-1332
▁ᄏᄏᄏᄏᄏᄏᄏᄏ	-1333
▁성룡	-1334
▁이것	-1335
적이다	-1336
▁송	-1337
그런	-1338
머니	-1339
▁섹	-1340
▁테	-1341
버지	-1342
▁한마디	-1343
▁꼬	-1344
인의	-1345
짜리	-1346
해라	-1347
▁등장	-1348
▁아쉽다	-1349
▁좋은데	-1350
었고	-1351
편은	-1352
▁30	-1353
▁교훈	-1354
▁존재	-1355
▁좋겠	-1356
▁화려	-1357
▁c	-1358
땜에	-1359
완전	-1360
하하	-1361
▁이후	-1362
보고싶	-1363
영화의	-1364
▁킬링타임용	-1365
▁트	-1366
▁풍	-1367
거같	-1368
▁온	-1369
▁독특	-1370
;;;;	-1371
▁영화였다	-1372
▁으	-1373
다른	-1374
론가	-1375
▁아님	-1376
▁생각을	-1377
▁감동적인	-1378
▁멍	-1379
▁훈	-1380
다시	-1381
▁맘에	-1382
▁바로	-1383
▁애들	-1384
▁평가	-1385
▁여배우	-1386
▁~	-1387
▁쓸	-1388
▁전부	-1389
▁스토리는	-1390
건데	-1391
되고	-1392
▁잘못	-1393
▁같아요	-1394
거야	-1395
연히	-1396
▁사회	-1397
▁있을까	-1398
▁배우들이	-1399
▁라	-1400
감이	-1401
았던	-1402
▁잔잔한	-1403
▁했는데	-1404
▁마이	-1405
▁보니	-1406
▁삼류	-1407
▁않다	-1408
▁생각보다	-1409
이팅	-1410
▁대해	-1411
주세요	-1412
▁진정한	-1413
▁틀	-1414
▁혹	-1415
들어	-1416
워요	-1417
할때	-1418
▁다운	-1419
▁별점	-1420
▁영화임	-1421
아닌	-1422
잖아	-1423
아깝다	-1424
▁그리	-1425
▁어울	-1426
▁상당히	-1427
▁직	-1428
수를	-1429
▁감동을	-1430
▁그대로	-1431
모르	-1432
정도로	-1433
▁정도로	-1434
▁거의	-1435
▁재미는	-1436
▁소설	-1437
▁영화인데	-1438
나오는	-1439
▁같은데	-1440
스타	-1441
▁높은	-1442
▁다르	-1443
,.	-1444
▁?	-1445
▁ᅳ	-1446
▁항	-1447
본다	-1448
중간	-1449
▁허무	-1450
▁세계	-1451
였음	-1452
▁재미있는	-1453
▁빵	-1454
▁ᄍᄍ	-1455
▁두번	-1456
▁예상	-1457
▁중간에	-1458
여자	-1459
을텐데	-1460
▁나와서	-1461
▁뭐야	-1462
▁자연	-1463
▁준다	-1464
거나	-1465
▁해서	-1466
▁재미있어요	-1467
................	-1468
졌다	-1469
하냐	-1470
▁하다	-1471
에서도	-1472
리의	-1473
영화다	-1474
▁휴	-1475
신이	-1476
하자	-1477
▁뭐지	-1478
▁있지만	-1479
댓글	-1480
이게	-1481
▁몇번	-1482
보다는	-1483
간다	-1484
분들	-1485
▁재밌네요	-1486
▁윤	-1487
▁멋있	-1488
▁봐서	-1489
▁재미있다	-1490
▁구성	-1491
▁어른	-1492
▁겁	-1493
▁봣	-1494
기대	-1495
▁기다	-1496
▁나의	-1497
▁혼자	-1498
▁봤지만	-1499
▁이영화를	-1500
▁볼수	-1501
▁실제	-1502
▁자기	-1503
▁100	-1504
시대	-1505
어나	-1506
여서	-1507
▁잃	-1508
을수	-1509
▁에로	-1510
▁평점을	-1511
▁착	-1512
아야	-1513
어가	-1514
저히	-1515
▁이번	-1516
▁밑	-1517
라니	-1518
▁멜로	-1519
었지만	-1520
▁압	-1521
때마다	-1522
에서는	-1523
▁맨	-1524
▁각본	-1525
▁제가	-1526
▁했다	-1527
▁마음에	-1528
▁(	-1529
▁흑	-1530
▁슬픈	-1531
,,,,	-1532
▁굉장히	-1533
음악	-1534
다는게	-1535
▁장면이	-1536
에선	-1537
▁낮은	-1538
▁좀비	-1539
▁O	-1540
▁묘	-1541
예요	-1542
▁더욱	-1543
▁갑자기	-1544
-_-	-1545
▁어쩌	-1546
▁질질	-1547
▁평범	-1548
▁어디서	-1549
▁있어서	-1550
사가	-1551
시다	-1552
▁90	-1553
랑스	-1554
이트	-1555
지를	-1556
▁머리	-1557
▁뭐냐	-1558
▁원작을	-1559
고는	-1560
▁방송	-1561
▁저런	-1562
▁즐거	-1563
▁권	-1564
▁까	-1565
▁빨리	-1566
▁여주	-1567
▁확실	-1568
보면서	-1569
▁극장판	-1570
▁새로운	-1571
▁판타지	-1572
▁누구	-1573
았음	-1574
▁예쁘	-1575
▁볼만한	-1576
던가	-1577
~!!	-1578
▁감독님	-1579
▁그녀	-1580
▁상영	-1581
▁못하는	-1582
▁재미없는	-1583
일이	-1584
▁의도	-1585
▁크리스	-1586
인다	-1587
▁개그	-1588
▁끝나	-1589
▁불편	-1590
▁밀	-1591
▁벗	-1592
▁믿고	-1593
▁화면	-1594
▁슈	-1595
▁가치	-1596
▁봐라	-1597
▁있어	-1598
스럽고	-1599
▁듣	-1600
▁빛	-1601
▁회	-1602
▁흠	-1603
우드	-1604
▁뭐가	-1605
코미디	-1606
▁생각하게	-1607
에겐	-1608
▁자체가	-1609
▁근	-1610
유의	-1611
하니	-1612
▁저는	-1613
▁전형	-1614
▁시청률	-1615
▁너무너무	-1616
▁놓	-1617
▁쳐	-1618
와서	-1619
▁일단	-1620
▁항상	-1621
지게	-1622
▁봤음	-1623
▁꺼	-1624
▁빈	-1625
년전	-1626
도록	-1627
리티	-1628
▁성우	-1629
▁역대	-1630
▁흥행	-1631
▁훌륭한	-1632
▁M	-1633
▁탄탄	-1634
▁그러나	-1635
▁봄	-1636
▁왔	-1637
▁운	-1638
현실	-1639
▁꿀잼	-1640
▁만드	-1641
▁예고	-1642
▁가지고	-1643
▁있는데	-1644
▁ᄉ	-1645
진진	-1646
▁있었다	-1647
그러	-1648
봐서	-1649
조건	-1650
▁감성	-1651
▁살인	-1652
▁빌	-1653
남자	-1654
속에	-1655
▁비해	-1656
▁아닐	-1657
▁중요	-1658
보다가	-1659
했어요	-1660
▁그런지	-1661
▁보여주	-1662
▁향	-1663
▁사람은	-1664
▁없어서	-1665
▁이런영화	-1666
▁써	-1667
들아	-1668
메디	-1669
▁관람	-1670
▁아까움	-1671
▁평론가	-1672
▁필	-1673
이라니	-1674
하지않	-1675
▁처음부터	-1676
in	-1677
▁TV	-1678
립니다	-1679
▁생각해	-1680
▁충분히	-1681
▁주인공이	-1682
없어	-1683
▁순간	-1684
▁한심	-1685
기고	-1686
▁돋보	-1687
하지도	-1688
내가	-1689
무리	-1690
▁것은	-1691
▁대단한	-1692
거다	-1693
▁진행	-1694
▁헐리	-1695
▁해도	-1696
▁개연성	-1697
▁됐	-1698
▁점점	-1699
▁쉽	-1700
별로	-1701
사회	-1702
▁리얼	-1703
▁안타깝	-1704
▁프랑스	-1705
▁합니다	-1706
▁댓글	-1707
으며	-1708
조차	-1709
▁만족	-1710
▁잘만들	-1711
▁금	-1712
이코	-1713
▁소리	-1714
▁어려	-1715
▁좋네요	-1716
▁짝	-1717
되어	-1718
▁tv	-1719
▁나이	-1720
▁시절	-1721
▁식상	-1722
▁한편	-1723
▁젊	-1724
▁몰랐	-1725
▁참고	-1726
▁훈훈	-1727
영화중	-1728
▁헤	-1729
웃음	-1730
▁당신	-1731
▁자극	-1732
만으로도	-1733
▁good	-1734
▁능	-1735
가고	-1736
처음	-1737
했고	-1738
히려	-1739
▁수가	-1740
▁분위기	-1741
▁m	-1742
짜증	-1743
▁먹먹	-1744
▁보았	-1745
▁소중	-1746
▁참신	-1747
▁홍콩	-1748
▁재밌는데	-1749
▁루	-1750
▁승	-1751
만의	-1752
스의	-1753
아도	-1754
▁황당	-1755
▁아닌가	-1756
▁좋은영화	-1757
▁맥	-1758
▁섬	-1759
저씨	-1760
▁그닥	-1761
시리즈	-1762
▁이영화는	-1763
▁창	-1764
한게	-1765
▁어쩔	-1766
▁하게	-1767
것같다	-1768
▁짧	-1769
러운	-1770
봐야	-1771
일까	-1772
▁그때	-1773
▁된다	-1774
▁선택	-1775
▁엉망	-1776
▁201	-1777
▁보는데	-1778
▁전개가	-1779
▁흥미진진	-1780
▁급	-1781
▁씨	-1782
촬영	-1783
▁유명	-1784
▁한마디로	-1785
//	-1786
리게	-1787
효과	-1788
▁불륜	-1789
▁도저히	-1790
▁안타까	-1791
▁평점은	-1792
했습니다	-1793
▁묻	-1794
하긴	-1795
▁망작	-1796
▁여전	-1797
▁무조건	-1798
▁재밌었다	-1799
▁검	-1800
▁깔	-1801
▁놈	-1802
▁찌	-1803
최악	-1804
▁가는	-1805
▁카메	-1806
▁케이	-1807
어지는	-1808
었으면	-1809
▁더럽게	-1810
▁어릴때	-1811
▁엄청난	-1812
많은	-1813
민국	-1814
▁편집	-1815
▁감독은	-1816
▁다시봐도	-1817
파이	-1818
▁과거	-1819
▁끝내	-1820
▁아쉬운	-1821
▁쓴	-1822
추천	-1823
▁얘기	-1824
▁지금까지	-1825
인물	-1826
지금	-1827
▁없네	-1828
지마라	-1829
▁-_-	-1830
▁사랑을	-1831
▁뮤	-1832
▁그게	-1833
▁모르고	-1834
▁이것도	-1835
이냐	-1836
▁멍청	-1837
▁범죄	-1838
▁안나	-1839
▁진지	-1840
▁겨	-1841
▁80	-1842
▁원래	-1843
하는거	-1844
▁돈주고	-1845
▁사람들은	-1846
겠네	-1847
만이	-1848
없네	-1849
▁미안	-1850
▁이리	-1851
영상	-1852
이면	-1853
보는데	-1854
▁봤네요	-1855
▁페	-1856
연출	-1857
▁물론	-1858
▁있음	-1859
▁희망	-1860
하다고	-1861
▁좋겠다	-1862
▁줄거리	-1863
그램	-1864
막장	-1865
애니	-1866
▁영화인	-1867
당시	-1868
대박	-1869
하여	-1870
▁만점	-1871
▁초등	-1872
▁해야	-1873
영화로	-1874
▁견	-1875
▁설명	-1876
▁자꾸	-1877
▁힘든	-1878
났다	-1879
어로	-1880
▁결혼	-1881
▁최근	-1882
▁평점에	-1883
▁후반부	-1884
▁뜬	-1885
방송	-1886
▁가능	-1887
▁전설	-1888
▁죽음	-1889
▁로맨틱	-1890
▁a	-1891
▁넣	-1892
▁북	-1893
▁미화	-1894
▁아빠	-1895
▁그래픽	-1896
▁유치한	-1897
▁있다는	-1898
였습니다	-1899
▁갔	-1900
스런	-1901
▁감상	-1902
▁분명	-1903
▁알려	-1904
▁저질	-1905
▁따뜻한	-1906
▁액션도	-1907
▁전형적인	-1908
시는	-1909
▁느꼈	-1910
▁사라	-1911
보세요	-1912
.......	-1913
▁법	-1914
내는	-1915
님의	-1916
▁가볍	-1917
▁괜히	-1918
▁내인생	-1919
▁d	-1920
시고	-1921
▁그럴	-1922
▁그림	-1923
▁배우가	-1924
▁없네요	-1925
따위	-1926
▁병맛	-1927
▁웃긴	-1928
▁느끼게	-1929
▁억지로	-1930
▁오히려	-1931
내고	-1932
▁아버지	-1933
▁예전에	-1934
.5	-1935
▁골	-1936
작가	-1937
▁독립	-1938
▁영웅	-1939
▁좋음	-1940
메이크	-1941
▁무서운	-1942
▁오글거	-1943
▁완벽한	-1944
▁이야기를	-1945
▁끼	-1946
공포	-1947
대의	-1948
명작	-1949
봐라	-1950
지다	-1951
▁나쁘	-1952
▁바보	-1953
▁인간의	-1954
▁깜	-1955
년에	-1956
프로	-1957
▁듯한	-1958
▁학교	-1959
였는데	-1960
하는게	-1961
▁입니다	-1962
▁덕	-1963
나면	-1964
이하	-1965
자의	-1966
▁SF	-1967
그래도	-1968
▁연출력	-1969
것은	-1970
은데	-1971
▁돈이	-1972
▁동화	-1973
▁별루	-1974
▁죽는	-1975
▁하면	-1976
▁완성도	-1977
▁우연히	-1978
▁기대하고	-1979
ST	-1980
▁친	-1981
오는	-1982
움이	-1983
▁바라	-1984
▁흘러	-1985
▁스타일	-1986
▁지루해	-1987
▁좋았어요	-1988
님이	-1989
▁대작	-1990
▁말고	-1991
▁인정	-1992
▁현재	-1993
▁것이다	-1994
▁모르는	-1995
▁대한민국	-1996
▁팔	-1997
랄까	-1998
평가	-1999
한듯	-2000
함과	-2001
▁!!	-2002
▁나쁜	-2003
▁되어	-2004
▁요소	-2005
▁알았다	-2006
▁영화보다	-2007
▁재미없어	-2008
스를	-2009
실망	-2010
심이	-2011
▁복수	-2012
▁신기	-2013
▁적당	-2014
▁진실	-2015
▁안된다	-2016
▁아무것도	-2017
▁아이들이	-2018
예산	-2019
▁전기	-2020
▁지금도	-2021
웠던	-2022
인간	-2023
▁관계	-2024
▁풀어	-2025
▁허술	-2026
우는	-2027
▁다행	-2028
▁메세	-2029
▁서로	-2030
▁영원	-2031
▁잊혀	-2032
▁어설프	-2033
▁재밌어	-2034
▁처음으로	-2035
--	-2036
네여	-2037
심을	-2038
▁중반	-2039
리아	-2040
▁낫다	-2041
▁노력	-2042
▁이러	-2043
같은데	-2044
안되는	-2045
▁ost	-2046
▁이런걸	-2047
▁특유의	-2048
▁화이팅	-2049
▁재미있고	-2050
▁유머	-2051
▁전문	-2052
▁전편	-2053
▁핵	-2054
기엔	-2055
리다	-2056
▁바람	-2057
▁성장	-2058
▁안보	-2059
▁즐겁	-2060
▁천재	-2061
더군요	-2062
▁다운받	-2063
▁앞으로	-2064
▁코메디	-2065
▁만들었다	-2066
▁ᄃᄃ	-2067
최고의	-2068
▁알았는데	-2069
▁촌	-2070
드가	-2071
상을	-2072
▁없을	-2073
▁웃겨	-2074
▁연출이	-2075
▁이런거	-2076
▁멀	-2077
있게	-2078
▁놀라	-2079
▁라는	-2080
▁저도	-2081
▁전작	-2082
▁청춘	-2083
안하고	-2084
▁탈	-2085
강추	-2086
세가	-2087
어울	-2088
▁나라	-2089
▁뭔지	-2090
▁부모	-2091
됩니다	-2092
▁영화에서	-2093
he	-2094
▁워	-2095
아먹	-2096
▁촬영	-2097
것이다	-2098
한다는	-2099
▁목소리	-2100
▁장면은	-2101
▁리메이크	-2102
▁유치하고	-2103
스로	-2104
한건	-2105
▁여성	-2106
▁왜이리	-2107
▁어렸을때	-2108
▁재미없고	-2109
점준	-2110
줄알	-2111
▁싫어	-2112
▁아프	-2113
▁우울	-2114
▁만들지	-2115
ᄏᄏᄏᄏᄏᄏᄏᄏᄏᄏᄏᄏᄏᄏᄏᄏ	-2116
자들	-2117
하겠	-2118
▁못보	-2119
▁않음	-2120
▁명작이다	-2121
화가	-2122
▁노출	-2123
▁또한	-2124
▁지난	-2125
▁말하고	-2126
▁류	-2127
그라	-2128
많이	-2129
▁그려	-2130
▁졸라	-2131
봅니다	-2132
소한	-2133
▁거지	-2134
▁뜬금	-2135
▁만큼	-2136
▁작품이	-2137
▁면	-2138
▁줘	-2139
리에	-2140
분이	-2141
식이	-2142
싶다	-2143
역시	-2144
ᅲᅲᅲ	-2145
▁게임	-2146
▁사건	-2147
▁중에	-2148
배우들	-2149
▁ᄒᄒᄒ	-2150
▁모습이	-2151
▁비슷한	-2152
▁아니지만	-2153
르고	-2154
장이	-2155
정을	-2156
치게	-2157
▁비추	-2158
▁아오	-2159
▁이래	-2160
▁이연	-2161
아니고	-2162
▁최악이다	-2163
▁D	-2164
려면	-2165
무슨	-2166
▁가득	-2167
▁정치	-2168
▁철학	-2169
영화에	-2170
▁귀여운	-2171
▁그렇고	-2172
▁않았다	-2173
▁하는데	-2174
▁시간낭비	-2175
▁짐	-2176
▁찬	-2177
▁플	-2178
▁합	-2179
개봉	-2180
이의	-2181
자는	-2182
▁그의	-2183
▁않을	-2184
▁이어	-2185
▁아닐까	-2186
▁스토리에	-2187
였던	-2188
▁누군	-2189
▁보여준	-2190
하면서도	-2191
▁드라마를	-2192
?)	-2193
분에	-2194
인거	-2195
▁12	-2196
▁돌려	-2197
▁이상한	-2198
▁진부한	-2199
▁재밌었어요	-2200
▁좋았습니다	-2201
▁접	-2202
▁학	-2203
놓은	-2204
▁안맞	-2205
▁어찌	-2206
▁왠지	-2207
▁해피	-2208
있는데	-2209
▁좋았고	-2210
▁생각한다	-2211
가요	-2212
걸까	-2213
던지	-2214
세계	-2215
인은	-2216
져서	-2217
지못	-2218
▁경찰	-2219
▁스케	-2220
▁행동	-2221
▁마음을	-2222
▁부족한	-2223
▁화려한	-2224
▁전체적으로	-2225
기억	-2226
▁15	-2227
▁남아	-2228
▁짱짱	-2229
▁그런데	-2230
▁못하고	-2231
▁얻	-2232
대사	-2233
▁귀신	-2234
▁눈이	-2235
면서도	-2236
▁감동적	-2237
▁반전이	-2238
▁안나오	-2239
▁너무나도	-2240
▁드라마가	-2241
▁잘봤습니다	-2242
▁영화였습니다	-2243
▁응	-2244
감을	-2245
수도	-2246
▁마치	-2247
▁먼저	-2248
▁미래	-2249
▁삶을	-2250
▁아는	-2251
▁아마	-2252
▁예전	-2253
▁전달	-2254
시간이	-2255
점짜리	-2256
▁같습니다	-2257
▁보고나서	-2258
심히	-2259
알바	-2260
자를	-2261
좋고	-2262
해주	-2263
..?	-2264
▁본다	-2265
▁손발	-2266
나온다	-2267
봤어요	-2268
재밌게	-2269
하는지	-2270
▁소재는	-2271
▁대단하다	-2272
▁무엇보다	-2273
▁샤	-2274
▁대충	-2275
▁성공	-2276
▁알겠	-2277
▁어렵	-2278
▁잘생	-2279
▁한계	-2280
수있는	-2281
었네요	-2282
점준다	-2283
해주는	-2284
▁여자가	-2285
▁이야기가	-2286
반전	-2287
▁나만	-2288
만하면	-2289
▁이런게	-2290
or	-2291
▁:	-2292
▁월	-2293
▁퍼	-2294
지네요	-2295
▁이영화가	-2296
▁논	-2297
기다	-2298
마저	-2299
모습	-2300
▁그랬	-2301
▁나머	-2302
▁다소	-2303
▁메시	-2304
▁환상	-2305
사람이	-2306
▁나에게	-2307
▁애들이	-2308
▁인상깊	-2309
▁지금봐도	-2310
▁늙	-2311
▁뒷	-2312
▁웬	-2313
▁짓	-2314
▁춤	-2315
다운	-2316
보이	-2317
▁깊은	-2318
▁이젠	-2319
▁예고편	-2320
▁자신의	-2321
▁영화중에	-2322
극장	-2323
리도	-2324
이해	-2325
인을	-2326
▁눈을	-2327
▁시도	-2328
▁확실히	-2329
순간	-2330
스는	-2331
스릴	-2332
좋다	-2333
▁러브	-2334
▁와닿	-2335
▁조연	-2336
▁피해	-2337
고싶다	-2338
▁나온다	-2339
▁있었던	-2340
▁어이없는	-2341
내요	-2342
새끼	-2343
▁밑에	-2344
▁자유	-2345
닝타임	-2346
▁모습을	-2347
▁케이블	-2348
▁했지만	-2349
▁허접한	-2350
ᄏᄏᄏᄏᄏ	-2351
▁매력적인	-2352
▁뜨	-2353
▁힐	-2354
가족	-2355
번째	-2356
~^^	-2357
▁군대	-2358
▁글쎄	-2359
▁낭비	-2360
▁미소	-2361
▁심심	-2362
사람들	-2363
했으면	-2364
▁같네요	-2365
▁잘만든	-2366
▁좋았는데	-2367
▁A	-2368
눈물	-2369
려다	-2370
마음	-2371
말로	-2372
▁알아	-2373
만으로	-2374
지도않	-2375
▁그런가	-2376
▁내용을	-2377
▁좋았음	-2378
아아	-2379
이제	-2380
지컬	-2381
특히	-2382
▁심리	-2383
도없고	-2384
스럽게	-2385
이에요	-2386
퀄리티	-2387
▁별로다	-2388
▁짜증나	-2389
▁영화이다	-2390
▁왜이렇게	-2391
▁프로그램	-2392
**	-2393
▁증	-2394
▁나를	-2395
▁연애	-2396
▁취향	-2397
이렇게	-2398
▁감사합니다	-2399
▁ᅮ	-2400
▁붙	-2401
겟다	-2402
과는	-2403
로서	-2404
일뿐	-2405
절한	-2406
▁고민	-2407
하기만	-2408
▁보이는	-2409
▁부분이	-2410
▁역시나	-2411
.2	-2412
▁딴	-2413
성애	-2414
어라	-2415
▁겁나	-2416
▁하루	-2417
였어요	-2418
▁감정이	-2419
▁제작비	-2420
▁스토리와	-2421
▁끊	-2422
더만	-2423
들만	-2424
로는	-2425
▁;;	-2426
▁ᄉᄇ	-2427
▁남주	-2428
▁다가	-2429
▁아놔	-2430
▁의외	-2431
지않는	-2432
▁해주는	-2433
▁느껴지는	-2434
▁영화보고	-2435
▁영화지만	-2436
무서	-2437
시켜	-2438
터리	-2439
할듯	-2440
▁그럼	-2441
▁실패	-2442
▁외국	-2443
▁젊은	-2444
▁찍은	-2445
없어서	-2446
▁사람을	-2447
▁세상에	-2448
▁어색한	-2449
▁연기에	-2450
▁저예산	-2451
▁카메라	-2452
▁+	-2453
▁G	-2454
소년	-2455
소재	-2456
었나	-2457
▁넘어	-2458
▁드는	-2459
▁해준	-2460
▁했던	-2461
▁화가	-2462
▁OST	-2463
▁나오고	-2464
▁사랑이	-2465
▁떨어지는	-2466
▁젤	-2467
저럭	-2468
쩐다	-2469
▁cg	-2470
▁감탄	-2471
▁느낀	-2472
▁순수한	-2473
▁아저씨	-2474
▁중간중간	-2475
▁처음이다	-2476
▁<	-2477
▁꾸	-2478
구려	-2479
는가	-2480
되지	-2481
▁오락	-2482
만드는	-2483
하세요	-2484
▁아닌데	-2485
▁여전히	-2486
▁씬	-2487
으론	-2488
이를	-2489
티비	-2490
▁가끔	-2491
▁역할	-2492
하려는	-2493
▁보는게	-2494
▁소재를	-2495
▁아니면	-2496
▁ᄏᄏᄏᄏᄏ	-2497
▁보지마세요	-2498
▁엑	-2499
다지	-2500
사는	-2501
와르	-2502
움을	-2503
▁기본	-2504
▁든다	-2505
▁특별	-2506
▁액션은	-2507
▁있다면	-2508
▁드라마는	-2509
▁w	-2510
▁곳	-2511
▁씁	-2512
명이	-2513
해보	-2514
▁나서	-2515
▁난다	-2516
▁맞는	-2517
▁섹시	-2518
▁이하	-2519
▁조폭	-2520
▁유쾌한	-2521
▁제작진	-2522
▁봤었는데	-2523
▁재미있음	-2524
▁꼴	-2525
▁밤	-2526
나올	-2527
▁마라	-2528
▁블랙	-2529
▁사극	-2530
▁슬픔	-2531
▁시선	-2532
▁유일	-2533
하다는	-2534
▁독특한	-2535
▁매력이	-2536
▁안하고	-2537
▁어이가	-2538
▁볼때마다	-2539
▁스토리를	-2540
니아	-2541
럽다	-2542
었어	-2543
위해	-2544
ᄒᄒᄒ	-2545
▁결론	-2546
▁까지	-2547
▁내생	-2548
▁리뷰	-2549
▁전에	-2550
▁호러	-2551
럭저럭	-2552
▁액션이	-2553
▁이유가	-2554
▁저렇게	-2555
▁연기력이	-2556
ou	-2557
▁폐	-2558
결말	-2559
트가	-2560
했을	-2561
▁가진	-2562
▁굿굿	-2563
▁다만	-2564
▁평생	-2565
▁귀엽고	-2566
▁그들의	-2567
▁끝나고	-2568
▁안되고	-2569
▁평범한	-2570
▁아름답고	-2571
▁쩔	-2572
먹고	-2573
하던	-2574
▁괴물	-2575
▁모자	-2576
▁미스	-2577
▁예쁜	-2578
▁이기	-2579
영화도	-2580
▁기대를	-2581
▁소름끼	-2582
▁흥미롭	-2583
래기	-2584
레스	-2585
씨가	-2586
었네	-2587
▁해주	-2588
▁감동적이고	-2589
▁돼	-2590
아라	-2591
었을	-2592
있네	-2593
펑펑	-2594
(?)	-2595
▁라이	-2596
▁살짝	-2597
▁악역	-2598
▁연예	-2599
▁일어	-2600
더라도	-2601
식으로	-2602
이라서	-2603
하지마	-2604
▁다큐멘	-2605
▁연기와	-2606
▁재밌었는데	-2607
▁밝	-2608
▁헛	-2609
끼리	-2610
시아	-2611
싶은	-2612
화를	-2613
▁굳이	-2614
▁깔끔	-2615
▁사이	-2616
▁시원	-2617
▁안됨	-2618
▁통해	-2619
▁희생	-2620
한다면	-2621
▁남는다	-2622
▁몰입이	-2623
▁보기엔	-2624
거냐	-2625
즈니	-2626
▁고전	-2627
▁봤다가	-2628
▁어린이	-2629
▁풋	-2630
들고	-2631
디어	-2632
▁과연	-2633
▁난해	-2634
▁분노	-2635
▁올라	-2636
▁용서	-2637
▁일상	-2638
버렸다	-2639
았어요	-2640
있어요	-2641
더라구요	-2642
▁사랑하는	-2643
▁아름답다	-2644
▁녹	-2645
원이	-2646
유치	-2647
편을	-2648
▁슈퍼	-2649
▁압권	-2650
▁종교	-2651
▁슬프다	-2652
▁어렸을	-2653
▁어릴적	-2654
았습니다	-2655
▁주인공의	-2656
99	-2657
▁겉	-2658
▁십	-2659
따라	-2660
어진	-2661
주얼	-2662
▁나타	-2663
▁스트	-2664
에서의	-2665
▁음악이	-2666
▁이건뭐	-2667
▁정말로	-2668
▁현실을	-2669
▁그럭저럭	-2670
▁짜증나는	-2671
▁하나하나	-2672
▁추천합니다	-2673
bb	-2674
▁짠	-2675
▁톰	-2676
같음	-2677
걸로	-2678
까진	-2679
나가	-2680
듯이	-2681
한것	-2682
▁같음	-2683
▁불쾌	-2684
▁좋을	-2685
▁되었다	-2686
▁사랑에	-2687
▁아닌듯	-2688
▁잼있게	-2689
▁나왔으면	-2690
▁전기세가	-2691
▁생각합니다	-2692
른다	-2693
서야	-2694
있음	-2695
▁부터	-2696
▁재난	-2697
▁표절	-2698
구하고	-2699
▁열심히	-2700
▁이연걸	-2701
▁작품성	-2702
▁재미를	-2703
▁처음엔	-2704
▁I	-2705
▁칼	-2706
대는	-2707
무비	-2708
무섭	-2709
안되	-2710
제목	-2711
한국	-2712
▁막판	-2713
▁무지	-2714
▁포장	-2715
▁후속	-2716
으로서	-2717
▁더이상	-2718
▁보시길	-2719
▁만들어진	-2720
▁재미없네	-2721
an	-2722
▁챙	-2723
이터	-2724
▁개판	-2725
▁뮤지컬	-2726
▁신선한	-2727
▁아까워	-2728
▁영화냐	-2729
▁티비에서	-2730
▁재밌습니다	-2731
▁덜	-2732
▁밥	-2733
▁썩	-2734
▁축	-2735
▁침	-2736
기의	-2737
류의	-2738
불가	-2739
줌마	-2740
▁동물	-2741
▁보시	-2742
▁포기	-2743
지않은	-2744
▁공감이	-2745
▁기분이	-2746
▁싸이코	-2747
▁오그라	-2748
▁재밋게	-2749
▁진심으로	-2750
▁늦	-2751
▁던	-2752
▁뭉	-2753
겹다	-2754
버렸	-2755
이니	-2756
▁무협	-2757
▁소녀	-2758
▁영환	-2759
좋아요	-2760
▁그렇다	-2761
▁배우의	-2762
▁상상력	-2763
기로	-2764
대가	-2765
돌아	-2766
들에	-2767
보여	-2768
사를	-2769
▁감명	-2770
▁몸매	-2771
▁상처	-2772
▁자막	-2773
▁채널	-2774
▁사랑과	-2775
이유	-2776
이크	-2777
진심	-2778
▁고생	-2779
▁놀랍	-2780
▁되게	-2781
▁크게	-2782
▁현대	-2783
▁형편	-2784
점주는	-2785
했다는	-2786
▁볼만함	-2787
▁소재가	-2788
▁이유는	-2789
!!!!!	-2790
re	-2791
▁격	-2792
▁쩌	-2793
겼다	-2794
수는	-2795
시킨	-2796
줘서	-2797
히는	-2798
▁떠나	-2799
▁레이	-2800
▁말로	-2801
▁보러	-2802
▁사는	-2803
▁아침	-2804
▁있나	-2805
▁혹시	-2806
▁흐름	-2807
년전에	-2808
지않고	-2809
▁감동과	-2810
▁추억의	-2811
▁퀄리티	-2812
▁말이필요	-2813
▁이정도면	-2814
▁퇴	-2815
와는	-2816
이며	-2817
쵝오	-2818
할까	-2819
▁같아	-2820
▁그지	-2821
▁수도	-2822
▁쓸데	-2823
▁전투	-2824
▁폭력	-2825
▁표정	-2826
연기가	-2827
▁그다지	-2828
▁봤으면	-2829
▁필요한	-2830
▁징	-2831
그렇	-2832
리기	-2833
봤음	-2834
표현	-2835
▁가서	-2836
▁동생	-2837
▁삶의	-2838
▁쉽게	-2839
평점이	-2840
▁없지만	-2841
▁하네요	-2842
▁등장인물	-2843
▁생각나는	-2844
20	-2845
▁쇼	-2846
▁엘	-2847
명의	-2848
상이	-2849
아주	-2850
안에	-2851
오빠	-2852
웠음	-2853
해준	-2854
▁두고	-2855
▁어제	-2856
▁오버	-2857
보는게	-2858
아까운	-2859
▁마무리	-2860
▁볼수록	-2861
▁소름돋	-2862
▁지루하지	-2863
▁지루해서	-2864
▁필요없다	-2865
▁꼽	-2866
▁맡	-2867
▁잤	-2868
수의	-2869
아님	-2870
었지	-2871
지말	-2872
▁강렬	-2873
▁남녀	-2874
▁드러	-2875
▁부끄	-2876
▁북한	-2877
▁설레	-2878
▁신경	-2879
▁정서	-2880
▁몇번을	-2881
▁우리가	-2882
▁좋았던	-2883
재밌어요	-2884
▁보고싶다	-2885
▁필요없는	-2886
▁해피엔딩	-2887
▁재미있네요	-2888
지의	-2889
▁그립	-2890
▁말할	-2891
▁무시	-2892
▁아련	-2893
▁태어	-2894
▁힐링	-2895
까지는	-2896
속에서	-2897
하다가	-2898
▁가볍게	-2899
▁나중에	-2900
▁비주얼	-2901
▁사람의	-2902
▁스케일	-2903
▁보고싶은	-2904
▁좋습니다	-2905
▁잇	-2906
▁컨	-2907
도가	-2908
언가	-2909
▁남을	-2910
▁반성	-2911
▁비극	-2912
▁사기	-2913
▁산만	-2914
▁속편	-2915
▁끝나는	-2916
▁디즈니	-2917
▁반전도	-2918
▁소재로	-2919
▁수준이	-2920
▁연출도	-2921
▁음악도	-2922
▁몽	-2923
▁움	-2924
▁활	-2925
독교	-2926
르노	-2927
엄마	-2928
오글	-2929
의미	-2930
이자	-2931
전쟁	-2932
▁70	-2933
▁ᄋᄋ	-2934
▁거짓	-2935
▁눈빛	-2936
▁미치	-2937
▁선생	-2938
▁의심	-2939
▁이루	-2940
▁있게	-2941
▁조잡	-2942
버리고	-2943
재미없	-2944
▁몰라도	-2945
▁제목이	-2946
▁하면서	-2947
.1	-2948
▁i	-2949
▁끄	-2950
관계	-2951
에만	-2952
정신	-2953
중의	-2954
친다	-2955
▁국민	-2956
▁보이	-2957
▁소장	-2958
▁없나	-2959
▁의문	-2960
▁있지	-2961
▁좋아서	-2962
▁뇌	-2963
▁김기	-2964
▁능력	-2965
▁말을	-2966
▁본방	-2967
▁심각	-2968
▁올해	-2969
▁일부	-2970
▁통쾌	-2971
하기도	-2972
▁봐야할	-2973
~~~~~~~~	-2974
?!	-2975
▁찡	-2976
거운	-2977
나이	-2978
밋밋	-2979
일본	-2980
자단	-2981
찝찝	-2982
▁건지	-2983
▁깊이	-2984
▁스크	-2985
▁역겨	-2986
거리는	-2987
봣는데	-2988
연기도	-2989
영화임	-2990
캐릭터	-2991
▁슬프고	-2992
▁시간을	-2993
▁싸구려	-2994
▁아이들	-2995
▁언제나	-2996
재미없다	-2997
,2	-2998
▁ᄌ	-2999
▁윌	-3000
가능	-3001
그인	-3002
두고	-3003
봐요	-3004
있어	-3005
▁광고	-3006
▁라고	-3007
했는지	-3008
▁마세요	-3009
▁엉성한	-3010
▁인생을	-3011
▁점수를	-3012
영화라고	-3013
▁다시한번	-3014
on	-3015
▁쉬	-3016
▁흡	-3017
라스	-3018
마스	-3019
봤던	-3020
트콤	-3021
▁40	-3022
▁가까	-3023
▁깨닫	-3024
▁받아	-3025
▁악당	-3026
▁않게	-3027
▁죽여	-3028
▁지구	-3029
사람은	-3030
▁만들고	-3031
▁쓰래기	-3032
▁이제야	-3033
▁있습니다	-3034
ad	-3035
▁농	-3036
구니	-3037
▁스티	-3038
▁싶어	-3039
▁아픔	-3040
▁오랫	-3041
▁이쁜	-3042
▁인터	-3043
▁존경	-3044
▁펑펑	-3045
▁불구하고	-3046
▁헐리우드	-3047
드의	-3048
만화	-3049
뻐서	-3050
우리	-3051
이후	-3052
하신	-3053
▁그린	-3054
▁방금	-3055
▁생애	-3056
▁싫다	-3057
▁이때	-3058
▁하이	-3059
▁홍보	-3060
감독이	-3061
장면이	-3062
▁뛰어난	-3063
▁봣는데	-3064
▁웃기고	-3065
▁이해할	-3066
▁재밌네	-3067
▁사랑스러운	-3068
▁뉴	-3069
▁쫌	-3070
느라	-3071
란다	-3072
해진	-3073
▁그걸	-3074
▁둘다	-3075
▁섬세	-3076
▁평이	-3077
▁풋풋	-3078
하시는	-3079
...?	-3080
▁낮아서	-3081
▁어려운	-3082
▁액션영화	-3083
▁영화라는	-3084
▁납	-3085
▁뜻	-3086
만점	-3087
하셨	-3088
▁그것	-3089
▁나가	-3090
▁딱히	-3091
▁씁쓸	-3092
▁잊을	-3093
▁눈물을	-3094
▁드럽게	-3095
▁마이너	-3096
▁산으로	-3097
▁시사회	-3098
▁지루할	-3099
▁^	-3100
▁줬	-3101
가락	-3102
나왔	-3103
로우	-3104
아가	-3105
▁니콜	-3106
▁되고	-3107
▁발전	-3108
▁살다	-3109
▁새벽	-3110
▁연결	-3111
▁죄다	-3112
영화라	-3113
▁결말도	-3114
▁결말은	-3115
▁무언가	-3116
▁아쉬움	-3117
▁재밌었음	-3118
▁끔	-3119
▁쌍	-3120
▁좌	-3121
괜찮	-3122
남는	-3123
식을	-3124
여운	-3125
을거	-3126
이션	-3127
자고	-3128
▁단연	-3129
▁밋밋	-3130
▁생생	-3131
▁할말	-3132
아니라	-3133
집니다	-3134
▁느낌을	-3135
▁느와르	-3136
▁베스트	-3137
▁이따위	-3138
▁정신병	-3139
▁재미있었다	-3140
▁꽃	-3141
▁닥	-3142
▁익	-3143
▁푹	-3144
감도	-3145
나와	-3146
버리	-3147
줘야	-3148
학년	-3149
한지	-3150
007	-3151
▁고통	-3152
▁대표	-3153
▁때문	-3154
▁바뀌	-3155
▁성인	-3156
▁스포	-3157
▁일반	-3158
▁좀더	-3159
▁쵝오	-3160
수없는	-3161
한다고	-3162
▁어머니	-3163
▁있어요	-3164
▁지금은	-3165
▁닮	-3166
성에	-3167
온다	-3168
작이	-3169
하라	-3170
▁고등	-3171
▁나옴	-3172
▁나은	-3173
▁남겨	-3174
▁묘사	-3175
▁아나	-3176
랍니다	-3177
였지만	-3178
▁남자가	-3179
▁못했다	-3180
▁몰입해서	-3181
▁배우들도	-3182
▁일본영화	-3183
▁싱	-3184
▁잭	-3185
나도	-3186
피소	-3187
하구	-3188
000	-3189
▁많다	-3190
▁분들	-3191
▁느끼는	-3192
▁보니까	-3193
▁여기서	-3194
▁연기자	-3195
▁출연진	-3196
▁폴	-3197
답답	-3198
사의	-3199
ver	-3200
▁과장	-3201
▁끝난	-3202
▁되지	-3203
▁시걸	-3204
▁시시	-3205
▁안돼	-3206
▁외계	-3207
▁우주	-3208
아까움	-3209
하려고	-3210
▁뻔하고	-3211
▁스스로	-3212
▁헐리웃	-3213
▁현실적인	-3214
▁재미없어요	-3215
at	-3216
ie	-3217
▁냉	-3218
▁체	-3219
소설	-3220
▁슬퍼	-3221
▁아들	-3222
▁아류	-3223
▁에이	-3224
▁인도	-3225
▁한데	-3226
급영화	-3227
스릴러	-3228
아니다	-3229
었는지	-3230
으로써	-3231
자체가	-3232
캐스팅	-3233
▁견자단	-3234
▁단순한	-3235
▁떠나서	-3236
▁로그인	-3237
▁멋지다	-3238
▁시대를	-3239
▁없다는	-3240
▁작가가	-3241
▁아직까지	-3242
▁쪽	-3243
셔서	-3244
영이	-3245
인들	-3246
함에	-3247
ing	-3248
▁단지	-3249
▁발로	-3250
▁상업	-3251
▁영국	-3252
▁전반	-3253
겠네요	-3254
▁같아서	-3255
▁모든게	-3256
▁무엇을	-3257
▁생각없이	-3258
▁이거보고	-3259
."	-3260
▁뽑	-3261
▁앤	-3262
도안	-3263
우고	-3264
점주	-3265
져요	-3266
▁높다	-3267
▁뒤로	-3268
▁레전	-3269
▁벌써	-3270
▁와우	-3271
▁찝찝	-3272
▁흔한	-3273
줍니다	-3274
▁"""	-3275
▁옛날에	-3276
▁전문가	-3277
▁집에서	-3278
▁할말이	-3279
▁러닝타임	-3280
▁영화보는	-3281
▁푸	-3282
과의	-3283
긴다	-3284
로도	-3285
만드	-3286
인트	-3287
쳤다	-3288
▁명품	-3289
▁시각	-3290
▁연속	-3291
▁외모	-3292
▁은근	-3293
▁지켜	-3294
내용도	-3295
▁누구나	-3296
▁만든다	-3297
▁싶네요	-3298
▁안보고	-3299
▁않지만	-3300
▁작품을	-3301
▁즐겁게	-3302
▁잔잔하고	-3303
▁이런영화가	-3304
BS	-3305
▁줌	-3306
▁흉	-3307
계의	-3308
나옴	-3309
노래	-3310
럽고	-3311
았고	-3312
▁50	-3313
▁다니	-3314
▁발견	-3315
▁주변	-3316
겠어요	-3317
인가요	-3318
▁위대한	-3319
▁청소년	-3320
▁영화에요	-3321
▁기대안하고	-3322
▁ᄋ	-3323
▁떡	-3324
러디	-3325
려요	-3326
부족	-3327
시작	-3328
씬은	-3329
양이	-3330
▁놀랐	-3331
▁망쳐	-3332
▁보길	-3333
▁안봤	-3334
▁않아	-3335
▁에휴	-3336
더라면	-3337
리스마	-3338
아버지	-3339
처구니	-3340
▁기독교	-3341
▁생각하고	-3342
▁유쾌하고	-3343
▁섞	-3344
♡♡	-3345
거임	-3346
냐고	-3347
젠장	-3348
편의	-3349
▁18	-3350
▁갈등	-3351
▁공부	-3352
▁맨날	-3353
▁못할	-3354
▁믿을	-3355
▁반복	-3356
▁빼고	-3357
▁특이	-3358
소리가	-3359
▁ᅲᅲᅲ	-3360
▁김기덕	-3361
▁대사가	-3362
▁생각나	-3363
▁시트콤	-3364
▁있네요	-3365
▁초반에	-3366
배우들의	-3367
▁E	-3368
따구	-3369
물을	-3370
시에	-3371
애들	-3372
언니	-3373
장난	-3374
호가	-3375
▁13	-3376
▁무비	-3377
▁속에	-3378
▁처럼	-3379
▁특수	-3380
▁한참	-3381
스러움	-3382
시간에	-3383
아까워	-3384
▁마이클	-3385
▁빠져들	-3386
▁아이돌	-3387
▁인생의	-3388
▁탄탄한	-3389
▁하는지	-3390
▁힘들다	-3391
봤습니다	-3392
▁시간가는	-3393
.4	-3394
▁쥐	-3395
▁쿠	-3396
불어	-3397
지어	-3398
쳐서	-3399
▁가져	-3400
▁결과	-3401
▁국내	-3402
▁다양	-3403
▁문화	-3404
▁볼게	-3405
▁움직	-3406
▁치밀	-3407
▁편견	-3408
재밌다	-3409
▁없는데	-3410
▁음악과	-3411
▁있어야	-3412
▁좋아할	-3413
▁모르겠고	-3414
▁빡	-3415
간의	-3416
겠음	-3417
되서	-3418
석이	-3419
정은	-3420
제작	-3421
키는	-3422
하려	-3423
했네	-3424
▁검색	-3425
▁관심	-3426
▁꿈을	-3427
▁떠오	-3428
▁미모	-3429
▁여행	-3430
▁제로	-3431
▁찌질	-3432
▁타임	-3433
비디오	-3434
시키는	-3435
▁울었다	-3436
▁이쁘고	-3437
겠습니다	-3438
▁그렇다고	-3439
▁보고나면	-3440
▁안타깝다	-3441
▁최고입니다	-3442
ll	-3443
▁f	-3444
계속	-3445
날때	-3446
라가	-3447
아프	-3448
와의	-3449
이로	-3450
편도	-3451
▁끌어	-3452
▁로봇	-3453
▁무척	-3454
▁코난	-3455
▁해리	-3456
차라리	-3457
하겠다	-3458
하다니	-3459
▁대부분	-3460
▁아줌마	-3461
▁있으면	-3462
▁즐거운	-3463
▁영화였어요	-3464
ov	-3465
▁[	-3466
당한	-3467
트맨	-3468
하진	-3469
▁고마	-3470
▁노답	-3471
▁달달	-3472
▁뭉클	-3473
▁불러	-3474
▁우와	-3475
야말로	-3476
▁덕분에	-3477
▁말하는	-3478
▁멍청한	-3479
▁사랑의	-3480
▁아깝지	-3481
▁에피소	-3482
▁의외로	-3483
▁잔인한	-3484
▁독립영화	-3485
▁영화인듯	-3486
▁따뜻해지는	-3487
▁낳	-3488
▁센	-3489
▁콜	-3490
씨의	-3491
▁기술	-3492
▁내려	-3493
▁높아	-3494
▁새롭	-3495
▁슬펐	-3496
▁아역	-3497
▁왜케	-3498
▁좋게	-3499
▁할까	-3500
으니까	-3501
▁007	-3502
▁본영화	-3503
▁재밋다	-3504
▁히어로	-3505
▁긴장감도	-3506
▁볼만하다	-3507
▁쓰레기다	-3508
▁아쉽네요	-3509
▁작품이다	-3510
▁재미있었어요	-3511
ᅲᅲᅲᅲᅲᅲᅲᅲ	-3512
bs	-3513
몰입	-3514
성은	-3515
테일	-3516
▁경험	-3517
▁눈에	-3518
▁늘어	-3519
▁동안	-3520
▁많아	-3521
▁복잡	-3522
▁섹스	-3523
▁울고	-3524
▁인내	-3525
▁자살	-3526
▁짝퉁	-3527
▁쩐다	-3528
가지고	-3529
내용이	-3530
▁나오면	-3531
▁보았다	-3532
▁봤더니	-3533
▁비현실	-3534
▁이후로	-3535
▁인간이	-3536
▁신선하고	-3537
▁초등학생	-3538
om	-3539
▁업	-3540
거라	-3541
기분	-3542
사수	-3543
이스	-3544
▁거슬	-3545
▁만나	-3546
▁세월	-3547
▁신파	-3548
▁암튼	-3549
▁조합	-3550
▁죽은	-3551
▁최강	-3552
았지만	-3553
용으로	-3554
장에서	-3555
▁the	-3556
▁감정을	-3557
▁무섭다	-3558
▁빼고는	-3559
▁사랑은	-3560
▁유명한	-3561
▁좋지만	-3562
▁어처구니	-3563
▁모르겠지만	-3564
▁ᄀ	-3565
▁썼	-3566
▁척	-3567
거면	-3568
것만	-3569
관이	-3570
미가	-3571
버트	-3572
살다	-3573
성치	-3574
엇다	-3575
저도	-3576
"""	-3577
▁거기	-3578
▁극치	-3579
▁민망	-3580
▁박진	-3581
▁어휴	-3582
▁오바	-3583
▁힘이	-3584
편보다	-3585
했네요	-3586
▁!!!	-3587
▁남자의	-3588
▁박수를	-3589
▁아이가	-3590
▁없었던	-3591
▁영화들	-3592
▁원작의	-3593
▁장면에서	-3594
▁흥미로운	-3595
▁쓰레기같은	-3596
대를	-3597
사이	-3598
영환	-3599
체가	-3600
함은	-3601
해지	-3602
▁방법	-3603
▁작은	-3604
▁조선	-3605
▁틀어	-3606
▁허세	-3607
갈수록	-3608
▁더러운	-3609
▁레전드	-3610
▁멋있다	-3611
▁보인다	-3612
▁손발이	-3613
드립니다	-3614
▁연기력도	-3615
▁좋았지만	-3616
만을	-3617
버림	-3618
어이	-3619
였고	-3620
원작	-3621
▁가면	-3622
▁겨울	-3623
▁달라	-3624
▁바꿔	-3625
▁살고	-3626
▁않나	-3627
▁웃김	-3628
▁일품	-3629
▁직접	-3630
거같다	-3631
버스터	-3632
점정도	-3633
▁더불어	-3634
▁웃음이	-3635
▁하나의	-3636
▁개연성이	-3637
▁지루하게	-3638
▁카리스마	-3639
▁학교에서	-3640
▁갠	-3641
▁됨	-3642
▁뱀	-3643
▁픽	-3644
상황	-3645
적은	-3646
▁게이	-3647
▁김민	-3648
▁삶에	-3649
▁설마	-3650
▁어우	-3651
▁우정	-3652
▁일이	-3653
▁죽을	-3654
▁챙겨	-3655
버리는	-3656
없네요	-3657
▁본다면	-3658
▁역대급	-3659
▁완전히	-3660
▁의미를	-3661
사람들이	-3662
▁유치하다	-3663
▁좋았으나	-3664
.........	-3665
VD	-3666
▁멘	-3667
▁컴	-3668
▁탐	-3669
것들	-3670
려나	-3671
로만	-3672
받은	-3673
제가	-3674
▁가벼	-3675
▁교육	-3676
▁다룬	-3677
▁못해	-3678
▁빌려	-3679
▁제이	-3680
그대로	-3681
었을까	-3682
에대한	-3683
▁게다가	-3684
▁누군가	-3685
▁스크린	-3686
▁유치함	-3687
▁이유를	-3688
▁한번쯤	-3689
▁생각하는	-3690
▁재밌다고	-3691
▁좋겠어요	-3692
▁지루했다	-3693
▁기대했는데	-3694
감은	-3695
동생	-3696
레딧	-3697
설정	-3698
성의	-3699
세상	-3700
우기	-3701
이래	-3702
인도	-3703
주가	-3704
했어	-3705
▁11	-3706
▁그거	-3707
▁기가	-3708
▁끝이	-3709
▁똑같	-3710
▁먹고	-3711
▁모를	-3712
▁못생	-3713
▁미드	-3714
▁비판	-3715
▁정의	-3716
▁학생	-3717
년만에	-3718
해진다	-3719
▁뛰어넘	-3720
▁뿐이다	-3721
▁포르노	-3722
▁지나치게	-3723
▁평점보고	-3724
zz	-3725
▁꽝	-3726
가슴	-3727
갔다	-3728
그리	-3729
머리	-3730
아직	-3731
억지	-3732
요일	-3733
편에	-3734
▁깜짝	-3735
▁많고	-3736
▁보긴	-3737
▁보며	-3738
▁여태	-3739
▁영혼	-3740
▁화끈	-3741
긴한데	-3742
끝까지	-3743
배우가	-3744
본영화	-3745
재밌음	-3746
하던데	-3747
▁재미잇	-3748
▁패러디	-3749
▁표현한	-3750
▁보여주고	-3751
▁잊혀지지	-3752
▁좋아해서	-3753
▁엠	-3754
▁옆	-3755
▁웨	-3756
▁탁	-3757
는건	-3758
니깐	-3759
리언	-3760
물이	-3761
받고	-3762
운드	-3763
▁당연	-3764
▁도전	-3765
▁봤을	-3766
▁이끌	-3767
▁이용	-3768
▁조용	-3769
▁지겨	-3770
▁투자	-3771
,.,.	-3772
▁모르게	-3773
▁못한다	-3774
▁싶은데	-3775
▁않을까	-3776
▁알바들	-3777
▁이쁘다	-3778
▁전설의	-3779
▁느껴진다	-3780
▁드립니다	-3781
▁진부하고	-3782
ar	-3783
▁l	-3784
▁p	-3785
▁런	-3786
▁콩	-3787
니당	-3788
루스	-3789
명을	-3790
부작	-3791
시즌	-3792
아쉽	-3793
요즘	-3794
임을	-3795
있나	-3796
제발	-3797
▁몇몇	-3798
▁커플	-3799
▁해결	-3800
들이랑	-3801
학교때	-3802
▁감동의	-3803
▁들었다	-3804
▁반개도	-3805
▁봤을때	-3806
▁아까울	-3807
▁우리의	-3808
▁전개도	-3809
▁좋았을	-3810
▁주성치	-3811
▁사람들의	-3812
▁이해하기	-3813
▁다큐멘터리	-3814
▁사랑이야기	-3815
▁e	-3816
▁엽	-3817
냄새	-3818
먹는	-3819
배경	-3820
솔직	-3821
슬프	-3822
신은	-3823
했나	-3824
▁관한	-3825
▁김수	-3826
▁따로	-3827
▁레알	-3828
▁아닙	-3829
▁영어	-3830
▁이정	-3831
▁잠깐	-3832
▁타이	-3833
보지마	-3834
인들이	-3835
▁가슴에	-3836
▁대해서	-3837
▁모두가	-3838
▁볼수있	-3839
▁재미와	-3840
▁감동적이다	-3841
▁좋아하는데	-3842
▁한국영화는	-3843
▁팀	-3844
놈들	-3845
로써	-3846
분은	-3847
비가	-3848
아나	-3849
아무	-3850
임스	-3851
자나	-3852
출연	-3853
토록	-3854
회가	-3855
▁못함	-3856
▁세련	-3857
▁아기	-3858
▁인기	-3859
▁젠장	-3860
감독의	-3861
보다도	-3862
점이다	-3863
▁개막장	-3864
▁그녀의	-3865
▁넘치는	-3866
▁보려고	-3867
▁보여줬	-3868
▁볼거리	-3869
♥♥♥♥	-3870
사람들은	-3871
▁괜찮은데	-3872
▁무섭지도	-3873
11	-3874
▁빅	-3875
▁쏟	-3876
▁탑	-3877
다음	-3878
뻔한	-3879
속의	-3880
식의	-3881
이걸	-3882
이기	-3883
이러	-3884
▁감흥	-3885
▁공짜	-3886
▁국가	-3887
▁담아	-3888
▁대중	-3889
▁변태	-3890
▁어지	-3891
▁응원	-3892
▁이럴	-3893
▁짜임	-3894
▁착한	-3895
▁필름	-3896
그래서	-3897
은영화	-3898
..^^	-3899
▁1,2	-3900
▁똑같은	-3901
▁스파이	-3902
▁점수가	-3903
▁참으로	-3904
좋아하는	-3905
▁부족하다	-3906
▁앞으로도	-3907
▁왠만하면	-3908
▁웃기지도	-3909
!!!!!!!!!!!!!!!!	-3910
▁h	-3911
▁쏘	-3912
▁옥	-3913
기지	-3914
씬이	-3915
포터	-3916
▁류승	-3917
▁뭐라	-3918
▁안본	-3919
▁없지	-3920
▁올려	-3921
▁이도	-3922
▁할리	-3923
되었다	-3924
▁말아먹	-3925
▁우리는	-3926
▁작품은	-3927
▁죽이고	-3928
▁아름다움	-3929
▁이제서야	-3930
▁재밌던데	-3931
▁봉	-3932
▁찰	-3933
느니	-3934
님들	-3935
받는	-3936
버그	-3937
삭제	-3938
시청	-3939
얼굴	-3940
요소	-3941
자연	-3942
주연	-3943
..1	-3944
.^^	-3945
▁간다	-3946
▁감히	-3947
▁개뿔	-3948
▁겨우	-3949
▁내면	-3950
▁대화	-3951
▁보자	-3952
▁아동	-3953
▁야동	-3954
▁잊지	-3955
▁주말	-3956
▁풍경	-3957
되네요	-3958
려다가	-3959
연기력	-3960
..;;	-3961
▁199	-3962
▁DVD	-3963
▁명작이	-3964
▁없어요	-3965
▁있는지	-3966
▁행복한	-3967
지도않고	-3968
▁긴장감이	-3969
▁보여준다	-3970
▁스토리의	-3971
▁있었지만	-3972
.,	-3973
▁k	-3974
▁y	-3975
▁됬	-3976
▁술	-3977
만은	-3978
문제	-3979
소녀	-3980
얘기	-3981
우가	-3982
점줌	-3983
▁받을	-3984
▁블록	-3985
▁빈약	-3986
▁신비	-3987
▁싶을	-3988
▁악마	-3989
▁욕망	-3990
▁이민	-3991
▁자주	-3992
▁제시	-3993
스타일	-3994
이영화	-3995
▁심하게	-3996
▁원작이	-3997
▁장르가	-3998
▁정도의	-3999
▁하는거	-4000
▁할머니	-4001
▁잼있어요	-4002
▁캐릭터가	-4003
▁말도안되는	-4004
▁영화보면서	-4005
▁맹	-4006
▁쩝	-4007
겨진	-4008
나다	-4009
더빙	-4010
드시	-4011
무지	-4012
역사	-4013
이들	-4014
초반	-4015
후반	-4016
▁강력	-4017
▁깨달	-4018
▁무술	-4019
▁어두	-4020
▁오로	-4021
▁인해	-4022
있어서	-4023
▁몰입감	-4024
▁생각함	-4025
▁왜이래	-4026
▁있구나	-4027
보고싶다	-4028
▁어린시절	-4029
ᄏᄏᄏᄏᄏᄏ	-4030
▁보았습니다	-4031
▁멈	-4032
▁육	-4033
게요	-4034
년의	-4035
도는	-4036
루즈	-4037
았을	-4038
애가	-4039
오늘	-4040
원의	-4041
▁다루	-4042
▁드림	-4043
▁보통	-4044
▁수고	-4045
▁최초	-4046
장면은	-4047
했다고	-4048
▁감명깊	-4049
▁그당시	-4050
▁깨닫게	-4051
▁배우를	-4052
▁세상을	-4053
▁한심한	-4054
▁재미없게	-4055
▁짜증난다	-4056
▁끈	-4057
관람	-4058
드로	-4059
라기	-4060
러워	-4061
리카	-4062
어여	-4063
음이	-4064
인것	-4065
인과	-4066
100	-4067
▁그건	-4068
▁기발	-4069
▁떠올	-4070
▁설득	-4071
▁아픈	-4072
▁안볼	-4073
▁짝이	-4074
▁찍어	-4075
어떻게	-4076
자들이	-4077
▁관객을	-4078
▁노래도	-4079
▁막판에	-4080
▁문제가	-4081
▁수준의	-4082
▁않네요	-4083
▁영원히	-4084
▁영화네	-4085
▁위해서	-4086
▁잼있다	-4087
보는내내	-4088
▁2014	-4089
▁개연성도	-4090
▁뿌	-4091
▁옷	-4092
개인	-4093
능력	-4094
▁둘이	-4095
▁방영	-4096
▁사진	-4097
▁이소	-4098
▁작위	-4099
▁전율	-4100
▁하네	-4101
년도에	-4102
▁내가본	-4103
▁분들은	-4104
▁자신을	-4105
▁자신이	-4106
▁죽는줄	-4107
▁훈훈한	-4108
것같아요	-4109
마지막에	-4110
▁생각하면	-4111
▁명작입니다	-4112
12	-4113
▁깎	-4114
▁엿	-4115
▁칭	-4116
냈다	-4117
는대	-4118
모든	-4119
지요	-4120
추기	-4121
티브	-4122
OOO	-4123
▁낚시	-4124
▁만한	-4125
▁무리	-4126
▁바꾸	-4127
▁범인	-4128
▁볼거	-4129
▁살려	-4130
▁우려	-4131
▁위로	-4132
▁해라	-4133
▁효과	-4134
♥♥♥	-4135
▁가치가	-4136
▁그렇지	-4137
▁답답한	-4138
▁동성애	-4139
▁미스터	-4140
▁보다는	-4141
▁분위기가	-4142
▁생각나서	-4143
▁있었는데	-4144
▁시간가는줄	-4145
????????	-4146
▁앉	-4147
건만	-4148
드를	-4149
리네	-4150
보자	-4151
분의	-4152
연이	-4153
왔다	-4154
이어	-4155
취향	-4156
통령	-4157
▁결정	-4158
▁등등	-4159
▁모험	-4160
▁오빠	-4161
▁유지	-4162
▁인디	-4163
▁잔뜩	-4164
▁테러	-4165
▁하늘	-4166
▁해석	-4167
겠다는	-4168
기에는	-4169
다는걸	-4170
듭니다	-4171
분들은	-4172
▁기다려	-4173
▁나오지	-4174
▁대놓고	-4175
▁디테일	-4176
▁오랜만	-4177
▁중요한	-4178
▁만들어도	-4179
▁보지마라	-4180
▁알겠는데	-4181
▁이런영화를	-4182
en	-4183
▁n	-4184
겨서	-4185
그만	-4186
다큐	-4187
데이	-4188
라인	-4189
바로	-4190
부를	-4191
세포	-4192
쓰고	-4193
어린	-4194
짱짱	-4195
피스	-4196
▁21	-4197
▁남은	-4198
▁대본	-4199
▁도망	-4200
▁아예	-4201
▁야구	-4202
▁여름	-4203
▁올리	-4204
▁장애	-4205
▁제외	-4206
▁조니	-4207
▁지났	-4208
만큼은	-4209
지말고	-4210
하고자	-4211
ᄒᄒᄒᄒ	-4212
▁느낄수	-4213
▁만들면	-4214
▁비하면	-4215
▁연기잘	-4216
▁의미가	-4217
▁재밌을	-4218
▁죽이는	-4219
▁추억이	-4220
▁현실성	-4221
배우들이	-4222
▁만들다니	-4223
▁비디오로	-4224
▁안타까운	-4225
▁없습니다	-4226
▁억지스러운	-4227
▁겪	-4228
낸다	-4229
대단	-4230
미네	-4231
번은	-4232
보네	-4233
복을	-4234
볼만	-4235
빨리	-4236
신을	-4237
씨는	-4238
장을	-4239
절대	-4240
함의	-4241
형래	-4242
▁높게	-4243
▁돈을	-4244
▁배역	-4245
▁비밀	-4246
▁사고	-4247
▁심오	-4248
▁알수	-4249
겁니다	-4250
만들어	-4251
~!!!	-4252
▁노래가	-4253
▁다시는	-4254
▁색다른	-4255
▁소중한	-4256
▁연출과	-4257
▁잘하고	-4258
▁지나도	-4259
▁짜임새	-4260
영화인데	-4261
▁모르겠음	-4262
▁여러가지	-4263
▁L	-4264
▁P	-4265
▁낙	-4266
▁묵	-4267
▁왤	-4268
긴장	-4269
때문	-4270
레멘	-4271
력을	-4272
만다	-4273
모두	-4274
뭐야	-4275
뭔가	-4276
빼고	-4277
세기	-4278
였어	-4279
이리	-4280
종일	-4281
▁sf	-4282
▁상관	-4283
▁새끼	-4284
▁양심	-4285
▁웃고	-4286
웠지만	-4287
하는건	-4288
▁가슴을	-4289
▁거기에	-4290
▁결말을	-4291
▁매력을	-4292
▁뭐하나	-4293
▁반전은	-4294
▁봅니다	-4295
▁소름이	-4296
▁속에서	-4297
▁애들은	-4298
▁어이없	-4299
▁여운을	-4300
▁이래서	-4301
생각없이	-4302
▁그저그런	-4303
▁극장가서	-4304
▁기대이상	-4305
▁답답하고	-4306
▁떨어진다	-4307
▁아닙니다	-4308
▁인상적이	-4309
▁정말이지	-4310
▁하나같이	-4311
▁재미없었다	-4312
▁ᄏᄏᄏᄏᄏᄏ	-4313
▁킬링타임용으로	-4314
▁/	-4315
▁씹	-4316
사건	-4317
생활	-4318
아쉬	-4319
좋음	-4320
허접	-4321
▁기준	-4322
▁데이	-4323
▁둘째	-4324
▁부실	-4325
▁선동	-4326
▁성격	-4327
▁스페	-4328
▁있던	-4329
▁잔혹	-4330
▁정확	-4331
▁집에	-4332
▁최민	-4333
▁치고	-4334
▁한명	-4335
다는거	-4336
레이션	-4337
솔직히	-4338
이였다	-4339
점만점	-4340
줄이야	-4341
파이어	-4342
▁나쁘지	-4343
▁느꼈다	-4344
▁또다른	-4345
▁소소한	-4346
▁아니야	-4347
▁어쩔수	-4348
▁영화화	-4349
▁예쁘고	-4350
▁최고임	-4351
▁최근에	-4352
▁흥미로	-4353
스토리도	-4354
해주세요	-4355
▁감정이입	-4356
▁엉성하고	-4357
▁이야기는	-4358
▁주인공은	-4359
영화입니다	-4360
▁남자주인공	-4361
▁블록버스터	-4362
▁재미있습니다	-4363
▁택	-4364
▁펼	-4365
과서	-4366
나니	-4367
누나	-4368
는듯	-4369
든지	-4370
뭥미	-4371
어디	-4372
음을	-4373
잡고	-4374
장한	-4375
정한	-4376
지면	-4377
▁결코	-4378
▁길게	-4379
▁낮네	-4380
▁빠진	-4381
▁어쩜	-4382
▁연극	-4383
▁울컥	-4384
▁일깨	-4385
▁충실	-4386
보니까	-4387
봤지만	-4388
부분이	-4389
연기는	-4390
웠어요	-4391
▁구성이	-4392
▁많은데	-4393
▁연예인	-4394
▁오래된	-4395
▁이해안	-4396
▁잘어울	-4397
▁제임스	-4398
▁최고로	-4399
▁무엇인지	-4400
▁스트레스	-4401
▁막장드라마	-4402
it	-4403
구성	-4404
님은	-4405
스크	-4406
오래	-4407
이쁘	-4408
제로	-4409
▁14	-4410
▁감각	-4411
▁갖고	-4412
▁만남	-4413
▁무한	-4414
▁아래	-4415
▁열정	-4416
▁정체	-4417
▁조작	-4418
들이나	-4419
레멘타	-4420
해주고	-4421
▁데리고	-4422
▁됩니다	-4423
▁별로임	-4424
▁잼나게	-4425
▁적당히	-4426
▁본방사수	-4427
▁잘봤어요	-4428
▁최고였다	-4429
vd	-4430
▁=	-4431
▁낭	-4432
▁떨	-4433
니퍼	-4434
되면	-4435
르게	-4436
매력	-4437
아는	-4438
어리	-4439
조금	-4440
후의	-4441
▁끝났	-4442
▁놓고	-4443
▁단편	-4444
▁달리	-4445
▁생활	-4446
▁의리	-4447
▁잼잇	-4448
▁탄생	-4449
▁할수	-4450
나오고	-4451
인줄알	-4452
점대는	-4453
▁그만큼	-4454
▁느낌의	-4455
▁명작을	-4456
▁식상한	-4457
▁주기도	-4458
▁참신한	-4459
▁한국의	-4460
했었는데	-4461
▁다운받아	-4462
▁집중해서	-4463
▁크리스마스	-4464
▁넌	-4465
▁샘	-4466
▁헬	-4467
▁홀	-4468
강호	-4469
개그	-4470
니가	-4471
싸움	-4472
아름	-4473
치가	-4474
커플	-4475
팩트	-4476
▁낮게	-4477
▁넘게	-4478
▁먼가	-4479
▁못봐	-4480
▁뭐니	-4481
▁본게	-4482
▁봐줄	-4483
▁빼면	-4484
▁손에	-4485
▁시키	-4486
▁아내	-4487
▁안된	-4488
▁안습	-4489
▁열받	-4490
▁으리	-4491
▁책을	-4492
는거야	-4493
전개가	-4494
점에서	-4495
▁그자체	-4496
▁낚였다	-4497
▁남네요	-4498
▁수많은	-4499
▁아무런	-4500
▁하는게	-4501
▁한국인	-4502
▁했으면	-4503
미네이터	-4504
없는영화	-4505
▁몰입도가	-4506
▁살다살다	-4507
▁살아가는	-4508
▁생각했는데	-4509
▁;	-4510
▁N	-4511
▁껐	-4512
▁났	-4513
▁를	-4514
▁몬	-4515
▁웰	-4516
▁첩	-4517
동차	-4518
로드	-4519
리면	-4520
묘한	-4521
부가	-4522
상은	-4523
서는	-4524
신의	-4525
아빠	-4526
티즌	-4527
퓨터	-4528
하군	-4529
▁담배	-4530
▁듣고	-4531
▁명화	-4532
▁뭘까	-4533
▁야한	-4534
▁조절	-4535
▁조카	-4536
▁주기	-4537
▁집착	-4538
것같은	-4539
기전에	-4540
인데도	-4541
▁다양한	-4542
▁돌아가	-4543
▁부분도	-4544
▁살면서	-4545
▁실제로	-4546
▁여주가	-4547
▁이것이	-4548
▁질리지	-4549
▁핵노잼	-4550
▁바랍니다	-4551
▁보기에는	-4552
▁볼수있는	-4553
▁봤는데도	-4554
▁시리즈중	-4555
▁연기력은	-4556
▁영화인가	-4557
▁이상하게	-4558
▁훌륭하다	-4559
▁낯	-4560
▁쥬	-4561
▁휘	-4562
국영	-4563
년작	-4564
라의	-4565
버려	-4566
분을	-4567
윤발	-4568
이에	-4569
▁~~	-4570
▁가지	-4571
▁거부	-4572
▁기자	-4573
▁꽤나	-4574
▁다를	-4575
▁다이	-4576
▁본거	-4577
▁볼때	-4578
▁새로	-4579
▁시끄	-4580
▁앞뒤	-4581
▁애기	-4582
▁영향	-4583
▁자식	-4584
▁플롯	-4585
▁헤어	-4586
도대체	-4587
엇는데	-4588
했으나	-4589
▁감동은	-4590
▁거짓말	-4591
▁교훈을	-4592
▁놀라운	-4593
▁로버트	-4594
▁소설을	-4595
▁소재도	-4596
▁아류작	-4597
▁약간의	-4598
▁여자의	-4599
▁자체는	-4600
▁주제를	-4601
▁짜증만	-4602
재미없음	-4603
하는영화	-4604
▁만든영화	-4605
▁시리즈는	-4606
▁특수효과	-4607
▁마지막까지	-4608
..........	-4609
30	-4610
▁캬	-4611
▁튀	-4612
공감	-4613
나네	-4614
문화	-4615
싫어	-4616
치곤	-4617
▁be	-4618
▁끔찍	-4619
▁들고	-4620
▁사투	-4621
▁살린	-4622
▁서부	-4623
▁쓰고	-4624
▁안쓰	-4625
▁안에	-4626
▁위험	-4627
▁유아	-4628
▁읽어	-4629
▁짧은	-4630
갑니다	-4631
는영화	-4632
봤네요	-4633
속으로	-4634
자들의	-4635
하는것	-4636
▁교과서	-4637
▁나머지	-4638
▁심지어	-4639
▁않아서	-4640
▁영상이	-4641
▁웃기다	-4642
▁장면도	-4643
▁친구가	-4644
▁생각으로	-4645
▁아쉽지만	-4646
▁여자친구	-4647
▁좋겠네요	-4648
▁포스터가	-4649
▁만들었는지	-4650
▁재미도없고	-4651
▁W	-4652
▁X	-4653
개는	-4654
관객	-4655
래곤	-4656
뢰매	-4657
리며	-4658
마이	-4659
바이	-4660
스포	-4661
시오	-4662
여행	-4663
으신	-4664
정의	-4665
치노	-4666
트의	-4667
하길	-4668
혼자	-4669
▁60	-4670
▁낮지	-4671
▁따분	-4672
▁매일	-4673
▁무료	-4674
▁묻어	-4675
▁짜집	-4676
▁타고	-4677
▁혹은	-4678
으로는	-4679
이었음	-4680
▁가벼운	-4681
▁반드시	-4682
▁별로고	-4683
▁봤을까	-4684
▁역사를	-4685
▁영화와	-4686
▁원작에	-4687
▁일깨워	-4688
▁있다니	-4689
▁첫사랑	-4690
▁하다가	-4691
▁한번도	-4692
▁한편의	-4693
▁궁금하다	-4694
▁떨어지고	-4695
▁배우들은	-4696
▁시청률이	-4697
▁어느정도	-4698
▁어울리는	-4699
▁에피소드	-4700
▁영화인지	-4701
▁처음에는	-4702
-^	-4703
▁K	-4704
▁객	-4705
▁벤	-4706
같고	-4707
거든	-4708
덕화	-4709
도를	-4710
상의	-4711
선을	-4712
스키	-4713
이도	-4714
이여	-4715
적임	-4716
했지	-4717
▁가르	-4718
▁낮다	-4719
▁때려	-4720
▁받은	-4721
▁비행	-4722
▁손색	-4723
▁쓰는	-4724
▁웃겼	-4725
▁정작	-4726
▁한숨	-4727
▁호구	-4728
감독님	-4729
나와서	-4730
심으로	-4731
였으면	-4732
적이지	-4733
해지고	-4734
▁감독을	-4735
▁괜찮다	-4736
▁귀여워	-4737
▁당신은	-4738
▁러시아	-4739
▁무서워	-4740
▁스티븐	-4741
▁작가님	-4742
▁주윤발	-4743
▁특별한	-4744
▁평점조	-4745
있습니다	-4746
▁그야말로	-4747
▁말하고자	-4748
▁아름답게	-4749
▁어설프고	-4750
▁재밌다는	-4751
▁짜증나서	-4752
▁태어나서	-4753
▁여자주인공	-4754
▁틈	-4755
▁혐	-4756
가네	-4757
겠죠	-4758
굿굿	-4759
대해	-4760
리나	-4761
박한	-4762
보지	-4763
상수	-4764
시면	-4765
악한	-4766
야할	-4767
여주	-4768
일을	-4769
장르	-4770
프닝	-4771
후회	-4772
▁끼워	-4773
▁내게	-4774
▁다크	-4775
▁담겨	-4776
▁당황	-4777
▁본지	-4778
▁있네	-4779
▁첨엔	-4780
▁팬이	-4781
▁형사	-4782
기까지	-4783
았으면	-4784
애들이	-4785
했을때	-4786
▁놀랍다	-4787
▁당연히	-4788
▁많은걸	-4789
▁배우도	-4790
▁보지말	-4791
▁브루스	-4792
▁여자들	-4793
▁이딴걸	-4794
▁이상의	-4795
▁일부러	-4796
▁처음에	-4797
▁출연한	-4798
▁희망을	-4799
▁나름대로	-4800
▁쓸데없이	-4801
▁아까웠다	-4802
▁주인공들	-4803
▁해리포터	-4804
.0	-4805
80	-4806
ut	-4807
▁깡	-4808
▁효	-4809
보영	-4810
신고	-4811
정우	-4812
햇다	-4813
형님	-4814
▁of	-4815
▁근래	-4816
▁나랑	-4817
▁로코	-4818
▁목숨	-4819
▁미쳤	-4820
▁베드	-4821
▁수입	-4822
▁안될	-4823
▁잠시	-4824
▁주지	-4825
▁추격	-4826
▁파워	-4827
메이드	-4828
스럽지	-4829
으려고	-4830
하자는	-4831
해야지	-4832
▁그립다	-4833
▁내용과	-4834
▁모든걸	-4835
▁배트맨	-4836
▁보다니	-4837
▁소재와	-4838
▁심형래	-4839
▁엔딩이	-4840
▁영상과	-4841
▁이따구	-4842
▁이해를	-4843
▁장면을	-4844
웠습니다	-4845
▁수작이다	-4846
▁유일하게	-4847
▁이상하고	-4848
▁재미없어서	-4849
ᄏᄏᄏᄏᄏᄏᄏ	-4850
ᅲᅮ	-4851
▁팝	-4852
게임	-4853
또한	-4854
로의	-4855
성과	-4856
슨이	-4857
어용	-4858
인건	-4859
정화	-4860
죽는	-4861
지현	-4862
함도	-4863
▁빵터	-4864
▁아버	-4865
▁애매	-4866
▁이야	-4867
▁이은	-4868
▁적절	-4869
▁확인	-4870
건가요	-4871
부터가	-4872
었다는	-4873
에게는	-4874
잖아요	-4875
점으로	-4876
하고싶	-4877
?...	-4878
▁dvd	-4879
▁you	-4880
▁강렬한	-4881
▁괜찮음	-4882
▁나에겐	-4883
▁내생에	-4884
▁많아서	-4885
▁배우는	-4886
▁사람도	-4887
▁시간만	-4888
▁싸우는	-4889
▁영화만	-4890
▁이런건	-4891
▁있다고	-4892
▁제니퍼	-4893
▁중에서	-4894
▁지금의	-4895
거같아요	-4896
긴하지만	-4897
스토리가	-4898
▁다시보니	-4899
▁따뜻하고	-4900
▁배경음악	-4901
▁아니라고	-4902
▁웃으면서	-4903
!!!!!!	-4904
is	-4905
▁F	-4906
▁ᄇ	-4907
▁곧	-4908
▁댄	-4909
드리	-4910
때매	-4911
레인	-4912
리와	-4913
이름	-4914
쟁이	-4915
줬다	-4916
직한	-4917
▁감안	-4918
▁극단	-4919
▁꼬마	-4920
▁무너	-4921
▁보던	-4922
▁봤네	-4923
▁부르	-4924
▁빵빵	-4925
▁실력	-4926
▁애국	-4927
▁언젠	-4928
▁자세	-4929
▁정우	-4930
▁착각	-4931
▁폐지	-4932
▁하아	-4933
같아요	-4934
면에서	-4935
뿐이다	-4936
아저씨	-4937
어야지	-4938
었구나	-4939
화이팅	-4940
▁너무도	-4941
▁머리가	-4942
▁새벽에	-4943
▁생각할	-4944
▁아깝고	-4945
▁엄마가	-4946
▁울리는	-4947
▁유일한	-4948
▁이소룡	-4949
▁잘하는	-4950
▁주제가	-4951
▁하길래	-4952
▁흐르는	-4953
영화보다	-4954
▁돋보이는	-4955
▁아쉬움이	-4956
▁재밋어요	-4957
▁재밌어서	-4958
▁케이블에서	-4959
le	-4960
느껴	-4961
미는	-4962
부로	-4963
선생	-4964
아치	-4965
있을	-4966
졸작	-4967
중이	-4968
추억	-4969
▁강한	-4970
▁고맙	-4971
▁김혜	-4972
▁난잡	-4973
▁동양	-4974
▁맞춰	-4975
▁별반	-4976
▁신의	-4977
▁싶지	-4978
▁아냐	-4979
▁어째	-4980
▁위대	-4981
▁하여	-4982
▁화장	-4983
관에서	-4984
만하다	-4985
있네요	-4986
좋았다	-4987
최악의	-4988
포스터	-4989
하나도	-4990
▁ᄍᄍᄍ	-4991
▁공포물	-4992
▁그것도	-4993
▁나네요	-4994
▁대통령	-4995
▁두번째	-4996
▁몰랐다	-4997
▁반전을	-4998
▁생각도	-4999
▁숨겨진	-5000
▁실화를	-5001
▁싶어요	-5002
▁없었음	-5003
▁영환데	-5004
▁예쁘다	-5005
▁잘못된	-5006
▁점수는	-5007
▁제목만	-5008
▁조니뎁	-5009
▁진짜로	-5010
▁초딩때	-5011
▁하나로	-5012
▁할리우드	-5013
▁아까운영화	-5014
▁최고의영화	-5015
▁늑	-5016
▁덤	-5017
나의	-5018
드만	-5019
민이	-5020
뻐요	-5021
언제	-5022
오브	-5023
전을	-5024
차별	-5025
하러	-5026
▁과학	-5027
▁남기	-5028
▁다섯	-5029
▁디워	-5030
▁마약	-5031
▁망친	-5032
▁바다	-5033
▁싸움	-5034
▁예능	-5035
▁재능	-5036
▁흑인	-5037
라이언	-5038
으로만	-5039
재미도	-5040
▁감동받	-5041
▁개노잼	-5042
▁단순히	-5043
▁못하다	-5044
▁보기에	-5045
▁부모님	-5046
▁불편한	-5047
▁여러번	-5048
▁여자는	-5049
▁연출은	-5050
▁일본의	-5051
▁잊혀지	-5052
▁줍니다	-5053
▁집중이	-5054
시나리오	-5055
하지않고	-5056
▁마음으로	-5057
▁매력적이	-5058
▁아이들과	-5059
▁어색하고	-5060
▁언제봐도	-5061
▁이드라마	-5062
▁클레멘타	-5063
▁한국에서	-5064
▁이런영화는	-5065
as	-5066
▁>	-5067
▁염	-5068
▁컬	-5069
랜드	-5070
버릴	-5071
분위	-5072
였네	-5073
웃김	-5074
으리	-5075
이프	-5076
일듯	-5077
일의	-5078
잡을	-5079
졌음	-5080
중반	-5081
테러	-5082
팔이	-5083
▁같고	-5084
▁두려	-5085
▁땜에	-5086
▁로빈	-5087
▁배급	-5088
▁빠른	-5089
▁사용	-5090
▁서양	-5091
▁실험	-5092
▁없게	-5093
▁오브	-5094
▁외로	-5095
▁이병	-5096
▁익숙	-5097
▁잤다	-5098
▁저급	-5099
▁중독	-5100
▁클래	-5101
▁편안	-5102
생각이	-5103
어가는	-5104
점주고	-5105
▁갑니다	-5106
▁다르게	-5107
▁떨어짐	-5108
▁멋있는	-5109
▁멋지고	-5110
▁봤다면	-5111
▁아니지	-5112
▁아들이	-5113
▁안봐도	-5114
▁없나요	-5115
▁인생에	-5116
▁재미로	-5117
▁재밋음	-5118
▁잼있음	-5119
▁짜증남	-5120
▁컴퓨터	-5121
▁혹시나	-5122
▁후속작	-5123
▁희대의	-5124
재미있게	-5125
...^^	-5126
▁마이너스	-5127
▁이해할수	-5128
▁모르겠네요	-5129
▁터미네이터	-5130
.3	-5131
▁곽	-5132
▁든	-5133
▁떼	-5134
▁링	-5135
가면	-5136
느끼	-5137
미국	-5138
보내	-5139
부는	-5140
어지	-5141
은거	-5142
자로	-5143
자와	-5144
전이	-5145
주면	-5146
줄은	-5147
판이	-5148
히고	-5149
▁개념	-5150
▁낮아	-5151
▁따위	-5152
▁망한	-5153
▁배신	-5154
▁선물	-5155
▁아놀	-5156
▁유발	-5157
▁정보	-5158
▁판단	-5159
는거지	-5160
는데도	-5161
라는게	-5162
었다고	-5163
하거나	-5164
하더라	-5165
▁그동안	-5166
▁나왔다	-5167
▁높아서	-5168
▁다르다	-5169
▁안간다	-5170
▁이보다	-5171
▁이뻐서	-5172
▁이토록	-5173
▁일본은	-5174
▁저평가	-5175
▁좋다고	-5176
▁최고봉	-5177
▁하하하	-5178
▁현실이	-5179
▁기억나는	-5180
▁봐도봐도	-5181
▁시간아깝다	-5182
▁ᄏᄏᄏᄏᄏᄏᄏ	-5183
▁R	-5184
▁숙	-5185
▁옹	-5186
▁쭉	-5187
간에	-5188
같아	-5189
개가	-5190
기법	-5191
놨네	-5192
드림	-5193
모로	-5194
미스	-5195
볼수	-5196
불허	-5197
살아	-5198
살인	-5199
스케	-5200
식은	-5201
안됨	-5202
어색	-5203
조연	-5204
쯧쯧	-5205
희가	-5206
▁가고	-5207
▁개성	-5208
▁두근	-5209
▁망치	-5210
▁생긴	-5211
▁소피	-5212
▁자랑	-5213
▁진리	-5214
내용은	-5215
모르고	-5216
보이는	-5217
분만에	-5218
있었다	-5219
ovie	-5220
▁네티즌	-5221
▁도무지	-5222
▁매니아	-5223
▁사운드	-5224
▁시간에	-5225
▁알겠다	-5226
▁전쟁의	-5227
도아니고	-5228
▁괜찮았다	-5229
▁궁금해서	-5230
▁마지막이	-5231
▁영상미가	-5232
▁영화라니	-5233
▁영화자체	-5234
▁짜증나고	-5235
▁여주인공이	-5236
▁작품입니다	-5237
▁갓	-5238
▁땡	-5239
▁뭣	-5240
▁헌	-5241
▁혁	-5242
더더	-5243
보긴	-5244
사와	-5245
성기	-5246
싫다	-5247
엄청	-5248
웠고	-5249
즈의	-5250
진이	-5251
티노	-5252
하균	-5253
▁거북	-5254
▁겉멋	-5255
▁그들	-5256
▁기타	-5257
▁대신	-5258
▁루즈	-5259
▁말자	-5260
▁망가	-5261
▁반담	-5262
▁본듯	-5263
▁스텝	-5264
▁왤케	-5265
▁인형	-5266
▁잊고	-5267
▁잠이	-5268
▁즐겨	-5269
▁탈출	-5270
▁폭발	-5271
▁폭풍	-5272
▁프레	-5273
▁하시	-5274
▁하품	-5275
▁한방	-5276
▁형님	-5277
▁흑백	-5278
납니다	-5279
배우의	-5280
왔는데	-5281
▁느낌은	-5282
▁만화책	-5283
▁뭐하는	-5284
▁사실을	-5285
▁어른이	-5286
▁어우러	-5287
▁재개봉	-5288
▁주고싶	-5289
▁지겹다	-5290
▁짜증이	-5291
하지마라	-5292
▁2000	-5293
▁뱀파이어	-5294
▁불쌍하다	-5295
▁괜찮았는데	-5296
▁재미없다고	-5297
▁한국영화의	-5298
▁걱	-5299
▁뽀	-5300
▁엔	-5301
귀여	-5302
까요	-5303
높은	-5304
딩때	-5305
마자	-5306
말도	-5307
빠진	-5308
사에	-5309
서도	-5310
성우	-5311
세여	-5312
시원	-5313
아내	-5314
엇음	-5315
점수	-5316
지나	-5317
하디	-5318
▁각색	-5319
▁관련	-5320
▁극복	-5321
▁꿈꾸	-5322
▁끌고	-5323
▁남편	-5324
▁달려	-5325
▁맛이	-5326
▁맞아	-5327
▁뭥미	-5328
▁밀려	-5329
▁빛을	-5330
▁사상	-5331
▁아우	-5332
▁압도	-5333
▁열연	-5334
▁이성	-5335
▁이수	-5336
▁좋네	-5337
▁컨셉	-5338
▁평소	-5339
▁했음	-5340
▁환경	-5341
거같음	-5342
게하는	-5343
스러워	-5344
어버린	-5345
정적인	-5346
햇는데	-5347
▁가족이	-5348
▁결론은	-5349
▁되네요	-5350
▁분들이	-5351
▁사이코	-5352
▁스릴도	-5353
▁액션을	-5354
▁얼굴이	-5355
▁인간은	-5356
▁적어도	-5357
▁케릭터	-5358
▁한다는	-5359
▁현실과	-5360
같은영화	-5361
극장에서	-5362
기도하고	-5363
▁Good	-5364
▁기대없이	-5365
▁나레이션	-5366
▁소중함을	-5367
▁영화였음	-5368
▁잔잔하게	-5369
▁시나리오가	-5370
19	-5371
▁굴	-5372
▁땅	-5373
▁벨	-5374
가리	-5375
가에	-5376
못해	-5377
물로	-5378
았네	-5379
어의	-5380
였나	-5381
웃기	-5382
장의	-5383
해선	-5384
형제	-5385
▁달콤	-5386
▁로드	-5387
▁만약	-5388
▁멋지	-5389
▁못미	-5390
▁무겁	-5391
▁무게	-5392
▁박수	-5393
▁받고	-5394
▁부담	-5395
▁유행	-5396
▁자본	-5397
▁집어	-5398
▁추리	-5399
▁파괴	-5400
▁평균	-5401
분들이	-5402
인지도	-5403
제대로	-5404
▁고양이	-5405
▁공짜로	-5406
▁다보고	-5407
▁명복을	-5408
▁명불허	-5409
▁명작은	-5410
▁본건데	-5411
▁봐야지	-5412
▁사랑해	-5413
▁없는게	-5414
▁영화이	-5415
▁오프닝	-5416
▁왜이러	-5417
▁우뢰매	-5418
▁정도면	-5419
▁좋을듯	-5420
▁내용인지	-5421
▁리얼리티	-5422
▁만들어서	-5423
▁목소리가	-5424
▁무엇인가	-5425
▁믿고보는	-5426
▁쓸데없는	-5427
▁않았지만	-5428
▁오랫만에	-5429
▁유쾌하게	-5430
▁자극적인	-5431
쓰레기영화	-5432
CG	-5433
▁꿀	-5434
▁붕	-5435
▁쫓	-5436
▁콘	-5437
갈때	-5438
라노	-5439
라에	-5440
무시	-5441
버스	-5442
부의	-5443
불쌍	-5444
시가	-5445
인게	-5446
졌던	-5447
▁거품	-5448
▁과대	-5449
▁김지	-5450
▁김치	-5451
▁늦게	-5452
▁담백	-5453
▁답이	-5454
▁삶이	-5455
▁서울	-5456
▁어떨	-5457
▁원조	-5458
▁유럽	-5459
▁이렇	-5460
▁이준	-5461
▁장동	-5462
▁죽고	-5463
▁지겹	-5464
▁호기	-5465
▁흡입	-5466
감독은	-5467
들끼리	-5468
란티노	-5469
빕니다	-5470
아무리	-5471
적으론	-5472
한마디	-5473
할만한	-5474
▁내생애	-5475
▁동시에	-5476
▁매력에	-5477
▁못봐주	-5478
▁살인마	-5479
▁안어울	-5480
▁없다고	-5481
▁이름이	-5482
▁인생이	-5483
▁인터넷	-5484
▁잊을수	-5485
▁자동차	-5486
▁장국영	-5487
▁제이슨	-5488
▁짜집기	-5489
▁보았는데	-5490
▁볼만했다	-5491
▁사랑해요	-5492
▁장난하냐	-5493
▁재미있는데	-5494
...........	-5495
90	-5496
ck	-5497
ow	-5498
▁곰	-5499
★★	-5500
대고	-5501
도의	-5502
들여	-5503
따뜻	-5504
라라	-5505
받을	-5506
범죄	-5507
비슷	-5508
상영	-5509
소름	-5510
위에	-5511
장애	-5512
저리	-5513
주기	-5514
준호	-5515
▁:)	-5516
▁마무	-5517
▁맞지	-5518
▁매미	-5519
▁뭐고	-5520
▁반대	-5521
▁보내	-5522
▁생에	-5523
▁아파	-5524
▁없냐	-5525
▁역량	-5526
▁왜곡	-5527
▁일베	-5528
▁줄리	-5529
▁짐캐	-5530
▁책임	-5531
▁최소	-5532
▁케빈	-5533
▁파격	-5534
▁흔들	-5535
▁힘내	-5536
까지도	-5537
나네요	-5538
분동안	-5539
여운이	-5540
연기를	-5541
인들의	-5542
임에도	-5543
있지만	-5544
점부터	-5545
중에서	-5546
▁가까운	-5547
▁가득한	-5548
▁귀엽다	-5549
▁그것을	-5550
▁내용의	-5551
▁다세포	-5552
▁당시에	-5553
▁돈내고	-5554
▁명장면	-5555
▁무섭고	-5556
▁미국의	-5557
▁불쌍한	-5558
▁소재의	-5559
▁액션과	-5560
▁어렵다	-5561
▁없으면	-5562
▁영화야	-5563
▁전개와	-5564
▁느낌이다	-5565
▁봐야하는	-5566
▁아깝네요	-5567
▁탄탄하고	-5568
▁포스터만	-5569
개인적으로	-5570
▁전반적으로	-5571
▁좋았을텐데	-5572
15	-5573
od	-5574
▁널	-5575
▁띄	-5576
▁품	-5577
간히	-5578
께요	-5579
낮은	-5580
데체	-5581
리엄	-5582
바람	-5583
스맨	-5584
스에	-5585
스와	-5586
없나	-5587
오오	-5588
위원	-5589
있던	-5590
있지	-5591
자면	-5592
존나	-5593
중훈	-5594
▁갖다	-5595
▁객관	-5596
▁기존	-5597
▁깡패	-5598
▁냄새	-5599
▁민폐	-5600
▁벗어	-5601
▁부탁	-5602
▁불안	-5603
▁브래	-5604
▁어둡	-5605
▁어리	-5606
▁죄송	-5607
▁찍고	-5608
▁프리	-5609
▁하며	-5610
그러나	-5611
봐야지	-5612
아닌가	-5613
았네요	-5614
을까요	-5615
졌어요	-5616
▁가능한	-5617
▁가족의	-5618
▁그것이	-5619
▁끝날때	-5620
▁나이가	-5621
▁듭니다	-5622
▁때마다	-5623
▁떨어지	-5624
▁배경이	-5625
▁볼려고	-5626
▁불가능	-5627
▁세상이	-5628
▁시대에	-5629
▁시대의	-5630
▁아진짜	-5631
▁양아치	-5632
▁어쩌면	-5633
▁은근히	-5634
▁자기가	-5635
▁제목을	-5636
▁친구랑	-5637
▁한개도	-5638
▁허술한	-5639
▁갠적으로	-5640
▁드라마의	-5641
▁영화예요	-5642
▁이런류의	-5643
▁초등학교	-5644
▁사람들에게	-5645
▁사람이라면	-5646
▁아무생각없이	-5647
▁V	-5648
▁맴	-5649
▁웅	-5650
▁쫄	-5651
▁킹	-5652
▁협	-5653
구가	-5654
그럼	-5655
나름	-5656
늦게	-5657
더맨	-5658
둥이	-5659
들러	-5660
들로	-5661
래도	-5662
로로	-5663
법한	-5664
웨이	-5665
위한	-5666
유리	-5667
이요	-5668
쥬얼	-5669
질않	-5670
질질	-5671
코믹	-5672
할지	-5673
▁강간	-5674
▁것에	-5675
▁공간	-5676
▁길이	-5677
▁김태	-5678
▁김희	-5679
▁꼭보	-5680
▁나무	-5681
▁다신	-5682
▁담은	-5683
▁동네	-5684
▁매끄	-5685
▁바탕	-5686
▁받는	-5687
▁빵점	-5688
▁승리	-5689
▁안들	-5690
▁암걸	-5691
▁이동	-5692
▁읽고	-5693
▁조화	-5694
▁즐길	-5695
▁천국	-5696
▁첩보	-5697
▁콜린	-5698
▁탁월	-5699
까지만	-5700
되는데	-5701
들한테	-5702
습니까	-5703
지루함	-5704
프리오	-5705
0000	-5706
~~^^	-5707
▁공감도	-5708
▁공감할	-5709
▁내용에	-5710
▁메세지	-5711
▁보시면	-5712
▁빕니다	-5713
▁설정이	-5714
▁스포츠	-5715
▁시청자	-5716
▁싶었다	-5717
▁안무서	-5718
▁역겨운	-5719
▁왠만한	-5720
▁점수준	-5721
▁정도가	-5722
▁최소한	-5723
▁피해자	-5724
▁헛웃음	-5725
드라마가	-5726
▁100%	-5727
▁나오는데	-5728
▁만들었나	-5729
▁생각난다	-5730
▁시작부터	-5731
▁이것보단	-5732
▁추천하고	-5733
▁블랙코미디	-5734
▁사랑합니다	-5735
▁하나하나가	-5736
nd	-5737
▁깍	-5738
▁는	-5739
▁옳	-5740
▁탓	-5741
광고	-5742
구의	-5743
남기	-5744
노답	-5745
먹은	-5746
뭐냐	-5747
번에	-5748
보구	-5749
슨의	-5750
앗다	-5751
우의	-5752
의를	-5753
좋게	-5754
주일	-5755
짬뽕	-5756
킬링	-5757
함께	-5758
▁가정	-5759
▁개나	-5760
▁개똥	-5761
▁고뇌	-5762
▁고독	-5763
▁내돈	-5764
▁단어	-5765
▁담긴	-5766
▁독일	-5767
▁만난	-5768
▁무난	-5769
▁버려	-5770
▁상징	-5771
▁세번	-5772
▁소화	-5773
▁여친	-5774
▁요새	-5775
▁우연	-5776
▁일으	-5777
▁정상	-5778
▁진한	-5779
▁참나	-5780
▁허허	-5781
▁혐오	-5782
레이드	-5783
리스트	-5784
했다면	-5785
~~!!	-5786
▁4.4	-5787
▁가슴아	-5788
▁감독도	-5789
▁교훈도	-5790
▁버리고	-5791
▁빠지는	-5792
▁알았음	-5793
▁어두운	-5794
▁영원한	-5795
▁영화나	-5796
▁울면서	-5797
▁인생은	-5798
▁작가의	-5799
▁적절한	-5800
▁찾아서	-5801
▁첨부터	-5802
공포영화	-5803
으면서도	-5804
지않는다	-5805
▁다시보고	-5806
▁뜬금없는	-5807
▁마지막회	-5808
▁명불허전	-5809
▁아니었다	-5810
▁안보는게	-5811
▁억지감동	-5812
▁유치해서	-5813
▁이해불가	-5814
▁포스터에	-5815
▁할아버지	-5816
재미있어요	-5817
▁볼만합니다	-5818
;;;;;;;;	-5819
es	-5820
▁뗄	-5821
▁액	-5822
▁쿵	-5823
★☆	-5824
가를	-5825
가운	-5826
감과	-5827
그랬	-5828
기와	-5829
되나	-5830
뚱맞	-5831
모를	-5832
므로	-5833
민의	-5834
빠져	-5835
사실	-5836
살이	-5837
승전	-5838
시나	-5839
쓰는	-5840
안타	-5841
없지	-5842
자리	-5843
초에	-5844
타고	-5845
탈출	-5846
할뿐	-5847
▁건가	-5848
▁기회	-5849
▁데뷔	-5850
▁몇년	-5851
▁몽환	-5852
▁사무	-5853
▁언니	-5854
▁예수	-5855
▁오우	-5856
▁인종	-5857
▁절망	-5858
▁즐기	-5859
▁키스	-5860
▁할때	-5861
거리가	-5862
겠다고	-5863
그렇게	-5864
다니는	-5865
아니면	-5866
주기도	-5867
하니까	-5868
▁ᄒᄃᄃ	-5869
▁감독과	-5870
▁드네요	-5871
▁라스트	-5872
▁류승범	-5873
▁반전에	-5874
▁빛나는	-5875
▁시간때	-5876
▁싶었던	-5877
▁아깝네	-5878
▁아무도	-5879
▁않은데	-5880
▁의도가	-5881
▁제시카	-5882
▁조금은	-5883
▁한국판	-5884
▁홍상수	-5885
너무너무	-5886
카프리오	-5887
▁괜찮았음	-5888
▁드라마에	-5889
▁마지막엔	-5890
▁만들어낸	-5891
▁못보겠다	-5892
▁사랑하고	-5893
▁웰메이드	-5894
▁이도저도	-5895
▁전체적인	-5896
▁다시보고싶	-5897
ot	-5898
~♥	-5899
▁ᄡ	-5900
▁곱	-5901
▁님	-5902
▁린	-5903
▁삽	-5904
가장	-5905
고생	-5906
꺼면	-5907
나쁜	-5908
났음	-5909
롭고	-5910
림이	-5911
만도	-5912
무엇	-5913
번을	-5914
워즈	-5915
원은	-5916
잇는	-5917
잖은	-5918
전의	-5919
진않	-5920
치의	-5921
패스	-5922
프레	-5923
후에	-5924
▁th	-5925
▁깨알	-5926
▁녹아	-5927
▁담담	-5928
▁메이	-5929
▁밤에	-5930
▁보단	-5931
▁빨갱	-5932
▁수면	-5933
▁쓸쓸	-5934
▁아담	-5935
▁앞에	-5936
▁엑소	-5937
▁잠들	-5938
▁장진	-5939
▁짜릿	-5940
▁트랜	-5941
간만에	-5942
기억이	-5943
답니다	-5944
라이즈	-5945
리네요	-5946
못하는	-5947
발연기	-5948
생각을	-5949
신분들	-5950
애들은	-5951
점이상	-5952
파치노	-5953
할수가	-5954
▁개봉한	-5955
▁공포를	-5956
▁괜찮게	-5957
▁괜찮고	-5958
▁기대했	-5959
▁나오네	-5960
▁나을듯	-5961
▁되는데	-5962
▁드디어	-5963
▁선생님	-5964
▁아프다	-5965
▁영화같	-5966
▁외계인	-5967
▁요즘은	-5968
▁이름을	-5969
▁포인트	-5970
▁황당한	-5971
▁그렇지만	-5972
▁다행이다	-5973
▁모르지만	-5974
▁배경으로	-5975
▁인상적인	-5976
▁있었으면	-5977
▁장면들이	-5978
▁재미있었음	-5979
▁재미있었습니다	-5980
TV	-5981
▁&	-5982
▁밖	-5983
▁빙	-5984
▁죠	-5985
▁쪼	-5986
귀엽	-5987
꺼야	-5988
되게	-5989
뭐지	-5990
박죽	-5991
분한	-5992
선택	-5993
아노	-5994
오랜	-5995
왕국	-5996
웃겨	-5997
이딴	-5998
전혀	-5999
조현	-6000
찬란	-6001
체적	-6002
치를	-6003
트를	-6004
편집	-6005
희의	-6006
..!	-6007
▁,,	-6008
▁깊게	-6009
▁끝도	-6010
▁다녀	-6011
▁먹는	-6012
▁뭐임	-6013
▁반영	-6014
▁배꼽	-6015
▁보려	-6016
▁빼곤	-6017
▁선사	-6018
▁쏟아	-6019
▁음식	-6020
▁자고	-6021
▁점이	-6022
▁정당	-6023
▁창피	-6024
▁피터	-6025
라고요	-6026
아직도	-6027
야한다	-6028
죽박죽	-6029
코메디	-6030
평론가	-6031
하고는	-6032
ᅮᅮᅮᅮ	-6033
▁끝나서	-6034
▁놀랐다	-6035
▁드래곤	-6036
▁박중훈	-6037
▁보게된	-6038
▁보라고	-6039
▁보았던	-6040
▁빠져서	-6041
▁설득력	-6042
▁영상도	-6043
▁요소가	-6044
▁이병헌	-6045
▁이제는	-6046
▁정도는	-6047
▁풋풋한	-6048
▁화장실	-6049
시간동안	-6050
▁ᅲᅲᅲᅲ	-6051
▁사람들을	-6052
▁아이디어	-6053
▁재밌었던	-6054
▁진지하게	-6055
▁캐릭터들이	-6056
▁드라마입니다	-6057
,3	-6058
dd	-6059
▁땀	-6060
▁뚝	-6061
▁앵	-6062
▁엮	-6063
▁칠	-6064
가가	-6065
감사	-6066
것에	-6067
곳에	-6068
든가	-6069
로맨	-6070
만족	-6071
맘에	-6072
못한	-6073
비해	-6074
선이	-6075
여진	-6076
울뿐	-6077
으러	-6078
이든	-6079
점에	-6080
지부	-6081
?..	-6082
▁개콘	-6083
▁고어	-6084
▁공중	-6085
▁끝에	-6086
▁드라	-6087
▁리즈	-6088
▁변화	-6089
▁보라	-6090
▁분량	-6091
▁삭제	-6092
▁암울	-6093
▁어쨌	-6094
▁요리	-6095
▁절제	-6096
▁하하	-6097
겠는데	-6098
맙시다	-6099
없어요	-6100
재밌어	-6101
적이라	-6102
좋네요	-6103
줬으면	-6104
크레딧	-6105
▁;;;	-6106
▁EBS	-6107
▁것들이	-6108
▁귀여움	-6109
▁그들이	-6110
▁기대가	-6111
▁나올때	-6112
▁동영상	-6113
▁무거운	-6114
▁아이언	-6115
▁알았네	-6116
▁어거지	-6117
▁여러분	-6118
▁영화속	-6119
▁웃기는	-6120
▁하이틴	-6121
▁하정우	-6122
거같은데	-6123
리의리의	-6124
있는영화	-6125
좋은영화	-6126
▁뜬금없이	-6127
▁소장하고	-6128
▁최고네요	-6129
▁캐릭터를	-6130
▁.....	-6131
▁생각해보게	-6132
▁감동적이네요	-6133
▁H	-6134
▁x	-6135
▁및	-6136
▁쌩	-6137
경이	-6138
끝나	-6139
다르	-6140
다만	-6141
도로	-6142
마나	-6143
물론	-6144
물의	-6145
수선	-6146
아누	-6147
아오	-6148
없게	-6149
없을	-6150
에다	-6151
역할	-6152
위가	-6153
질이	-6154
치도	-6155
하루	-6156
호감	-6157
^-^	-6158
^^*	-6159
▁가히	-6160
▁강동	-6161
▁던져	-6162
▁도둑	-6163
▁뒤에	-6164
▁망할	-6165
▁머릿	-6166
▁무간	-6167
▁버린	-6168
▁베리	-6169
▁생겼	-6170
▁숨은	-6171
▁안가	-6172
▁예측	-6173
▁오는	-6174
▁이쁨	-6175
▁전화	-6176
▁절로	-6177
▁질리	-6178
▁치유	-6179
▁평화	-6180
▁하도	-6181
▁형제	-6182
▁후에	-6183
덩어리	-6184
시대에	-6185
을수가	-6186
하시고	-6187
한테는	-6188
했을까	-6189
▁ᄃᄃᄃ	-6190
▁들어가	-6191
▁라이언	-6192
▁만점에	-6193
▁말고는	-6194
▁메시지	-6195
▁모른다	-6196
▁모습은	-6197
▁보기가	-6198
▁송강호	-6199
▁신하균	-6200
▁않았던	-6201
▁임팩트	-6202
▁잊지못	-6203
▁찾아볼	-6204
▁첨이다	-6205
▁했더니	-6206
▁허무한	-6207
점만점에	-6208
지루하고	-6209
지마세요	-6210
▁2012	-6211
▁거지같은	-6212
▁둘째치고	-6213
▁말그대로	-6214
▁순수하고	-6215
▁시작해서	-6216
▁언제까지	-6217
▁연기하는	-6218
▁오글오글	-6219
▁짜증나게	-6220
▁만들었을까	-6221
.-	-6222
al	-6223
ed	-6224
ic	-6225
▁J	-6226
▁r	-6227
▁u	-6228
▁년	-6229
▁찢	-6230
겠어	-6231
내지	-6232
데미	-6233
루토	-6234
르소	-6235
말을	-6236
살때	-6237
상에	-6238
석규	-6239
셔야	-6240
스톤	-6241
시의	-6242
였지	-6243
우스	-6244
원을	-6245
증이	-6246
참고	-6247
트로	-6248
행복	-6249
힘들	-6250
▁걱정	-6251
▁것만	-6252
▁글을	-6253
▁기괴	-6254
▁놀란	-6255
▁따름	-6256
▁맡은	-6257
▁못본	-6258
▁뭐여	-6259
▁뮤직	-6260
▁밑도	-6261
▁부활	-6262
▁소개	-6263
▁어떠	-6264
▁에효	-6265
▁워낙	-6266
▁이종	-6267
▁잃은	-6268
▁임창	-6269
▁잠을	-6270
▁줘야	-6271
▁칭찬	-6272
▁풍자	-6273
▁혼란	-6274
▁황정	-6275
▁힘을	-6276
년대에	-6277
시간을	-6278
점이나	-6279
졌으면	-6280
종일관	-6281
최고다	-6282
하기는	-6283
▁	-6284
.	-6285
이	-6286
다	-6287
는	-6288
고	-6289
지	-6290
화	-6291
영	-6292
가	-6293
하	-6294
도	-6295
아	-6296
에	-6297
나	-6298
기	-6299
한	-6300
보	-6301
어	-6302
의	-6303
만	-6304
ᄏ	-6305
은	-6306
리	-6307
로	-6308
게	-6309
을	-6310
라	-6311
!	-6312
서	-6313
요	-6314
니	-6315
들	-6316
인	-6317
재	-6318
그	-6319
시	-6320
스	-6321
무	-6322
없	-6323
데	-6324
미	-6325
,	-6326
정	-6327
있	-6328
대	-6329
마	-6330
면	-6331
해	-6332
말	-6333
사	-6334
네	-6335
점	-6336
진	-6337
?	-6338
음	-6339
를	-6340
자	-6341
내	-6342
수	-6343
연	-6344
감	-6345
전	-6346
주	-6347
거	-6348
으	-6349
~	-6350
좋	-6351
우	-6352
장	-6353
작	-6354
너	-6355
안	-6356
드	-6357
오	-6358
었	-6359
여	-6360
상	-6361
까	-6362
1	-6363
생	-6364
적	-6365
야	-6366
짜	-6367
제	-6368
것	-6369
0	-6370
봤	-6371
최	-6372
간	-6373
부	-6374
일	-6375
같	-6376
더	-6377
했	-6378
개	-6379
동	-6380
과	-6381
구	-6382
성	-6383
평	-6384
밌	-6385
모	-6386
소	-6387
건	-6388
런	-6389
ᅲ	-6390
중	-6391
본	-6392
비	-6393
신	-6394
와	-6395
러	-6396
배	-6397
되	-6398
할	-6399
않	-6400
운	-6401
았	-6402
히	-6403
분	-6404
때	-6405
던	-6406
치	-6407
;	-6408
각	-6409
려	-6410
유	-6411
공	-6412
잘	-6413
용	-6414
세	-6415
습	-6416
토	-6417
랑	-6418
실	-6419
레	-6420
루	-6421
래	-6422
남	-6423
국	-6424
저	-6425
^	-6426
터	-6427
함	-6428
못	-6429
느	-6430
난	-6431
ᄒ	-6432
명	-6433
람	-6434
독	-6435
2	-6436
조	-6437
알	-6438
왜	-6439
디	-6440
겠	-6441
반	-6442
듯	-6443
르	-6444
볼	-6445
봐	-6446
입	-6447
애	-6448
임	-6449
심	-6450
원	-6451
쓰	-6452
물	-6453
막	-6454
편	-6455
별	-6456
악	-6457
걸	-6458
바	-6459
싶	-6460
역	-6461
금	-6462
든	-6463
타	-6464
준	-6465
력	-6466
ᅳ	-6467
처	-6468
노	-6469
O	-6470
버	-6471
많	-6472
단	-6473
년	-6474
좀	-6475
예	-6476
냥	-6477
트	-6478
현	-6479
당	-6480
름	-6481
뭐	-6482
위	-6483
선	-6484
였	-6485
포	-6486
문	-6487
망	-6488
번	-6489
두	-6490
렇	-6491
추	-6492
완	-6493
억	-6494
관	-6495
션	-6496
냐	-6497
매	-6498
웃	-6499
끝	-6500
살	-6501
코	-6502
줄	-6503
결	-6504
"	-6505
체	-6506
출	-6507
속	-6508
울	-6509
3	-6510
발	-6511
참	-6512
잼	-6513
품	-6514
후	-6515
긴	-6516
극	-6517
박	-6518
설	-6519
질	-6520
불	-6521
프	-6522
된	-6523
직	-6524
린	-6525
계	-6526
경	-6527
눈	-6528
워	-6529
절	-6530
-	-6531
차	-6532
ᅮ	-6533
넘	-6534
죽	-6535
따	-6536
o	-6537
깝	-6538
잔	-6539
액	-6540
강	-6541
님	-6542
길	-6543
답	-6544
른	-6545
식	-6546
청	-6547
엔	-6548
메	-6549
행	-6550
방	-6551
릴	-6552
김	-6553
크	-6554
합	-6555
교	-6556
초	-6557
피	-6558
군	-6559
허	-6560
머	-6561
족	-6562
회	-6563
몰	-6564
'	-6565
천	-6566
돈	-6567
호	-6568
판	-6569
빠	-6570
민	-6571
또	-6572
럽	-6573
파	-6574
친	-6575
날	-6576
즈	-6577
란	-6578
먹	-6579
근	-6580
9	-6581
집	-6582
학	-6583
티	-6584
짱	-6585
온	-6586
멋	-6587
e	-6588
낌	-6589
올	-6590
슨	-6591
순	-6592
괜	-6593
특	-6594
받	-6595
4	-6596
캐	-6597
표	-6598
움	-6599
5	-6600
슬	-6601
증	-6602
t	-6603
달	-6604
얼	-6605
급	-6606
형	-6607
겨	-6608
씨	-6609
며	-6610
목	-6611
필	-6612
엄	-6613
글	-6614
등	-6615
언	-6616
맞	-6617
뭔	-6618
존	-6619
복	-6620
져	-6621
찮	-6622
끼	-6623
귀	-6624
카	-6625
키	-6626
록	-6627
새	-6628
닌	-6629
뻔	-6630
맨	-6631
8	-6632
누	-6633
류	-6634
s	-6635
테	-6636
돌	-6637
색	-6638
7	-6639
외	-6640
꼭	-6641
밋	-6642
졸	-6643
론	-6644
혀	-6645
희	-6646
♥	-6647
슴	-6648
충	-6649
태	-6650
굿	-6651
케	-6652
양	-6653
왔	-6654
산	-6655
통	-6656
갈	-6657
)	-6658
힘	-6659
럼	-6660
흥	-6661
렸	-6662
a	-6663
약	-6664
딩	-6665
낮	-6666
담	-6667
녀	-6668
d	-6669
잡	-6670
격	-6671
림	-6672
브	-6673
뿐	-6674
욕	-6675
높	-6676
릭	-6677
술	-6678
찍	-6679
(	-6680
열	-6681
황	-6682
웠	-6683
솔	-6684
봉	-6685
훈	-6686
탄	-6687
ᄃ	-6688
씬	-6689
몇	-6690
엇	-6691
쉬	-6692
i	-6693
능	-6694
놓	-6695
종	-6696
범	-6697
쳐	-6698
투	-6699
환	-6700
늘	-6701
쉽	-6702
ᄍ	-6703
베	-6704
놀	-6705
찾	-6706
떨	-6707
n	-6708
r	-6709
밖	-6710
싸	-6711
딱	-6712
죠	-6713
병	-6714
될	-6715
쁘	-6716
6	-6717
혼	-6718
팅	-6719
송	-6720
g	-6721
b	-6722
접	-6723
손	-6724
블	-6725
승	-6726
엉	-6727
패	-6728
ᄋ	-6729
삼	-6730
랜	-6731
쾌	-6732
졌	-6733
링	-6734
큼	-6735
석	-6736
클	-6737
픈	-6738
즘	-6739
향	-6740
퍼	-6741
/	-6742
립	-6743
께	-6744
떻	-6745
믿	-6746
백	-6747
변	-6748
갑	-6749
깊	-6750
c	-6751
왕	-6752
_	-6753
뜻	-6754
앞	-6755
써	-6756
났	-6757
홍	-6758
법	-6759
즐	-6760
권	-6761
꺼	-6762
껴	-6763
뒤	-6764
C	-6765
광	-6766
섭	-6767
T	-6768
v	-6769
쟁	-6770
떠	-6771
창	-6772
B	-6773
잇	-6774
책	-6775
킬	-6776
l	-6777
맛	-6778
커	-6779
잠	-6780
벽	-6781
겁	-6782
S	-6783
빨	-6784
팬	-6785
h	-6786
딴	-6787
싫	-6788
먼	-6789
삶	-6790
놈	-6791
락	-6792
잊	-6793
죄	-6794
폭	-6795
채	-6796
업	-6797
확	-6798
짐	-6799
객	-6800
찬	-6801
덕	-6802
깨	-6803
m	-6804
빼	-6805
줘	-6806
괴	-6807
짝	-6808
큐	-6809
휴	-6810
견	-6811
꾸	-6812
암	-6813
빈	-6814
봣	-6815
G	-6816
봄	-6817
훌	-6818
철	-6819
플	-6820
륭	-6821
빙	-6822
흐	-6823
짓	-6824
첨	-6825
월	-6826
밀	-6827
됨	-6828
끌	-6829
둘	-6830
총	-6831
효	-6832
윤	-6833
틀	-6834
혹	-6835
쌍	-6836
탈	-6837
뭘	-6838
걍	-6839
숨	-6840
굴	-6841
궁	-6842
돋	-6843
쓸	-6844
D	-6845
얘	-6846
큰	-6847
곤	-6848
련	-6849
갔	-6850
쁜	-6851
침	-6852
벌	-6853
풍	-6854
룡	-6855
닥	-6856
취	-6857
낭	-6858
끔	-6859
낸	-6860
u	-6861
옛	-6862
텐	-6863
훨	-6864
끄	-6865
낚	-6866
욱	-6867
풀	-6868
맘	-6869
헐	-6870
떤	-6871
V	-6872
엽	-6873
찌	-6874
믹	-6875
몸	-6876
페	-6877
쩌	-6878
꼬	-6879
랐	-6880
튼	-6881
뛰	-6882
ᄉ	-6883
즌	-6884
왠	-6885
낫	-6886
굳	-6887
꿈	-6888
험	-6889
줌	-6890
활	-6891
척	-6892
똥	-6893
빵	-6894
꿀	-6895
묘	-6896
+	-6897
f	-6898
됐	-6899
득	-6900
째	-6901
롭	-6902
쩔	-6903
택	-6904
흘	-6905
잖	-6906
딸	-6907
줬	-6908
착	-6909
혜	-6910
빛	-6911
춘	-6912
y	-6913
콩	-6914
>	-6915
돼	-6916
멘	-6917
팔	-6918
:	-6919
읽	-6920
겟	-6921
찰	-6922
겼	-6923
징	-6924
♡	-6925
꽤	-6926
셨	-6927
갖	-6928
웅	-6929
랄	-6930
젠	-6931
똑	-6932
슷	-6933
*	-6934
멜	-6935
뜨	-6936
북	-6937
흔	-6938
골	-6939
픽	-6940
켜	-6941
햇	-6942
틱	-6943
항	-6944
p	-6945
낄	-6946
료	-6947
멍	-6948
슈	-6949
럴	-6950
첫	-6951
헤	-6952
흑	-6953
십	-6954
옴	-6955
칠	-6956
랬	-6957
M	-6958
응	-6959
깔	-6960
닝	-6961
압	-6962
럭	-6963
곳	-6964
셔	-6965
k	-6966
섹	-6967
땜	-6968
듣	-6969
w	-6970
넣	-6971
쓴	-6972
곡	-6973
F	-6974
쯤	-6975
굉	-6976
널	-6977
옥	-6978
익	-6979
픔	-6980
츠	-6981
닐	-6982
숙	-6983
맥	-6984
젤	-6985
빌	-6986
쳤	-6987
ᄀ	-6988
콜	-6989
폐	-6990
검	-6991
겹	-6992
벗	-6993
률	-6994
앗	-6995
밑	-6996
듬	-6997
%	-6998
흠	-6999
ᄇ	-7000
댓	-7001
펑	-7002
쿠	-7003
깐	-7004
씩	-7005
겐	-7006
륜	-7007
쇼	-7008
엘	-7009
랍	-7010
잃	-7011
령	-7012
풋	-7013
쪽	-7014
킨	-7015
규	-7016
A	-7017
끈	-7018
컬	-7019
뻐	-7020
육	-7021
센	-7022
율	-7023
탕	-7024
몽	-7025
뮤	-7026
땐	-7027
량	-7028
섬	-7029
<	-7030
밥	-7031
축	-7032
협	-7033
놔	-7034
틴	-7035
싱	-7036
념	-7037
힐	-7038
램	-7039
묻	-7040
꼈	-7041
샤	-7042
덜	-7043
짧	-7044
ᄂ	-7045
꼽	-7046
탁	-7047
깜	-7048
낀	-7049
촌	-7050
젊	-7051
=	-7052
E	-7053
찝	-7054
뇌	-7055
엿	-7056
논	-7057
콤	-7058
웨	-7059
릿	-7060
렵	-7061
붙	-7062
닿	-7063
뜬	-7064
뷰	-7065
촬	-7066
됬	-7067
꼴	-7068
I	-7069
맹	-7070
핵	-7071
밤	-7072
컨	-7073
균	-7074
납	-7075
렌	-7076
푸	-7077
멀	-7078
춤	-7079
칼	-7080
헌	-7081
껏	-7082
냈	-7083
렬	-7084
앙	-7085
@	-7086
ᄌ	-7087
셈	-7088
콘	-7089
염	-7090
흡	-7091
볍	-7092
킹	-7093
턴	-7094
퀄	-7095
봅	-7096
랙	-7097
떡	-7098
혁	-7099
늦	-7100
힌	-7101
랫	-7102
쥐	-7103
됩	-7104
x	-7105
꽃	-7106
엑	-7107
찡	-7108
퇴	-7109
ᄅ	-7110
쎄	-7111
씁	-7112
앤	-7113
닫	-7114
얻	-7115
웬	-7116
놨	-7117
쩐	-7118
폰	-7119
땅	-7120
렉	-7121
빡	-7122
늙	-7123
잉	-7124
X	-7125
몬	-7126
끊	-7127
롱	-7128
&	-7129
옹	-7130
윌	-7131
★	-7132
벤	-7133
z	-7134
벨	-7135
쁨	-7136
잭	-7137
홀	-7138
쥬	-7139
챙	-7140
N	-7141
P	-7142
뒷	-7143
좌	-7144
뚱	-7145
쏘	-7146
뭉	-7147
잤	-7148
썩	-7149
텔	-7150
폴	-7151
춰	-7152
톰	-7153
밝	-7154
뉴	-7155
ᄆ	-7156
녹	-7157
뽕	-7158
롯	-7159
농	-7160
썼	-7161
둥	-7162
씀	-7163
뜩	-7164
짠	-7165
낙	-7166
뿌	-7167
팀	-7168
L	-7169
헛	-7170
휘	-7171
껄	-7172
줍	-7173
퉁	-7174
엠	-7175
삭	-7176
쫌	-7177
겉	-7178
톤	-7179
획	-7180
덤	-7181
맙	-7182
덩	-7183
묵	-7184
칭	-7185
탑	-7186
붕	-7187
닮	-7188
룬	-7189
맡	-7190
쩜	-7191
혐	-7192
벼	-7193
봇	-7194
갓	-7195
숭	-7196
값	-7197
낼	-7198
듭	-7199
쵝	-7200
탐	-7201
뀌	-7202
컴	-7203
틈	-7204
팍	-7205
떄	-7206
왓	-7207
댄	-7208
뽑	-7209
꾼	-7210
쯧	-7211
튀	-7212
퓨	-7213
냄	-7214
푹	-7215
섞	-7216
꽝	-7217
꿔	-7218
냉	-7219
쩝	-7220
칸	-7221
갱	-7222
낳	-7223
첩	-7224
측	-7225
혈	-7226
R	-7227
ᅡ	-7228
렁	-7229
뢰	-7230
펐	-7231
흉	-7232
[	-7233
j	-7234
녕	-7235
셀	-7236
옆	-7237
멸	-7238
뱀	-7239
옷	-7240
뚝	-7241
K	-7242
븐	-7243
뿔	-7244
털	-7245
샘	-7246
씹	-7247
컷	-7248
팩	-7249
갠	-7250
렷	-7251
셉	-7252
]	-7253
례	-7254
략	-7255
빅	-7256
앉	-7257
넌	-7258
므	-7259
딧	-7260
깎	-7261
펜	-7262
섯	-7263
넷	-7264
딘	-7265
땡	-7266
떼	-7267
톱	-7268
`	-7269
ᅩ	-7270
펙	-7271
닙	-7272
덴	-7273
칙	-7274
밍	-7275
ᅵ	-7276
뎁	-7277
빗	-7278
탓	-7279
곱	-7280
롤	-7281
쏟	-7282
닉	-7283
둑	-7284
멈	-7285
쩡	-7286
캬	-7287
쿵	-7288
퀴	-7289
W	-7290
☆	-7291
델	-7292
젼	-7293
벅	-7294
뻤	-7295
뽀	-7296
둔	-7297
쭉	-7298
긋	-7299
룩	-7300
층	-7301
콧	-7302
헬	-7303
깡	-7304
뎀	-7305
왤	-7306
찜	-7307
켓	-7308
껐	-7309
핑	-7310
넹	-7311
윈	-7312
웰	-7313
텝	-7314
겪	-7315
렐	-7316
컥	-7317
폼	-7318
H	-7319
핀	-7320
깁	-7321
깍	-7322
낯	-7323
팝	-7324
늑	-7325
삐	-7326
앵	-7327
곰	-7328
싼	-7329
띄	-7330
랭	-7331
쿨	-7332
쏠	-7333
펼	-7334
곧	-7335
뭥	-7336
걱	-7337
렀	-7338
ᄎ	-7339
ᅥ	-7340
곽	-7341
쪼	-7342
쯔	-7343
찔	-7344
U	-7345
틸	-7346
딜	-7347
앨	-7348
얄	-7349
쿡	-7350
J	-7351
렛	-7352
찐	-7353
싹	-7354
쫄	-7355
뷔	-7356
짬	-7357
랩	-7358
뭣	-7359
탱	-7360
및	-7361
쨌	-7362
ᄁ	-7363
땀	-7364
깃	-7365
뗄	-7366
셋	-7367
쫓	-7368
킥	-7369
젖	-7370
삽	-7371
옵	-7372
짤	-7373
눌	-7374
뎅	-7375
둡	-7376
맴	-7377
밴	-7378
템	-7379
튜	-7380
팠	-7381
ᄡ	-7382
넬	-7383
숀	-7384
켄	-7385
홈	-7386
닷	-7387
뱅	-7388
샌	-7389
셜	-7390
툭	-7391
닼	-7392
렴	-7393
쇄	-7394
켰	-7395
툰	-7396
뻥	-7397
썰	-7398
옳	-7399
웟	-7400
죤	-7401
ᄊ	-7402
껀	-7403
뚜	-7404
릅	-7405
빕	-7406
쌩	-7407
엮	-7408
걷	-7409
긍	-7410
똘	-7411
릇	-7412
셰	-7413
찢	-7414
몫	-7415
썸	-7416
읍	-7417
쩍	-7418
뭇	-7419
힙	-7420
냅	-7421
랴	-7422
Y	-7423
끗	-7424
닭	-7425
룰	-7426
맑	-7427
뺏	-7428
엣	-7429
쟈	-7430
핸	-7431
ᅢ	-7432
셧	-7433
쉐	-7434
욤	-7435
띠	-7436
헉	-7437
。	-7438
덮	-7439
듦	-7440
뤄	-7441
밉	-7442
쉴	-7443
옮	-7444
팡	-7445
뻣	-7446
첼	-7447
츄	-7448
컸	-7449
킴	-7450
맺	-7451
밧	-7452
즉	-7453
퉤	-7454
맷	-7455
쌓	-7456
콕	-7457
푼	-7458
혔	-7459
됫	-7460
뿜	-7461
캡	-7462
틋	-7463
덧	-7464
캠	-7465
솜	-7466
쌈	-7467
쏴	-7468
퀸	-7469
톡	-7470
홧	-7471
훼	-7472
겻	-7473
뜸	-7474
렘	-7475
밟	-7476
왈	-7477
캅	-7478
팽	-7479
핫	-7480
귄	-7481
둠	-7482
뼈	-7483
웹	-7484
잣	-7485
짙	-7486
캔	-7487
헷	-7488
꽁	-7489
랏	-7490
멤	-7491
뻑	-7492
얀	-7493
쭈	-7494
뚫	-7495
좆	-7496
킵	-7497
ᄐ	-7498
곁	-7499
땠	-7500
뜯	-7501
륵	-7502
믄	-7503
붉	-7504
숲	-7505
칫	-7506
턱	-7507
꽉	-7508
늬	-7509
룸	-7510
텅	-7511
훔	-7512
넓	-7513
녁	-7514
덥	-7515
웍	-7516
삘	-7517
쇠	-7518
썬	-7519
젝	-7520
졋	-7521
짖	-7522
펭	-7523
꾹	-7524
떳	-7525
멕	-7526
헨	-7527
겸	-7528
끓	-7529
묶	-7530
헝	-7531
훗	-7532
갇	-7533
궈	-7534
껍	-7535
뎌	-7536
줫	-7537
쨋	-7538
펠	-7539
겄	-7540
딕	-7541
쉣	-7542
앓	-7543
쫒	-7544
탠	-7545
펴	-7546
뉘	-7547
밨	-7548
벙	-7549
썻	-7550
앜	-7551
얽	-7552
윽	-7553
띵	-7554
럿	-7555
릉	-7556
뭡	-7557
밸	-7558
빤	-7559
쏙	-7560
뀐	-7561
둬	-7562
룹	-7563
욬	-7564
잎	-7565
켈	-7566
펀	-7567
핏	-7568
↓	-7569
꽥	-7570
탭	-7571
횡	-7572
꺄	-7573
꼇	-7574
꿨	-7575
넼	-7576
빚	-7577
넋	-7578
웩	-7579
챔	-7580
텀	-7581
흰	-7582
人	-7583
긔	-7584
뒀	-7585
뱉	-7586
뺨	-7587
쉰	-7588
엎	-7589
췄	-7590
톨	-7591
Z	-7592
q	-7593
눠	-7594
댐	-7595
댕	-7596
딨	-7597
륙	-7598
샷	-7599
탤	-7600
핳	-7601
흙	-7602
#	-7603
ᅦ	-7604
댈	-7605
됌	-7606
샀	-7607
샹	-7608
숫	-7609
쌀	-7610
엌	-7611
컵	-7612
쿄	-7613
펄	-7614
꽂	-7615
됴	-7616
샬	-7617
쒸	-7618
칩	-7619
픕	-7620
횽	-7621
닦	-7622
듀	-7623
촉	-7624
킷	-7625
탔	-7626
햄	-7627
ᄑ	-7628
○	-7629
뺀	-7630
뻘	-7631
솟	-7632
슐	-7633
씌	-7634
욜	-7635
젓	-7636
쫙	-7637
쬐	-7638
괘	-7639
귓	-7640
넨	-7641
뇨	-7642
돕	-7643
쌔	-7644
쑤	-7645
욧	-7646
췌	-7647
힛	-7648
·	-7649
갸	-7650
롬	-7651
썽	-7652
왼	-7653
좁	-7654
쥔	-7655
쨩	-7656
쪄	-7657
켠	-7658
퀀	-7659
홉	-7660
ᅭ	-7661
ᆞ	-7662
’	-7663
꿋	-7664
닳	-7665
밭	-7666
셸	-7667
쌤	-7668
씽	-7669
얹	-7670
퍽	-7671
훅	-7672
\	-7673
갤	-7674
꼼	-7675
댔	-7676
엥	-7677
윙	-7678
쿼	-7679
햐	-7680
깬	-7681
늠	-7682
뛴	-7683
뤘	-7684
뤽	-7685
몹	-7686
밈	-7687
붓	-7688
얕	-7689
쵸	-7690
핍	-7691
Q	-7692
‘	-7693
굵	-7694
깽	-7695
꺅	-7696
낰	-7697
낱	-7698
녔	-7699
놉	-7700
뎈	-7701
뜰	-7702
붐	-7703
썅	-7704
씻	-7705
얌	-7706
윗	-7707
쟝	-7708
퀼	-7709
힝	-7710
|	-7711
ᅧ	-7712
“	-7713
겜	-7714
곸	-7715
굼	-7716
됀	-7717
딥	-7718
슌	-7719
앳	-7720
웁	-7721
짭	-7722
팜	-7723
펏	-7724
휼	-7725
ᅣ	-7726
乃	-7727
꾀	-7728
꿉	-7729
낡	-7730
뚤	-7731
릎	-7732
뱃	-7733
뵈	-7734
싯	-7735
쑈	-7736
융	-7737
젬	-7738
텍	-7739
댜	-7740
돠	-7741
딪	-7742
빔	-7743
빽	-7744
샴	-7745
섰	-7746
얔	-7747
”	-7748
→	-7749
甲	-7750
긁	-7751
꺽	-7752
땟	-7753
떴	-7754
뵙	-7755
쁠	-7756
쉘	-7757
욘	-7758
욯	-7759
읎	-7760
쟤	-7761
짚	-7762
캣	-7763
쾅	-7764
쿤	-7765
퀘	-7766
핡	-7767
♬	-7768
갚	-7769
걔	-7770
넉	-7771
뇬	-7772
댁	-7773
룻	-7774
맬	-7775
멎	-7776
뭍	-7777
뺐	-7778
뺴	-7779
숴	-7780
웡	-7781
촘	-7782
콥	-7783
큘	-7784
퉷	-7785
훤	-7786
、	-7787
無	-7788
괄	-7789
꿰	-7790
됏	-7791
뤠	-7792
뮬	-7793
좃	-7794
죵	-7795
쨔	-7796
핰	-7797
휩	-7798
겅	-7799
겔	-7800
뀔	-7801
넥	-7802
멧	-7803
믓	-7804
벡	-7805
뷁	-7806
뿅	-7807
뿍	-7808
쁩	-7809
샐	-7810
슥	-7811
쏜	-7812
옜	-7813
쪙	-7814
첸	-7815
칵	-7816
큽	-7817
킁	-7818
폄	-7819
풉	-7820
핥	-7821
횟	-7822
굽	-7823
꺾	-7824
껌	-7825
끽	-7826
넴	-7827
눅	-7828
륨	-7829
뺑	-7830
썹	-7831
쒯	-7832
얍	-7833
잌	-7834
잰	-7835
좔	-7836
찼	-7837
쳇	-7838
츤	-7839
텨	-7840
툴	-7841
퐁	-7842
헠	-7843
휙	-7844
휠	-7845
흣	-7846
』	-7847
괞	-7848
굶	-7849
깼	-7850
꼐	-7851
꽈	-7852
낍	-7853
넛	-7854
넝	-7855
덱	-7856
돔	-7857
뒹	-7858
렜	-7859
볶	-7860
샛	-7861
샵	-7862
섀	-7863
쫑	-7864
챈	-7865
춥	-7866
훑	-7867
『	-7868
갯	-7869
괸	-7870
끙	-7871
냔	-7872
눕	-7873
뉜	-7874
뎃	-7875
멱	-7876
벳	-7877
뻗	-7878
뿡	-7879
쎈	-7880
앍	-7881
왁	-7882
욥	-7883
졷	-7884
촛	-7885
캄	-7886
콱	-7887
팰	-7888
햅	-7889
헴	-7890
헿	-7891
홥	-7892
{	-7893
}	-7894
곀	-7895
궤	-7896
꺠	-7897
껑	-7898
뀜	-7899
놧	-7900
닠	-7901
뒈	-7902
땔	-7903
랖	-7904
밓	-7905
쑥	-7906
윅	-7907
읭	-7908
잴	-7909
줏	-7910
쥑	-7911
혓	-7912
$	-7913
ᄈ	-7914
ᆪ	-7915
故	-7916
死	-7917
갘	-7918
깟	-7919
눔	-7920
닛	-7921
딛	-7922
떵	-7923
롹	-7924
앰	-7925
잦	-7926
짰	-7927
쨰	-7928
쫘	-7929
챤	-7930
큭	-7931
툼	-7932
헵	-7933
흩	-7934
⌒	-7935
♪	-7936
作	-7937
女	-7938
괭	-7939
냨	-7940
랗	-7941
뭄	-7942
벚	-7943
빰	-7944
빴	-7945
뺄	-7946
숟	-7947
쌉	-7948
썪	-7949
쏭	-7950
씸	-7951
앱	-7952
왘	-7953
읊	-7954
짊	-7955
쮸	-7956
쳣	-7957
컹	-7958
팟	-7959
훠	-7960
ン	-7961
꿇	-7962
냠	-7963
덟	-7964
떙	-7965
뛸	-7966
랔	-7967
렙	-7968
롸	-7969
뤼	-7970
뮈	-7971
믈	-7972
븅	-7973
뽐	-7974
숏	-7975
슝	-7976
옇	-7977
웜	-7978
죨	-7979
쥰	-7980
짘	-7981
쨍	-7982
찟	-7983
찹	-7984
챘	-7985
챦	-7986
촐	-7987
츈	-7988
캉	-7989
캘	-7990
콰	-7991
퀵	-7992
팥	-7993
햌	-7994
햏	-7995
